<unk>	0
<s>	0
</s>	0
▁	-3.15404
.	-3.47864
..	-4.31252
이	-4.43154
▁영화	-4.49327
...	-4.54649
의	-4.71184
가	-4.71443
도	-4.80524
는	-4.82849
,	-5.01124
을	-5.05136
에	-5.08111
고	-5.13174
다	-5.15053
은	-5.21848
지	-5.27526
?	-5.32431
한	-5.41946
▁너무	-5.47988
!	-5.49225
를	-5.58417
만	-5.59611
▁정말	-5.60172
▁이	-5.69684
로	-5.73562
게	-5.74809
나	-5.80049
~	-5.80568
▁진짜	-5.80642
영화	-5.81067
과	-6.02362
어	-6.02774
기	-6.02813
라	-6.0985
리	-6.10691
점	-6.12254
네	-6.13246
인	-6.15735
아	-6.16647
하고	-6.21339
▁안	-6.24611
으로	-6.2548
▁잘	-6.28509
!!	-6.28851
서	-6.29902
....	-6.30233
▁왜	-6.32723
▁1	-6.33
에서	-6.33408
와	-6.35697
▁그	-6.36572
요	-6.3705
들	-6.38639
▁이런	-6.39596
▁아	-6.39869
해	-6.40958
▁더	-6.41061
▁수	-6.45225
네요	-6.4624
▁다	-6.46295
스	-6.46737
자	-6.48494
거	-6.52675
▁그냥	-6.52829
하는	-6.53386
▁본	-6.57102
▁드라마	-6.60071
음	-6.60585
면	-6.60994
▁10	-6.61916
지만	-6.64298
하	-6.64706
수	-6.65905
함	-6.68302
대	-6.69264
니	-6.69324
▁보고	-6.69816
▁평점	-6.70528
▁연기	-6.71649
시	-6.71689
▁내	-6.73391
야	-6.7569
하다	-6.8147
▁좀	-6.81633
사	-6.81805
일	-6.8316
하게	-6.83436
이다	-6.83492
▁ᄏᄏ	-6.8397
진	-6.86515
▁이거	-6.86651
▁영화를	-6.87087
▁최고	-6.87292
▁최고의	-6.87411
▁한	-6.87664
▁참	-6.88271
▁봤는데	-6.88412
▁쓰레기	-6.88792
주	-6.89076
미	-6.90491
우	-6.91334
▁완전	-6.91556
데	-6.91593
보다	-6.92474
여	-6.92695
▁못	-6.92769
▁없다	-6.92782
는데	-6.93185
구	-6.94296
▁없는	-6.94476
안	-6.95438
ᄏᄏ	-6.95701
보	-6.95884
임	-6.96212
▁스토리	-6.96849
!!!	-6.98341
냐	-6.99024
▁이건	-6.99152
할	-6.99345
▁내가	-6.99376
성	-6.99556
드	-7.00091
▁2	-7.01696
▁영화가	-7.02428
▁영화는	-7.03204
▁개	-7.0434
정	-7.04501
▁좋은	-7.04579
▁이게	-7.04818
듯	-7.04913
까지	-7.05081
들이	-7.07298
던	-7.07743
장	-7.07893
▁있는	-7.08071
^^	-7.08093
신	-7.08303
해서	-7.09245
상	-7.11301
▁보는	-7.11419
▁이렇게	-7.11527
▁난	-7.11955
▁다시	-7.1261
적	-7.13092
▁나	-7.13576
▁3	-7.13607
ᄏ	-7.14011
트	-7.14521
중	-7.15442
~~	-7.16308
보고	-7.17016
▁재밌게	-7.17136
▁평점이	-7.17671
치	-7.18043
▁것	-7.181
러	-7.19211
려	-7.19772
부	-7.20644
마	-7.21872
건	-7.22092
▁역시	-7.22337
전	-7.22626
▁말	-7.23418
오	-7.23975
비	-7.24276
▁뭐	-7.24968
1	-7.25521
랑	-7.25932
▁넘	-7.26211
화	-7.26234
▁많이	-7.28109
▁작품	-7.28123
세	-7.28694
그	-7.28873
개	-7.2978
분	-7.29947
▁보	-7.31012
용	-7.31758
;;	-7.31868
▁전	-7.33309
습니다	-7.33345
▁오	-7.33519
년	-7.33693
물	-7.34058
원	-7.34083
▁지	-7.34514
▁재미	-7.34651
내	-7.35165
히	-7.35675
질	-7.36066
▁볼	-7.36258
▁감동	-7.36683
??	-7.36987
▁별로	-7.37592
▁마지막	-7.39151
▁무	-7.39509
▁하	-7.39535
▁저	-7.39737
인데	-7.40038
했다	-7.4043
2	-7.409
▁꼭	-7.41469
▁또	-7.41509
적인	-7.41739
소	-7.41821
▁ᄏᄏᄏ	-7.4248
것	-7.4281
때	-7.44133
라고	-7.44379
진짜	-7.4452
▁별	-7.44876
▁아깝다	-7.45109
급	-7.45368
감	-7.45588
▁주	-7.46111
같은	-7.47925
더	-7.49088
▁가장	-7.49137
▁감독	-7.49419
▁하나	-7.49677
하지	-7.49704
▁시간	-7.49722
▁생각	-7.49766
ᅲᅲ	-7.49826
ᄏᄏᄏ	-7.50034
식	-7.50889
▁액션	-7.51453
'	-7.51972
말	-7.51996
어요	-7.52078
선	-7.52346
▁명작	-7.52712
본	-7.53273
입니다	-7.53626
▁기대	-7.53641
▁그리고	-7.53675
▁이야기	-7.53906
제	-7.54498
무	-7.54801
영	-7.55368
너무	-7.55498
▁사	-7.55498
▁없고	-7.55659
디	-7.55679
군	-7.55837
▁하는	-7.56033
▁지금	-7.56093
편	-7.57276
;	-7.58492
좀	-7.59139
드라마	-7.59421
걸	-7.5952
▁보면	-7.59579
▁비	-7.59881
▁무슨	-7.59949
란	-7.6009
▁ᄏ	-7.60813
호	-7.60928
으면	-7.60993
동	-7.61588
긴	-7.61718
남	-7.61911
▁김	-7.62009
▁정	-7.62109
작	-7.62334
▁ᅲᅲ	-7.63313
▁조	-7.63496
없는	-7.63872
▁한국	-7.63989
이나	-7.64062
씨	-7.64221
▁사랑	-7.64289
▁다른	-7.64856
▁아니	-7.65161
▁배우	-7.65195
조	-7.65381
ᅲ	-7.65386
▁할	-7.65759
▁만든	-7.65866
▁중	-7.66424
유	-7.66615
▁처음	-7.66646
심	-7.66702
▁느낌	-7.66869
▁유	-7.67889
르	-7.67986
▁말이	-7.68175
된	-7.6835
▁돈	-7.68749
▁ᅳᅳ	-7.68836
정말	-7.69275
)	-7.69313
있는	-7.694
울	-7.69681
부터	-7.69823
줄	-7.7003
▁미	-7.70092
▁일	-7.70429
라는	-7.70515
▁기	-7.70916
당	-7.71379
▁좋아	-7.7175
▁짱	-7.718
▁일본	-7.73303
▁두	-7.73612
모	-7.73807
▁내용	-7.74128
레	-7.74672
▁영화다	-7.74805
▁와	-7.74952
▁연출	-7.75144
▁좋다	-7.75204
연	-7.75559
▁대	-7.75852
타	-7.75969
3	-7.76388
크	-7.76653
명	-7.76837
위	-7.76944
바	-7.77018
두	-7.77161
운	-7.77179
에게	-7.77205
▁신	-7.77289
▁끝까지	-7.77562
난	-7.77873
래	-7.78458
▁마	-7.78687
준	-7.79349
▁자	-7.7952
간	-7.79953
들의	-7.80367
ᅳᅳ	-7.80388
▁재밌다	-7.80566
한다	-7.80615
▁ᄒᄒ	-7.81119
▁어	-7.81661
▁있다	-7.8181
린	-7.81866
▁남	-7.82314
▁솔직히	-7.82644
▁봐도	-7.82713
▁부	-7.82829
죠	-7.82852
류	-7.82868
발	-7.82989
▁제	-7.8311
▁봤다	-7.83424
잘	-7.83508
노	-7.83703
▁같은	-7.83727
판	-7.83738
,,	-7.84359
인가	-7.84529
▁뭔가	-7.84538
살	-7.84554
되는	-7.84638
길	-7.84739
프	-7.85
연기	-7.85214
▁재미있게	-7.85736
워	-7.86714
▁알	-7.86848
▁거	-7.87174
▁아주	-7.87178
희	-7.87988
▁인생	-7.87994
단	-7.88185
▁코미디	-7.8846
▁여자	-7.88666
경	-7.88836
▁시	-7.88972
재	-7.89342
▁때	-7.89677
▁이영화	-7.89784
▁전혀	-7.89916
합니다	-7.8997
까	-7.90318
▁최악	-7.90589
▁이걸	-7.90667
었다	-7.90703
처럼	-7.90768
루	-7.90953
▁'	-7.91025
인지	-7.91282
▁같다	-7.91302
하나	-7.91334
했던	-7.91439
으	-7.91444
▁대박	-7.92087
▁애	-7.92471
▁한번	-7.92881
▁최악의	-7.93233
저	-7.93442
민	-7.93595
생	-7.94286
▁해	-7.94711
때문에	-7.94856
▁하지만	-7.94868
▁구	-7.95015
엔	-7.9503
▁대한	-7.95062
방	-7.95484
하지만	-7.96629
▁내용이	-7.96932
봤는데	-7.96969
번	-7.97082
▁줄	-7.9712
▁재미없다	-7.97199
▁실망	-7.97694
없다	-7.97834
▁바	-7.97887
▁모두	-7.97951
면서	-7.98141
ᄒᄒ	-7.98803
님	-7.99166
겠다	-7.99207
(	-7.99373
못	-8.00069
피	-8.00126
국	-8.00204
며	-8.00279
-	-8.00358
▁사람	-8.0054
하네	-8.00704
▁후	-8.00724
▁계속	-8.00804
하면	-8.01096
박	-8.01205
차	-8.01465
티	-8.0148
시간	-8.01529
▁아니라	-8.01575
▁모	-8.01808
든	-8.01812
▁많은	-8.0189
10	-8.02269
이랑	-8.02757
림	-8.02758
▁나오는	-8.03133
e	-8.03174
▁내내	-8.03239
▁어떻게	-8.03329
구나	-8.03656
▁그래도	-8.03676
▁반	-8.03744
▁않고	-8.03757
▁장	-8.03911
▁보기	-8.04199
들은	-8.0438
버	-8.0444
지는	-8.04722
▁스	-8.05005
파	-8.05074
반	-8.05082
관	-8.05157
▁배우들	-8.05295
▁7	-8.05406
날	-8.05422
카	-8.05425
따	-8.05507
▁공포	-8.0572
터	-8.06088
점도	-8.06092
▁4	-8.06191
▁아닌	-8.06784
▁굿	-8.07073
▁딱	-8.07076
없이	-8.07229
이라	-8.07252
▁이상	-8.07261
▁연기가	-8.0732
▁우리	-8.07387
하네요	-8.07427
!!!!	-8.07492
▁아름다운	-8.07597
▁5	-8.07813
▁소	-8.07928
▁수준	-8.08056
키	-8.08392
형	-8.08434
▁장면	-8.08473
▁아니다	-8.08697
애	-8.08902
~~~	-8.09339
▁우	-8.09347
점이	-8.09464
▁추천	-8.09555
o	-8.0958
달	-8.09914
▁9	-8.09923
▁스릴러	-8.09941
즈	-8.10255
▁만드는	-8.10426
▁제일	-8.1044
▁박	-8.10561
▁끝	-8.1115
ᄒ	-8.11276
현	-8.12291
▁반전	-8.12399
다니	-8.1248
▁전개	-8.12595
▁조금	-8.12693
4	-8.12712
▁그런	-8.12921
▁이제	-8.13049
▁강	-8.13094
▁듯	-8.13363
적으로	-8.13376
▁싶다	-8.13616
▁보다가	-8.13909
▁않은	-8.1414
▁않는	-8.14219
보면	-8.1432
▁내용도	-8.14504
♥	-8.14609
▁되	-8.14824
▁개봉	-8.14857
▁남는	-8.14941
ᅳ	-8.15
니까	-8.15124
▁8	-8.15812
▁요즘	-8.15835
▁0	-8.15934
되	-8.15979
▁모든	-8.16145
스토리	-8.16329
▁연기도	-8.16579
볼	-8.16593
어서	-8.16597
지도	-8.16729
▁근데	-8.16804
▁만들어	-8.16991
▁음악	-8.1774
년대	-8.1774
▁보다	-8.17805
▁주인공	-8.17928
▁아까운	-8.18098
공	-8.18173
보는	-8.18245
▁눈	-8.18247
생각	-8.18267
망	-8.1827
▁재미도	-8.18481
▁여운이	-8.18496
▁남자	-8.1852
5	-8.18571
▁기억	-8.19172
▁절대	-8.19181
후	-8.19411
▁심	-8.19521
▁피	-8.19547
t	-8.19835
▁없	-8.19917
▁가족	-8.20335
▁건	-8.20613
체	-8.20716
짱	-8.20743
▁욕	-8.20909
▁시간이	-8.20937
▁감독이	-8.20942
▁스토리가	-8.21179
▁애니	-8.21276
▁배	-8.2142
▁아직도	-8.21431
▁나는	-8.21656
▁이해	-8.21795
겨	-8.21915
산	-8.22159
▁재밌어요	-8.22316
이라는	-8.22337
▁막장	-8.22454
▁속	-8.22545
▁연기력	-8.2261
▁OO	-8.22611
▁파	-8.2267
배	-8.23016
다가	-8.23154
코	-8.23485
▁뻔한	-8.23612
▁엄청	-8.24242
예	-8.24408
ᄏᄏᄏᄏ	-8.24796
▁영화라고	-8.24834
▁오랜만에	-8.25225
이란	-8.25237
▁몇	-8.25508
ᅮᅮ	-8.25868
참	-8.25872
▁ᄏᄏᄏᄏ	-8.25934
하기	-8.26038
던데	-8.26085
▁때문에	-8.26156
왜	-8.26201
져	-8.26281
▁제대로	-8.26333
▁재밌	-8.26352
죽	-8.26399
▁멋진	-8.2651
한테	-8.26631
▁노	-8.26725
▁날	-8.26754
않	-8.26794
▁불	-8.26874
극	-8.27228
▁영화입니다	-8.27523
;;;	-8.2778
▁걍	-8.28076
▁하고	-8.28124
뿐	-8.28613
정도	-8.2873
▁나름	-8.28823
▁울	-8.29174
것도	-8.29201
▁나오	-8.29348
문	-8.29528
금	-8.29609
려고	-8.29728
▁좋았다	-8.30374
해요	-8.30395
▁나온	-8.30559
투	-8.30717
▁좋고	-8.30898
▁차라리	-8.31037
꺼	-8.31072
▁결말	-8.31168
잼	-8.3126
능	-8.3139
점은	-8.31542
▁봤습니다	-8.31548
▁미국	-8.31559
▁쓰	-8.31773
속	-8.31791
밖에	-8.31867
▁도대체	-8.31874
▁진심	-8.31882
▁제목	-8.31893
▁지루하고	-8.31959
▁눈물	-8.32052
▁웃	-8.32056
토	-8.32063
???	-8.32278
▁재	-8.3229
배우	-8.323
태	-8.3248
▁주는	-8.32604
▁걸	-8.32639
였다	-8.32683
매	-8.32695
라도	-8.32715
▁공감	-8.32751
▁예	-8.32919
▁스토리도	-8.3293
니다	-8.32965
▁B	-8.3303
▁성	-8.33039
▁공포영화	-8.33059
▁지루한	-8.33073
쳐	-8.3318
▁발	-8.33239
회	-8.33285
7	-8.33381
▁나도	-8.33434
는거	-8.33501
격	-8.33717
▁원작	-8.33731
인듯	-8.33868
평점	-8.33878
▁재밌는	-8.33896
없	-8.34253
▁졸	-8.34269
▁영	-8.34377
▁연	-8.34456
▁ᅲ	-8.34635
▁아니고	-8.34833
▁봤던	-8.35181
▁캐릭터	-8.35192
▁수작	-8.35226
▁^^	-8.35379
▁시리즈	-8.35426
▁최고다	-8.35625
석	-8.35849
▁공	-8.36336
a	-8.36657
했는데	-8.36695
▁감독의	-8.36704
▁보면서	-8.36761
▁지루함	-8.36783
▁정도	-8.36915
▁여	-8.37011
락	-8.3719
▁기분	-8.37279
/	-8.37428
▁없음	-8.37431
▁재미가	-8.37483
녀	-8.37691
봤다	-8.37868
실	-8.37926
▁동	-8.38001
▁20	-8.38009
최고	-8.38091
▁되는	-8.38102
▁원	-8.38152
▁영상	-8.38338
는게	-8.38351
▁OOO	-8.3837
▁세	-8.3839
▁우리나라	-8.38479
▁싶은	-8.38674
사람	-8.38675
▁대사	-8.38911
▁망	-8.38925
▁재밋	-8.38946
이고	-8.39109
▁영화의	-8.39161
▁보세요	-8.39261
중에	-8.39407
▁좋아하는	-8.39538
▁괜찮은	-8.39625
~!	-8.39825
▁가슴	-8.40213
▁긴장감	-8.40285
종	-8.4042
넘	-8.40554
등	-8.40625
케	-8.40757
승	-8.4076
▁소재	-8.40801
감동	-8.40877
▁마지막에	-8.4123
그냥	-8.41383
역	-8.41559
▁시작	-8.41693
했	-8.41797
건지	-8.41812
더라	-8.41948
▁죽	-8.41956
스트	-8.42255
었는데	-8.42472
▁한국영화	-8.42769
▁시나리오	-8.42899
▁뭘	-8.42943
▁보게	-8.42956
6	-8.4304
▁표현	-8.43096
▁졸작	-8.43188
근	-8.43192
▁초	-8.43194
▁알바	-8.43272
학	-8.43349
구만	-8.4356
들을	-8.43591
▁기억에	-8.4364
▁뭔	-8.43816
,,,	-8.44174
테	-8.44191
8	-8.4451
▁후회	-8.44558
▁특히	-8.44729
▁이해가	-8.44741
▁현실	-8.44888
▁막	-8.45152
좋	-8.45257
해도	-8.45363
▁진	-8.45492
▁애니메이션	-8.45581
릴	-8.4561
▁지루하다	-8.45694
설	-8.45892
업	-8.45894
▁사람들	-8.45969
▁그저	-8.46164
i	-8.46171
d	-8.46188
이라고	-8.46507
절	-8.4651
짐	-8.46515
▁만들	-8.46557
감독	-8.46647
봄	-8.46727
장면	-8.46906
▁배우들의	-8.46923
▁보는내내	-8.46924
머	-8.47106
▁사실	-8.47418
▁허	-8.47523
▁영화에	-8.47546
입	-8.47684
▁있	-8.47745
움	-8.48301
강	-8.48459
▁봤어요	-8.48777
▁행복	-8.48778
▁함께	-8.48825
이런	-8.48838
▁필요	-8.48858
▁될	-8.48877
사랑	-8.48952
악	-8.48989
집	-8.49006
있다	-8.49042
양	-8.49175
▁맞	-8.49219
탄	-8.49283
▁6	-8.49331
만큼	-8.49491
돈	-8.49645
▁머	-8.49724
불	-8.49768
s	-8.4996
▁강추	-8.49997
재밌	-8.50071
브	-8.50089
▁인간	-8.50201
▁만화	-8.50603
리는	-8.50982
먹	-8.51315
력	-8.5147
▁살	-8.515
▁노래	-8.51611
▁캐스팅	-8.51615
통	-8.51688
는지	-8.51885
▁않	-8.51923
▁개인적으로	-8.5227
▁오늘	-8.52376
포	-8.52454
ᅮ	-8.52752
▁코믹	-8.52833
너	-8.52853
▁차	-8.529
쓰레기	-8.53203
작품	-8.5325
▁매	-8.53405
▁몰입도	-8.53582
었던	-8.53604
▁못한	-8.53804
봐도	-8.54025
담	-8.54105
행	-8.54167
▁좋아요	-8.54611
점대	-8.54828
▁웃기	-8.54896
▁존나	-8.55117
주는	-8.55339
▁극장에서	-8.55366
▁된	-8.55452
▁큰	-8.55457
았다	-8.55635
▁매우	-8.55762
글	-8.55768
""""	-8.55964
이야	-8.55981
알	-8.56121
있	-8.56315
초	-8.56387
▁제발	-8.5648
▁잠	-8.56546
김	-8.5668
▁영화로	-8.56733
▁안되는	-8.56812
▁들	-8.57111
▁없이	-8.57136
▁결국	-8.57206
▁더빙	-8.57616
▁생각이	-8.577
계	-8.57708
▁재밌음	-8.57844
봐	-8.57987
재미	-8.58231
했음	-8.58302
▁어떤	-8.58418
▁베	-8.58507
새	-8.58643
대로	-8.58685
론	-8.58724
▁잼	-8.58734
이네	-8.58862
창	-8.58951
▁감	-8.59068
액션	-8.59243
보단	-8.59342
▁최	-8.59444
씬	-8.59523
슨	-8.59547
▁억지	-8.59826
을까	-8.59865
하면서	-8.59952
난다	-8.60087
▁모르겠다	-8.60329
갈	-8.60468
군요	-8.60482
아니	-8.60717
레이	-8.60792
교	-8.61013
천	-8.6102
h	-8.61074
▁감동이	-8.61695
른	-8.61965
▁봐야	-8.62089
잡	-8.62383
▁선	-8.62389
▁마음이	-8.62461
▁별점	-8.62485
▁ᄒ	-8.63066
▁예술	-8.6316
훈	-8.63266
기도	-8.63276
▁아이	-8.63278
열	-8.63295
▁분위기	-8.63359
▁아무	-8.63556
버린	-8.63793
병	-8.63859
권	-8.63885
된다	-8.63906
▁사람이	-8.63911
이네요	-8.63942
▁아무리	-8.64022
할수	-8.64212
▁전쟁	-8.64402
▁재밌고	-8.64451
▁보지	-8.64727
▁너무나	-8.64739
▁연기는	-8.64807
▁길	-8.64846
▁ᅮᅮ	-8.64946
▁않는다	-8.64985
점을	-8.65056
▁똥	-8.65206
▁존	-8.65221
▁미친	-8.6554
슬	-8.65642
▁타	-8.6567
▁문제	-8.65714
름	-8.65861
이상	-8.66048
색	-8.66292
▁따라	-8.66362
증	-8.66382
▁그만	-8.66414
끼	-8.66475
영화는	-8.66545
▁얼마나	-8.66668
▁위한	-8.66673
환	-8.66697
▁영화네요	-8.66744
▁상	-8.66771
인줄	-8.66779
▁단	-8.66883
▁호	-8.66897
이지만	-8.66978
▁가슴이	-8.67117
짓	-8.67167
돌	-8.6725
별	-8.67348
>	-8.67434
▁기억이	-8.67781
▁내용은	-8.67941
▁결말이	-8.68035
▁명	-8.68102
▁로맨스	-8.68467
▁재미없음	-8.68557
▁걸작	-8.68615
▁입	-8.68616
▁있고	-8.69099
▁같이	-8.69107
▁중국	-8.69158
▁너	-8.69216
었	-8.69216
맨	-8.69359
칠	-8.69703
▁높	-8.69759
▁하나도	-8.69768
▁눈물이	-8.69798
하며	-8.69807
완전	-8.69823
▁준	-8.69849
베	-8.69928
▁한다	-8.69955
▁손	-8.69969
▁꽤	-8.69986
평	-8.70011
기는	-8.70019
▁평	-8.70072
▁누가	-8.70096
적이	-8.70292
만들	-8.70379
▁당	-8.70497
▁싶	-8.70579
▁없어	-8.70595
▁엔딩	-8.70765
출	-8.70807
▁약	-8.70824
왔	-8.70827
나는	-8.7088
친	-8.70928
▁물	-8.70952
▁노잼	-8.70954
▁매력	-8.71001
▁치	-8.71043
▁어설픈	-8.71222
느낌	-8.71288
▁경	-8.71358
뭐	-8.71419
년이	-8.7175
잇	-8.71859
▁백	-8.71901
▁있을	-8.71966
▁찾아	-8.72034
▁재미있다	-8.72379
▁않다	-8.72383
이지	-8.7247
▁허접	-8.72498
▁쓰레기영화	-8.7254
g	-8.72553
▁토	-8.7276
▁그나마	-8.72973
▁잼있	-8.72993
▁영화중	-8.73164
▁-	-8.73171
소리	-8.73198
+	-8.7322
이었다	-8.73338
▁잔잔한	-8.73398
▁감동적인	-8.73424
▁갈수록	-8.73424
▁애들	-8.73479
련	-8.73527
이거	-8.73577
▁극	-8.73697
▁아쉽다	-8.73761
▁정신	-8.73764
▁대체	-8.73785
기에	-8.73875
▁것이	-8.74041
내용	-8.74064
었음	-8.7414
▁발연기	-8.74149
▁웃음	-8.74302
짜	-8.74388
▁간만에	-8.74429
▁엄마	-8.74492
록	-8.74534
뻔	-8.74575
건가	-8.7464
▁재미없	-8.74673
블	-8.74885
또	-8.74952
▁지루	-8.75049
▁훨씬	-8.75321
▁출연	-8.75406
▁있었	-8.75457
였	-8.75466
▁재미있는	-8.75546
▁감동도	-8.75557
▁위	-8.75689
▁영화관에서	-8.75779
▁멋있	-8.75868
향	-8.76021
수가	-8.76136
▁볼만한	-8.76232
좋아	-8.76264
▁성룡	-8.76408
온	-8.76418
될	-8.76515
▁그렇게	-8.76588
0	-8.76743
▁실	-8.76791
거야	-8.76795
▁적	-8.76823
9	-8.77023
▁없었다	-8.77043
땜에	-8.77247
▁총	-8.77701
▁마음	-8.77721
▁알고	-8.77782
▁열	-8.7781
▁주연	-8.77856
▁담	-8.77955
▁간	-8.78123
결	-8.78184
보니	-8.78224
플	-8.78507
막	-8.7864
수준	-8.78709
각	-8.78803
▁먹	-8.7881
▁"""	-8.78996
었어요	-8.79062
▁시즌	-8.79119
직	-8.7927
▁밖에	-8.79352
졌	-8.79521
▁의미	-8.79931
해라	-8.80057
▁위해	-8.80194
거지	-8.8027
진다	-8.80275
됨	-8.80717
▁잡	-8.80824
존	-8.80974
▁좋은데	-8.81079
▁인	-8.81189
▁다큐	-8.81211
빠	-8.81245
▁음	-8.81474
언	-8.81538
쓰	-8.81674
왕	-8.81695
▁구성	-8.81801
더니	-8.81824
ᄋ	-8.81841
▁그래서	-8.81851
▁재미는	-8.82005
▁이딴	-8.82023
라서	-8.8212
다고	-8.82192
▁꿈	-8.82283
▁생각보다	-8.82361
r	-8.82473
▁같	-8.82482
u	-8.82527
▁집중	-8.82531
▁재밌네요	-8.82579
어야	-8.82676
y	-8.82712
백	-8.82794
에도	-8.82863
▁많	-8.8292
▁외	-8.83027
▁맘에	-8.83214
하는데	-8.83258
▁진정한	-8.83499
나요	-8.83531
싶	-8.83852
해야	-8.83911
맞	-8.84015
▁추	-8.84085
▁코	-8.84617
표	-8.8477
▁느낌이	-8.8482
▁안되	-8.84845
▁천	-8.84991
▁점수	-8.85139
▁뭐야	-8.85366
▁보여주는	-8.85422
기를	-8.85449
▁화	-8.85455
▁올	-8.8583
놓고	-8.85867
▁좋	-8.85921
▁재미있어요	-8.86038
순	-8.86144
나오는	-8.86346
▁비교	-8.86374
▁야	-8.86414
습	-8.86434
▁시대	-8.86584
▁당시	-8.86655
l	-8.86719
▁재미없는	-8.87034
느	-8.87142
기대	-8.87181
찍	-8.87234
▁설정	-8.87317
▁약간	-8.87347
▁30	-8.87565
라면	-8.87664
스러운	-8.87768
▁CG	-8.87787
▁ᅳ	-8.87794
했지만	-8.8781
▁오래	-8.87841
▁네이버	-8.8792
럽	-8.87967
▁다들	-8.88073
▁아님	-8.88098
▁자체	-8.88349
▁주고	-8.88437
▁뿐	-8.88488
▁어느	-8.88596
▁들어	-8.88652
▁연기를	-8.88661
▁재미있	-8.88764
▁전부	-8.88855
~!!	-8.88863
▁영화였다	-8.88866
▁장난	-8.88931
퍼	-8.88936
영화를	-8.88959
▁메	-8.89214
▁버	-8.89263
k	-8.89298
여자	-8.89342
▁힘들	-8.89515
이건	-8.89532
ᄉ	-8.89664
웃	-8.89666
처	-8.89707
▁만들었	-8.89839
▁같아요	-8.8987
편이	-8.90044
아서	-8.901
욕	-8.90218
▁카	-8.90227
린다	-8.90319
튼	-8.90359
▁작가	-8.90476
▁배우들이	-8.90914
추	-8.9093
치고	-8.91331
▁스토리는	-8.91574
▁첨	-8.91594
이야기	-8.91598
듯한	-8.91611
났	-8.91652
였음	-8.91751
기가	-8.91792
▁준다	-8.91864
없고	-8.91933
▁생각을	-8.91983
치는	-8.92034
낸	-8.9219
▁갈	-8.92208
▁있을까	-8.9232
영화가	-8.92457
▁멜로	-8.92551
▁평가	-8.92643
을때	-8.92669
▁영상미	-8.92689
외	-8.92869
▁암	-8.92893
같	-8.92904
p	-8.92993
▁힘	-8.93053
▁존재	-8.93092
▁감동을	-8.93103
겠	-8.93176
▁얘기	-8.93177
m	-8.93223
세요	-8.93247
▁글	-8.93313
겠지	-8.93314
덕	-8.9335
앗	-8.93407
메	-8.93489
▁뭐지	-8.93608
쉬	-8.93729
눈	-8.93733
▁중간에	-8.93843
▁얼굴	-8.93886
▁않았	-8.93997
주의	-8.94033
합	-8.94113
▁모습	-8.94217
▁충격	-8.94338
할때	-8.94363
▁판타지	-8.94393
_	-8.94393
▁감성	-8.94423
▁꿀잼	-8.94515
잔	-8.9453
♡	-8.94563
해지는	-8.94567
혜	-8.94576
▁바로	-8.94699
▁영화임	-8.94845
▁언제	-8.94866
그리고	-8.94877
▁찾	-8.94886
척	-8.94935
션	-8.94948
빈	-8.9499
채	-8.95
약	-8.95325
광	-8.95363
탈	-8.95389
D	-8.95409
괴	-8.95452
b	-8.95571
▁관객	-8.95666
▁악	-8.95679
월	-8.95733
익	-8.95743
▁봤지만	-8.95743
-_-	-8.95765
▁줄거리	-8.95861
▁영화인데	-8.96022
▁나이	-8.96087
▁딸	-8.96194
▁나와서	-8.962
c	-8.96658
▁편	-8.96788
▁달	-8.96984
▁여주인공	-8.96988
▁생각하게	-8.97014
이라도	-8.97312
재미있	-8.97427
기만	-8.97437
▁뒤	-8.97494
법	-8.9768
▁좋은영화	-8.97715
슴	-8.97721
편은	-8.97731
▁관	-8.97788
▁추억	-8.97812
라니	-8.9782
▁""""	-8.97872
▁나올	-8.9788
▁높은	-8.98068
▁소리	-8.98179
▁초딩	-8.98225
범	-8.98273
▁살아	-8.98346
잖아	-8.9839
▁이런영화	-8.98507
▁어디서	-8.98685
혀	-8.98781
▁뭐냐	-8.98789
▁봤음	-8.98837
▁이영화를	-8.98894
▁비해	-8.98933
▁이름	-8.98988
것이	-8.98992
▁그대로	-8.99051
좋은	-8.99085
▁방	-8.99117
▁떠	-8.99123
▁장르	-8.99158
있고	-8.99259
는건	-8.99269
리고	-8.99294
같이	-8.99504
커	-8.99554
▁여기	-8.99573
▁실화	-8.99709
▁각본	-8.99721
▁포스터	-8.99757
료	-9.00059
숙	-9.00143
▁너무너무	-9.0017
께	-9.00331
찬	-9.00413
분들	-9.00456
▁역사	-9.00483
햇	-9.00551
귀	-9.00679
▁데	-9.00689
▁혼자	-9.00765
▁아이들	-9.00839
▁거의	-9.00948
먼	-9.00967
▁아까움	-9.01045
▁봐라	-9.01072
시리즈	-9.01287
▁대단한	-9.01371
▁몰입	-9.01421
▁비디오	-9.01513
▁레	-9.01604
▁같은데	-9.01723
별로	-9.01742
▁상당히	-9.01804
▁휴	-9.01877
▁질	-9.02166
▁나왔	-9.0224
▁봐	-9.02338
▁봐서	-9.02404
▁예상	-9.02465
으나	-9.02467
▁친구	-9.02692
봐서	-9.02798
▁크	-9.02862
▁종	-9.02937
나오	-9.02943
▁사회	-9.03155
복	-9.03184
"""	-9.03197
없음	-9.0351
목	-9.03531
▁대해	-9.03669
▁그러	-9.03676
▁사람들이	-9.0376
▁포	-9.03788
▁훌륭한	-9.03805
▁만점	-9.03855
▁좋네요	-9.03874
들어	-9.04024
거리	-9.04054
▁90	-9.04144
▁주제	-9.04194
▁다시봐도	-9.04214
▁끝나	-9.04319
▁원작을	-9.04352
▁마음에	-9.04402
했어요	-9.04433
▁머리	-9.04463
년전	-9.04477
▁변	-9.04479
놈	-9.04559
▁감동적이	-9.0458
지루	-9.04723
▁감정	-9.04844
▁것을	-9.04855
곡	-9.04995
▁했는데	-9.05037
▁재밌는데	-9.05175
시대	-9.05259
▁아직	-9.05352
▁다음	-9.05439
▁궁금	-9.05683
패	-9.05683
구요	-9.05767
▁패	-9.05934
마지막	-9.06054
청	-9.06089
▁순	-9.06099
▁어릴때	-9.06148
써	-9.06255
근데	-9.06341
OO	-9.06461
▁자기	-9.06471
독	-9.06532
최악	-9.06625
▁여배우	-9.06797
이라면	-9.06842
▁몸	-9.06881
w	-9.0696
▁된다	-9.06984
보기	-9.07047
대박	-9.07067
▁그리	-9.07275
씩	-9.07344
남자	-9.0751
▁감독님	-9.07585
▁짜증	-9.07676
▁제작	-9.07774
00	-9.07783
▁흥행	-9.07799
▁부족	-9.07807
▁먹먹	-9.0782
▁옛날	-9.07823
▁삼류	-9.07824
▁상황	-9.08063
▁저런	-9.08099
▁평점을	-9.08127
스럽다	-9.08224
▁굉장히	-9.08233
▁극장판	-9.08268
▁유치	-9.08303
한거	-9.08317
▁배경	-9.08329
▁장면이	-9.08544
▁뭐가	-9.08579
▁새로운	-9.08698
▁낫다	-9.08753
다시	-9.08764
▁숨	-9.08774
▁재밌었다	-9.08778
▁TV	-9.08785
▁누구	-9.08845
▁왕	-9.08871
짝	-9.09036
▁팬	-9.09052
▁영화도	-9.09311
들도	-9.094
츠	-9.09573
다는	-9.09579
▁이것도	-9.09614
침	-9.09653
추천	-9.09779
▁분	-9.09821
시키	-9.09888
▁그러나	-9.09944
▁연출력	-9.09968
▁유치한	-9.10009
조차	-9.10215
▁화면	-9.10314
▁따	-9.10315
했습니다	-9.10507
n	-9.10603
굿	-9.10627
▁싸	-9.1066
▁처음부터	-9.10669
▁어디	-9.10759
▁빨리	-9.10814
쯤	-9.10894
▁b	-9.10903
▁헐	-9.10923
듬	-9.11013
▁그닥	-9.11048
같다	-9.11101
건데	-9.11132
끝	-9.11152
▁봄	-9.11216
▁흥미진진	-9.11243
▁따뜻한	-9.11564
▁그런지	-9.1157
▁성우	-9.1164
받	-9.11675
올	-9.11817
쪽	-9.11845
▁있지만	-9.11879
▁정도로	-9.12033
모르	-9.12038
▁초반	-9.12048
▁통	-9.12164
▁하지	-9.12177
땐	-9.12306
▁항상	-9.12308
으니	-9.1241
~~~~	-9.12511
▁보니	-9.12527
▁더럽게	-9.12632
에선	-9.12872
성이	-9.12994
▁스릴	-9.13159
▁뻔	-9.13194
명작	-9.13224
▁의도	-9.13342
길래	-9.13371
▁아버지	-9.13392
전개	-9.13464
▁돌아	-9.1349
▁예전에	-9.1369
▁ᄍᄍ	-9.13872
▁지루해	-9.13906
▁두번	-9.1395
술	-9.13953
▁것도	-9.13982
▁잘못	-9.14104
노잼	-9.14167
▁볼만	-9.14185
▁양	-9.14218
▁세계	-9.14342
▁리	-9.14399
▁첫	-9.14413
▁안된다	-9.14425
본다	-9.14457
▁충분히	-9.14492
도없고	-9.14502
나라	-9.14556
필	-9.14556
한영화	-9.14561
▁그것	-9.14635
▁없네	-9.14724
이라니	-9.14869
▁제가	-9.14879
넣	-9.14898
▁나의	-9.14909
했으면	-9.14911
▁계	-9.15022
엇	-9.15028
f	-9.15088
▁말고	-9.1513
▁앞	-9.1518
버리	-9.15301
▁생각해	-9.15423
에는	-9.15522
▁슬픈	-9.15533
▁못하는	-9.15706
만든	-9.15789
효	-9.15797
▁윤	-9.15813
일까	-9.15848
▁교훈	-9.15921
▁있어	-9.15991
▁했다	-9.16099
▁흠	-9.16128
▁봤네요	-9.16138
▁좋겠다	-9.16219
정도로	-9.16261
▁한마디로	-9.16322
▁만족	-9.16331
▁가는	-9.16424
고싶다	-9.16465
배우들	-9.16509
▁산	-9.16612
▁영화라	-9.16643
것같다	-9.16664
▁(	-9.16677
였는데	-9.16701
간다	-9.16712
처음	-9.16843
▁믿	-9.16962
링	-9.17035
▁도저히	-9.17035
▁돈주고	-9.17077
▁낮	-9.17261
▁있어서	-9.17337
팬	-9.17457
▁100	-9.1759
다면	-9.17618
:	-9.17622
봐라	-9.17624
▁완벽한	-9.1766
▁그래픽	-9.17715
▁이영화는	-9.17724
▁재미없어	-9.17771
많	-9.17785
겟	-9.17829
▁짜	-9.17902
셨	-9.17962
껏	-9.18009
▁바라	-9.18043
철	-9.18158
▁점점	-9.18207
런	-9.18344
▁되어	-9.1841
▁현	-9.18448
억	-9.18526
▁없어서	-9.18653
만으로도	-9.18725
▁무조건	-9.18992
▁괜찮	-9.19141
▁망작	-9.19222
▁나온다	-9.19242
재밋	-9.19258
거냐	-9.19351
▁완벽	-9.19366
▁놀	-9.19462
▁불륜	-9.19497
▁삼	-9.19532
주세요	-9.19539
▁엄청난	-9.19596
하냐	-9.19612
▁돌	-9.19637
리가	-9.19728
하시	-9.19733
멋	-9.19758
▁좋음	-9.19867
▁만들지	-9.19871
▁번	-9.19882
이에요	-9.19909
▁찍	-9.19962
▁어린	-9.19972
................	-9.19997
▁웃긴	-9.20086
품	-9.20144
▁요	-9.20148
싸	-9.20228
▁낮은	-9.20237
윤	-9.20252
▁병맛	-9.20385
▁저는	-9.20474
하여	-9.20482
사람들	-9.20484
염	-9.20484
▁재밌어	-9.20708
▁허무	-9.20751
들에게	-9.20817
나서	-9.2098
▁갑자기	-9.21051
▁자체가	-9.21114
▁좋았어요	-9.21136
거다	-9.2123
▁평점에	-9.21231
▁바보	-9.21241
혹	-9.21441
▁훌륭	-9.21492
▁밀	-9.21529
내가	-9.21593
▁알았	-9.21668
▁일단	-9.2168
▁무서운	-9.21826
징	-9.2197
하니	-9.22039
음악	-9.22241
▁시절	-9.22259
을듯	-9.22284
롭	-9.22331
벌	-9.22357
▁있었다	-9.22396
▁재미있고	-9.22415
▁보여주	-9.22467
▁지금까지	-9.22478
▁전형적인	-9.22533
웃음	-9.22551
▁어렸을때	-9.22607
되어	-9.22629
재미없	-9.22664
완	-9.22678
지금	-9.22685
웠	-9.22698
허	-9.22744
▁작	-9.22795
▁반전이	-9.22798
▁영화보다	-9.22804
▁맛	-9.22843
▁대단	-9.22911
엉	-9.22927
▁말도	-9.22984
▁깨	-9.22993
▁이정도	-9.23004
▁여주	-9.23061
▁설	-9.23061
▁일본영화	-9.23083
▁돈이	-9.23085
▁광	-9.23224
▁주인공이	-9.23231
적이고	-9.23249
떨어	-9.23273
▁힘든	-9.23278
이냐	-9.23317
겠지만	-9.23338
휴	-9.23356
▁M	-9.23388
도록	-9.23425
꼬	-9.23435
^	-9.23466
▁아쉬운	-9.23539
▁괜히	-9.23539
▁알았다	-9.236
삼	-9.23616
▁극장	-9.2367
아깝다	-9.2375
▁볼수	-9.23891
얼	-9.23947
▁저질	-9.23949
예요	-9.24055
년도	-9.24073
함이	-9.24119
보다가	-9.24422
십	-9.24489
춘	-9.24562
▁나와	-9.24604
점짜리	-9.24612
▁생	-9.24769
▁아쉽	-9.24863
주인공	-9.24889
▁모르고	-9.24901
한데	-9.2498
▁보는데	-9.24992
밀	-9.25002
갑	-9.25023
▁더욱	-9.25172
연출	-9.2542
풍	-9.25603
낮	-9.25604
였습니다	-9.25655
--	-9.25694
▁대작	-9.25694
▁사람은	-9.25712
▁참고	-9.25715
▁ᄒᄒᄒ	-9.25727
봐야	-9.25779
▁몰	-9.25906
많이	-9.25922
▁tv	-9.25928
만한	-9.26032
함을	-9.26039
▁개연성	-9.26064
변	-9.26104
▁역	-9.2617
▁감독은	-9.26205
▁80	-9.26231
에요	-9.26237
▁사랑을	-9.26273
였던	-9.26416
▁자꾸	-9.26536
▁킬링타임용	-9.26538
▁코메디	-9.26671
책	-9.26701
▁없을	-9.27013
▁부족한	-9.27099
한번	-9.2714
▁없네요	-9.27193
놈들	-9.27251
보다는	-9.27269
▁재미없고	-9.2727
놀	-9.27334
▁원래	-9.27337
▁믿고	-9.27441
리스	-9.27464
▁새	-9.27589
▁것은	-9.27647
▁아이들이	-9.27661
▁작품성	-9.27714
▁졸라	-9.27722
슈	-9.27759
▁진행	-9.27814
▁책	-9.27828
▁평점은	-9.2797
좋다	-9.28029
▁소설	-9.28111
▁지루하	-9.28207
규	-9.283
▁SF	-9.28303
▁슬프	-9.28315
▁꼬	-9.28331
▁순간	-9.28384
▁좀비	-9.28397
딱	-9.28412
▁선택	-9.28413
꼭	-9.28413
야지	-9.28454
▁으	-9.28486
줬	-9.28495
픈	-9.28658
년에	-9.28705
▁스타일	-9.28724
보는데	-9.28748
▁예고편	-9.28776
▁리메이크	-9.28844
▁가지고	-9.28883
▁진실	-9.28908
곤	-9.2896
들과	-9.28974
▁설명	-9.28995
▁속편	-9.2903
▁전개가	-9.29042
겁	-9.29278
▁대단하다	-9.29324
봤어요	-9.29354
▁화이팅	-9.29359
킹	-9.2939
▁재밌었어요	-9.29477
▁문	-9.29486
맛	-9.29527
이게	-9.29581
▁이런걸	-9.29595
▁목소리	-9.29765
▁써	-9.29794
육	-9.2993
▁액션도	-9.29932
▁청춘	-9.29947
네여	-9.30026
▁왜이리	-9.30111
▁느낄	-9.30322
드는	-9.30349
▁댓글	-9.30353
렌	-9.30492
▁흐	-9.30499
부분	-9.305
▁명작이다	-9.30534
하던	-9.30663
뜨	-9.30695
▁괴	-9.30837
▁하다	-9.30944
북	-9.30983
끔	-9.31009
립	-9.31237
▁노력	-9.313
걸까	-9.3142
▁않을	-9.31429
▁미화	-9.31433
그런	-9.31438
줘	-9.31557
▁여운	-9.31592
x	-9.31606
▁완성도	-9.31607
▁우연히	-9.31627
영화다	-9.31656
역시	-9.3169
▁액션영화	-9.31711
▁아오	-9.31844
▁이런거	-9.3197
재밌게	-9.32005
는것	-9.32049
▁처음으로	-9.32062
답	-9.32073
▁귀여운	-9.32183
▁유머	-9.32281
▁이리	-9.32283
▁했	-9.32332
그래도	-9.32351
▁느끼게	-9.32474
▁지금도	-9.32478
▁프랑스	-9.32487
▁터	-9.3249
▁귀신	-9.32523
인거	-9.32688
▁ost	-9.32709
▁편집	-9.32715
축	-9.3272
▁겁나	-9.32756
▁등	-9.32789
ᅲᅲᅲ	-9.32825
결말	-9.32848
▁지루하지	-9.32918
▁투	-9.33108
▁당신	-9.33181
▁쳐	-9.33199
▁안나오	-9.33244
점준다	-9.33325
▁알게	-9.33339
▁천재	-9.33365
▁유치하고	-9.33469
▁성장	-9.33517
몰	-9.33619
▁전작	-9.33645
▁신기	-9.33653
▁이상한	-9.33684
졌다	-9.33693
자들	-9.33727
▁후반부	-9.33941
▁기대하고	-9.33962
하는게	-9.3399
ᅲᅲᅲᅲ	-9.3407
▁나만	-9.34072
▁온	-9.34111
▁아까워	-9.34141
▁낚	-9.34162
▁귀	-9.34285
▁늘	-9.34374
거나	-9.34403
로운	-9.34463
▁있음	-9.34518
▁상영	-9.34604
시절	-9.34607
▁감상	-9.34706
견	-9.34793
▁해준	-9.34806
▁해도	-9.34901
▁그때	-9.34902
▁없었	-9.35013
▁됐	-9.35015
▁짜증나	-9.35055
▁아무것도	-9.35079
▁여성	-9.35111
▁시간낭비	-9.35217
▁자연	-9.35245
▁최악이다	-9.35522
▁그래	-9.35632
▁아닌가	-9.35658
ᄀ	-9.35734
하세요	-9.35738
▁ᄏᄏᄏᄏᄏ	-9.35742
됐	-9.35756
▁과거	-9.3582
여서	-9.35875
▁마무리	-9.3589
▁있는데	-9.35903
하는거	-9.36001
쓸	-9.36053
려서	-9.36068
지않는	-9.36104
▁내인생	-9.36276
▁억지로	-9.36304
▁알았는데	-9.36306
되고	-9.36426
애들	-9.36472
말이	-9.36475
▁죽음	-9.36556
▁교	-9.36563
애니	-9.36588
졸	-9.36609
최고의	-9.36628
흐	-9.36743
▁연출이	-9.36744
앙	-9.36754
것을	-9.36871
놓	-9.36938
~^^	-9.36987
▁세상	-9.37031
▁끝내	-9.37038
▁이유	-9.37069
▁안보	-9.37085
▁왠지	-9.37086
▁상상	-9.37184
겠네	-9.37268
손	-9.37292
▁황	-9.373
랄	-9.37326
반전	-9.37383
▁불편	-9.37401
▁빠져	-9.37549
▁우울	-9.37559
▁별루	-9.37628
준다	-9.3774
▁이후	-9.3782
코미디	-9.37903
킬	-9.37963
▁느끼	-9.37968
▁나쁜	-9.38019
▁이미	-9.38099
▁독	-9.38159
빨	-9.38182
▁진부한	-9.38269
▁둘	-9.38372
지않은	-9.38448
▁싶어	-9.3849
했고	-9.38511
▁매력적인	-9.38523
▁질질	-9.38525
지고	-9.38545
ᄆ	-9.38566
마다	-9.3857
눈물	-9.38642
▁관람	-9.38644
▁않음	-9.38648
어도	-9.38664
▁이번	-9.38667
▁상상력	-9.38675
▁쓴	-9.38791
▁이쁘	-9.38831
▁좋았음	-9.38843
속에	-9.38922
▁잘봤습니다	-9.38936
돼	-9.38948
▁개그	-9.39107
엿	-9.39155
T	-9.39156
힌	-9.39168
&	-9.39168
▁이야기를	-9.39184
▁뭔지	-9.39225
▁끌	-9.39243
▁방송	-9.39245
▁태	-9.39296
는걸	-9.39415
▁감사	-9.39418
▁모르는	-9.39457
황	-9.39658
▁화려한	-9.39695
가서	-9.39729
▁유쾌한	-9.39853
▁영화였습니다	-9.39867
했어	-9.39925
족	-9.40018
▁한계	-9.40054
▁인정	-9.4008
▁허접한	-9.40115
▁인간의	-9.40193
랬	-9.40197
로서	-9.4028
주고	-9.40322
▁까	-9.40332
▁유쾌	-9.40371
E	-9.40384
벨	-9.40384
성을	-9.40394
▁슬	-9.40443
최	-9.40465
▁수가	-9.40476
▁배우가	-9.40483
해주는	-9.40508
▁지금봐도	-9.4051
▁느	-9.40745
▁창	-9.4075
놓은	-9.40765
▁대한민국	-9.40805
것이다	-9.4086
▁로맨틱	-9.40989
▁작품이	-9.41058
셔	-9.4107
▁분명	-9.41071
강추	-9.41113
시켜	-9.41137
인이	-9.41183
▁가치	-9.41199
▁복수	-9.41215
보세요	-9.413
▁이런게	-9.41352
▁소재는	-9.41366
수록	-9.41461
인간	-9.4147
ᄃ	-9.41481
가족	-9.41496
났다	-9.41516
면서도	-9.41551
묘	-9.41562
▁그게	-9.41637
▁만나	-9.41737
▁저도	-9.41764
하자	-9.41852
▁s	-9.4187
자가	-9.41941
▁살인	-9.42013
▁훨	-9.42022
▁밑에	-9.42255
작가	-9.42325
에겐	-9.42334
봤음	-9.42371
없어	-9.42399
▁비슷한	-9.424
▁생각나	-9.42693
든다	-9.42805
영화중	-9.42831
▁흥미	-9.42852
싱	-9.4286
▁좋았습니다	-9.42922
//	-9.42946
▁-_-	-9.43042
실망	-9.43042
▁결혼	-9.43112
마저	-9.43122
▁영화중에	-9.43158
갔다	-9.43243
▁트	-9.43275
▁집	-9.43719
▁잘만든	-9.43748
▁않았다	-9.43771
하긴	-9.4387
▁눈이	-9.43932
▁형	-9.4396
▁신선	-9.43981
▁이러	-9.43999
전에	-9.44015
찰	-9.44043
▁니	-9.44044
령	-9.44074
버렸다	-9.44115
널	-9.44117
아닌	-9.44141
▁처	-9.44252
▁왜이렇게	-9.44292
갔	-9.44296
암	-9.44332
풀	-9.44339
▁사람들은	-9.44343
▁황당	-9.44354
▁아빠	-9.44394
으면서	-9.44448
오는	-9.44464
▁중에	-9.44502
ᄒᄒᄒ	-9.44516
쩔	-9.44609
꾸	-9.4462
봣	-9.44631
*	-9.4477
▁현재	-9.44815
▁게임	-9.44907
확	-9.45009
▁특유의	-9.45041
▁촬영	-9.45069
보면서	-9.45126
였어요	-9.45225
보게	-9.45242
▁어이없	-9.45257
언니	-9.45299
▁절	-9.45325
흔	-9.45333
▁골	-9.45335
▁보고나서	-9.45377
▁어찌	-9.45446
▁앞으로	-9.45477
다운	-9.45518
▁바람	-9.45526
▁해서	-9.45554
▁그랬	-9.45566
틀	-9.45628
만으로	-9.45636
▁맥	-9.45701
▁아름답다	-9.45707
▁아니지만	-9.45719
▁만들었다	-9.45837
▁지난	-9.45907
잉	-9.46036
▁봤었는데	-9.46124
????	-9.46165
▁디	-9.46309
쇼	-9.46348
동안	-9.46381
▁이어	-9.46422
▁것이다	-9.46423
▁갑	-9.46431
▁수준이	-9.46444
▁귀엽고	-9.46507
▁인상	-9.46549
▁낭비	-9.4662
▁클	-9.4666
▁어린이	-9.4671
▁역대	-9.46805
▁확	-9.46847
감이	-9.46895
쿠	-9.47026
홍	-9.47034
스타	-9.47035
▁듯한	-9.47036
▁지나	-9.47056
쁘	-9.47311
▁합니다	-9.47367
좋아요	-9.47405
▁아놔	-9.47444
재미없다	-9.4746
안되	-9.47482
▁액션이	-9.47577
▁ᄉᄇ	-9.47579
나옴	-9.47658
뒤	-9.47713
▁노출	-9.47722
▁어이없는	-9.47829
▁C	-9.47881
▁분들	-9.47934
▁성인	-9.47942
재밌어요	-9.47959
▁글쎄	-9.48009
이제	-9.48159
시간이	-9.48231
했는지	-9.48342
쩌	-9.48466
▁특	-9.48506
▁보지마세요	-9.48509
▁비추	-9.48524
▁답답	-9.48579
틴	-9.48623
ᄂ	-9.48651
깔	-9.48664
땅	-9.48669
▁깊이	-9.48669
;;;;	-9.48722
▁좋았는데	-9.48766
▁프로	-9.48771
▁재밌었는데	-9.48838
나온다	-9.48842
스런	-9.48863
▁리얼	-9.48877
▁보고싶다	-9.48878
가지	-9.4894
▁어색	-9.49053
▁남주	-9.49155
영상	-9.49193
▁나에게	-9.49213
했을	-9.49223
▁이영화가	-9.49243
▁금	-9.49268
즐	-9.49303
껄	-9.49336
▁감사합니다	-9.49463
▁목	-9.49549
▁모르겠	-9.4958
▁취향	-9.49615
▁자유	-9.49635
▁알바들	-9.49663
▁티	-9.49746
▁전편	-9.49767
▁떠나	-9.49801
▁신선한	-9.49814
텐데	-9.49845
▁매력이	-9.49977
▁이연걸	-9.50008
▁여전히	-9.50039
▁확실히	-9.5004
▁제작비	-9.50118
페	-9.50194
이렇게	-9.50327
▁시청률	-9.50476
S	-9.50506
이면	-9.50528
▁범죄	-9.50601
떡	-9.50682
▁섹시	-9.50685
▁메세지	-9.50686
닥	-9.50718
▁좋았	-9.50728
▁잼있게	-9.50728
▁어릴적	-9.50733
었으면	-9.50823
▁있다는	-9.50844
▁해주는	-9.50875
▁키	-9.51015
▁느껴지는	-9.5112
▁웃겨	-9.51163
거같다	-9.51178
욱	-9.51195
을텐데	-9.51207
▁돋보	-9.51268
▁사랑이	-9.51277
▁인물	-9.51286
턴	-9.51363
▁얼	-9.51387
▁처음이다	-9.51417
▁똑같	-9.51501
▁스토리에	-9.51509
▁동화	-9.51544
▁명작이	-9.51553
▁어색한	-9.51591
▁넘어	-9.51595
▁재밌습니다	-9.516
▁같네요	-9.51693
지마라	-9.51697
▁입니다	-9.51711
코드	-9.51734
▁그녀	-9.51771
누	-9.51828
옥	-9.51829
엄	-9.51839
▁한편	-9.5186
▁대충	-9.51883
았던	-9.52013
스터	-9.52029
▁너무나도	-9.52095
거임	-9.52106
▁완	-9.52117
▁찍은	-9.52156
▁등장	-9.52158
▁일상	-9.52272
▁그런가	-9.52275
▁영웅	-9.52371
▁감동적이고	-9.52419
▁독특한	-9.52471
▁눈을	-9.52483
유치	-9.52484
려는	-9.52594
▁맞는	-9.526
점주는	-9.52607
▁장면은	-9.52612
▁좋았고	-9.52649
급영화	-9.52669
▁정치	-9.52674
▁마라	-9.52715
▁아닌듯	-9.52727
▁스케일	-9.52738
▁먼저	-9.5277
▁보여준	-9.52771
▁그림	-9.52805
▁재미있음	-9.52833
▁놓	-9.52834
줘야	-9.52876
▁모습이	-9.52918
아이	-9.53033
ᄍᄍ	-9.53144
만들어	-9.532
▁세상에	-9.53239
하라	-9.53253
=	-9.53364
무섭	-9.53418
한건	-9.53423
▁했지만	-9.53424
▁그렇고	-9.53432
드라	-9.53448
▁있었던	-9.53462
▁소름	-9.53563
한듯	-9.53564
▁슬프다	-9.53588
▁단순	-9.53623
▁복	-9.53677
소재	-9.53685
20	-9.53697
▁이젠	-9.53725
잼있	-9.53797
▁표정	-9.53858
제목	-9.53859
ᄅ	-9.54131
▁깊은	-9.54131
▁좋을	-9.54288
▁아깝	-9.54354
▁마음을	-9.54371
ᄏᄏᄏᄏᄏ	-9.5438
▁시선	-9.54452
념	-9.54519
▁몰랐	-9.54681
되지	-9.54701
다른	-9.54717
▁빨	-9.54725
▁A	-9.54726
들아	-9.54727
▁본다	-9.54765
응	-9.54793
지마	-9.54812
압	-9.54827
깨	-9.54842
▁애들이	-9.5486
순간	-9.54961
짜리	-9.54973
▁15	-9.54985
▁주인공들	-9.55056
▁평론가	-9.55072
▁아름답고	-9.55119
었습니다	-9.55151
▁젤	-9.55152
▁돌려	-9.55189
▁그런데	-9.55254
없네	-9.55302
▁cg	-9.55347
%	-9.55358
▁유치하	-9.55398
▁알수	-9.55413
▁재밌었	-9.55445
마음	-9.55498
릭	-9.55511
▁표절	-9.55567
▁와닿	-9.55572
클	-9.55576
나온	-9.55645
▁성공	-9.55655
모습	-9.55671
▁같습니다	-9.55686
무슨	-9.55729
▁씨	-9.55746
더군요	-9.55756
▁요소	-9.55763
▁어쩌	-9.5577
▁재미없네	-9.5594
▁사이	-9.56085
▁독립영화	-9.56093
▁답	-9.5614
량	-9.56234
▁꺼	-9.56243
ᅡ	-9.56259
먹는	-9.56276
▁기대를	-9.5629
드리	-9.56296
▁조폭	-9.56302
둘	-9.56326
사람이	-9.56328
줌	-9.56329
▁싫어	-9.56332
▁법	-9.5635
▁하면	-9.5642
내요	-9.56428
▁추억의	-9.56463
▁보는게	-9.56475
▁알아	-9.5648
▁볼때마다	-9.5654
왔다	-9.5655
▁연기력이	-9.56583
▁순수한	-9.56643
람	-9.56654
▁이야기가	-9.56683
▁캐릭터들	-9.56747
▁물론	-9.56874
▁액션은	-9.56952
P	-9.56978
▁누	-9.57
특히	-9.5701
송	-9.57016
찌	-9.57019
▁저예산	-9.5704
▁감탄	-9.57041
▁보이는	-9.57141
일뿐	-9.57149
▁무섭	-9.57205
▁심리	-9.57306
▁19	-9.57427
▁표	-9.57448
친구	-9.57458
▁삶을	-9.57597
▁촌	-9.57633
,,,,	-9.57642
▁이것	-9.5765
▁나를	-9.57659
팅	-9.57696
▁OST	-9.57797
나올	-9.578
콩	-9.57824
▁다소	-9.57828
C	-9.57832
팔	-9.57834
▁이정도면	-9.57897
▁역시나	-9.57968
개도	-9.58035
▁재미있네요	-9.58045
▁접	-9.58128
▁남는다	-9.58376
갓	-9.58433
롱	-9.58433
▁전체적으로	-9.58454
▁연애	-9.58547
▁브	-9.5858
▁각	-9.58605
▁갖	-9.58618
▁싫다	-9.58798
▁실제	-9.58806
▁아들	-9.58815
▁음악이	-9.58834
▁평생	-9.58874
▁벗	-9.58888
▁필요없다	-9.58908
▁미치	-9.58972
▁짧	-9.58972
▁보이	-9.58985
었지만	-9.59
▁보기엔	-9.59033
▁임	-9.5905
허술	-9.59105
▁아저씨	-9.59161
▁티비	-9.59176
활	-9.5919
▁보시길	-9.59254
▁관심	-9.59264
인것	-9.59297
▁여자들	-9.59297
됬	-9.59359
▁나라	-9.59373
▁호러	-9.59383
보이	-9.59644
오빠	-9.5968
던지	-9.59684
▁근	-9.59776
▁몇번을	-9.5978
▁시원	-9.59824
▁안하고	-9.59834
영환	-9.59889
▁회	-9.59921
▁예쁜	-9.59926
▁봐야할	-9.60011
▁있다면	-9.60022
▁추천합니다	-9.60079
▁있나	-9.60142
▁않아	-9.60202
▁캐	-9.60202
▁관계	-9.60261
재밌다	-9.60414
만화	-9.60487
▁권	-9.60524
덤	-9.60655
▁슬픔	-9.60658
▁무엇보다	-9.60659
하하하	-9.60669
▁아닐까	-9.60723
▁끝난	-9.60742
▁기분이	-9.60744
▁생각나는	-9.60823
▁홍콩	-9.60901
버려	-9.60919
던가	-9.6093
▁뒷	-9.60971
버리고	-9.60984
▁별로다	-9.61006
▁+	-9.61061
▁서로	-9.61069
아깝	-9.61079
르는	-9.61124
▁놀라	-9.61146
▁아니면	-9.61149
▁지루해서	-9.61159
수도	-9.6116
▁멀	-9.61184
분이	-9.61293
새끼	-9.61326
▁딴	-9.61367
▁긴장	-9.61382
그러	-9.61382
▁받	-9.61506
으며	-9.61565
▁그럭저럭	-9.61692
▁언	-9.61692
킨	-9.61706
▁싫	-9.61729
▁끝나고	-9.61764
년전에	-9.61918
▁짜증나는	-9.61982
▁현대	-9.61991
▁벌	-9.62013
▁오히려	-9.62028
▁탈	-9.62052
▁진정	-9.62054
것들	-9.62094
탁	-9.62121
휘	-9.62164
▁맨	-9.6218
누나	-9.62221
▁빼	-9.62287
▁봤다가	-9.62348
▁급	-9.62349
▁떨어지는	-9.62365
▁스토리와	-9.62386
▁느껴	-9.62407
충	-9.62422
있게	-9.62442
▁여자가	-9.6249
▁예전	-9.62494
▁고전	-9.62511
총	-9.62511
끝나	-9.62542
▁드라마가	-9.62621
따위	-9.62674
▁보았	-9.62686
맞추	-9.62696
▁받았	-9.62723
하다니	-9.62814
v	-9.62857
율	-9.62859
▁I	-9.62865
▁재밌네	-9.62865
득	-9.62879
흘	-9.62895
와서	-9.62919
▁디즈니	-9.62928
▁압권	-9.62929
▁T	-9.62931
▁ᅮ	-9.63056
▁고민	-9.63064
▁티비에서	-9.6312
▁사극	-9.63151
▁나왔으면	-9.63167
▁난다	-9.63278
취	-9.63289
▁<	-9.63361
탕	-9.63433
▁긴	-9.63468
시고	-9.63477
▁언제나	-9.63478
▁삶	-9.63487
▁영화관	-9.63558
▁짠	-9.63592
▁재밋게	-9.63637
렉	-9.63697
▁살짝	-9.63735
▁몸매	-9.63741
▁붙	-9.63791
▁괴물	-9.63794
▁좋았던	-9.63811
▁중간	-9.63941
아님	-9.63959
▁용서	-9.63962
▁이하	-9.63989
▁취	-9.64076
▁짓	-9.64096
▁이유가	-9.64157
▁엉성한	-9.64241
▁평범한	-9.64246
걸로	-9.64333
인생	-9.64389
j	-9.64472
▁그다지	-9.64552
▁화가	-9.64564
평점이	-9.64582
늘	-9.64647
인의	-9.64651
▁범인	-9.64678
▁설레	-9.64735
▁부분	-9.64814
▁아닌데	-9.6483
ᄃᄃ	-9.64856
▁무지	-9.64918
▁커	-9.64919
첨	-9.64929
▁청	-9.65048
▁프로그램	-9.65092
▁어이가	-9.65104
er	-9.65124
들고	-9.6514
웅	-9.65173
좌	-9.65253
빡	-9.65253
씁	-9.65253
★	-9.65256
▁용	-9.65458
머리	-9.65552
▁필요없는	-9.65594
알바	-9.65611
or	-9.65618
▁죄	-9.65658
▁얻	-9.65689
▁아련	-9.65696
괜찮	-9.65744
쓴	-9.65746
▁멋지다	-9.65767
▁무섭다	-9.65802
▁병	-9.65919
할듯	-9.65989
▁보고싶은	-9.66011
내는	-9.66016
닝	-9.66041
스러움	-9.66041
▁느낀	-9.66047
▁사랑스러운	-9.66148
▁볼수록	-9.66149
▁희망	-9.66194
▁드는	-9.66242
▁사건	-9.66251
아주	-9.66256
▁연기와	-9.66308
했네	-9.66319
더만	-9.6635
▁꼴	-9.66383
▁몰입감	-9.66429
▁높다	-9.66431
▁다큐멘터리	-9.66445
연기가	-9.66492
진심	-9.66518
▁몇번	-9.66524
▁뮤지컬	-9.6655
빵	-9.66557
되네요	-9.66573
봤던	-9.66578
감독이	-9.66589
▁아깝지	-9.66671
번째	-9.66692
▁ᄃᄃ	-9.66707
▁만들어진	-9.66749
▁되게	-9.66762
낼	-9.66835
폰	-9.66835
▁가볍게	-9.66835
▁소름돋	-9.6684
▁행동	-9.66885
더라구요	-9.66893
▁카메라	-9.66938
있어	-9.66971
▁보여	-9.66975
▁그의	-9.67061
▁만드	-9.67082
테러	-9.67092
▁동물	-9.67093
▁미래	-9.67182
말고	-9.67192
▁잔인하	-9.67267
▁더이상	-9.6732
때마다	-9.67379
▁중간중간	-9.67383
죄	-9.67385
센	-9.67389
▁팔	-9.67486
섭	-9.6752
먹고	-9.67626
▁에로	-9.67627
까진	-9.67638
나고	-9.67644
▁불쾌	-9.67661
▁후반	-9.67671
오르	-9.67676
▁외국	-9.67716
▁이건뭐	-9.6772
▁같음	-9.67734
▁굳	-9.67755
기분	-9.6784
▁드라마를	-9.67912
in	-9.67949
▁시걸	-9.67977
▁낫	-9.68003
▁다르	-9.68012
갑니다	-9.68027
용으로	-9.68042
▁썩	-9.6806
것은	-9.68099
▁연기에	-9.68167
▁마치	-9.68178
▁없나	-9.68182
▁나가	-9.68188
▁달리	-9.68211
뜻	-9.68225
an	-9.6824
스가	-9.68276
일이	-9.68298
▁볼만하	-9.68311
▁빠	-9.68323
▁재미를	-9.68357
틱	-9.68435
뉴	-9.6844
▁봤으면	-9.68441
▁비주얼	-9.68441
▁힐링	-9.68441
▁능력	-9.68453
세계	-9.68456
▁악역	-9.6849
줄이야	-9.68517
♥♥	-9.68519
볼만	-9.68611
▁홍	-9.68683
▁사랑과	-9.68731
▁스타	-9.6878
되서	-9.68828
▁킬링타임	-9.68977
웃기	-9.68996
니깐	-9.68998
▁안됨	-9.69045
▁재미있었다	-9.69067
랜	-9.6908
ᅲᅲᅲᅲᅲ	-9.69083
아까움	-9.69097
에서는	-9.691
쾌	-9.69112
▁빈	-9.69152
하면서도	-9.69156
▁죽는	-9.69191
쏘	-9.6925
▁S	-9.69463
▁믿을	-9.69527
▁찍어	-9.69568
▁오버	-9.69612
▁춤	-9.69665
봣는데	-9.69665
▁우정	-9.69748
▁말로	-9.699
함과	-9.69917
딸	-9.69951
B	-9.69954
▁제목이	-9.69965
▁봤었	-9.69975
스릴러	-9.69988
▁폭	-9.70027
▁먼	-9.701
▁못하고	-9.70107
▁감동과	-9.70153
점준	-9.70154
생활	-9.70232
▁군대	-9.70247
▁영화보고	-9.70303
웠다	-9.70488
▁12	-9.70515
re	-9.7056
▁부분이	-9.70646
안에	-9.7068
▁출	-9.70695
▁영화이다	-9.70701
▁전에	-9.70752
▁유치함	-9.70785
▁쓰래기	-9.70788
방송	-9.70823
▁m	-9.70842
▁퀄리티	-9.70861
혁	-9.70894
▁올해	-9.71
생겼	-9.71089
한다는	-9.71129
▁재밌었음	-9.71129
▁멋	-9.71177
▁빛	-9.71226
▁전달	-9.71244
하는지	-9.71356
▁내용을	-9.71393
시킨	-9.71403
▁소재를	-9.71479
쳤	-9.71485
▁포기	-9.71496
▁유치하다	-9.71498
▁말할	-9.71506
▁열심히	-9.71509
▁해야	-9.71545
폭	-9.71579
어지는	-9.71619
편보다	-9.71628
▁잼없	-9.71634
▁경찰	-9.71658
엘	-9.71667
퇴	-9.71685
좋고	-9.71707
항	-9.7173
▁해피엔딩	-9.71734
몬	-9.71734
틈	-9.71734
▁리뷰	-9.71743
▁미안	-9.71754
▁가끔	-9.71779
▁슬프고	-9.71826
▁70	-9.71894
▁제작진	-9.71936
▁느와르	-9.71954
▁볼만함	-9.71971
▁있지	-9.7198
▁처음엔	-9.72012
프로	-9.72033
▁다행	-9.72104
▁소녀	-9.72117
▁미드	-9.72151
▁하게	-9.72167
▁옛날에	-9.72206
▁같아	-9.7229
▁나중에	-9.72323
▁모습을	-9.72327
▁송	-9.72463
▁볼거리	-9.72477
시는	-9.72513
캐	-9.72555
▁통해	-9.72635
▁스토리를	-9.72693
내용이	-9.72701
▁삶의	-9.72743
▁덜	-9.72827
▁풀어	-9.72847
▁화려	-9.72905
▁기본	-9.73073
는건지	-9.73087
▁함	-9.73127
▁이제야	-9.73162
▁하는데	-9.73172
아라	-9.73218
였지만	-9.73219
▁어쩔	-9.73234
▁나서	-9.73242
험	-9.7329
▁올리	-9.73292
많은	-9.73341
▁흘러	-9.73372
▁싸구려	-9.73421
▁시사회	-9.73456
필요	-9.7346
.......	-9.7346
▁생애	-9.7348
▁방금	-9.7348
▁귀엽	-9.73501
▁사랑에	-9.73571
시간에	-9.73603
▁할말이	-9.73623
st	-9.7366
▁결과	-9.73686
▁킬링타임용으로	-9.73738
▁몰입이	-9.73791
▁개인	-9.73811
▁그들의	-9.7383
▁쫌	-9.73835
신이	-9.73966
▁게이	-9.74007
▁영화지만	-9.74058
▁보고싶	-9.74171
굴	-9.74259
골	-9.74284
▁남기	-9.74295
▁친	-9.74306
▁드럽게	-9.74312
▁ᅲᅲᅲ	-9.74315
것만	-9.74327
▁과연	-9.74351
할수있	-9.74483
O	-9.745
▁웃기고	-9.74534
▁잔잔하고	-9.74593
빼고	-9.74604
▁재밋다	-9.74638
▁헛	-9.74715
▁달라	-9.74736
▁어제	-9.74737
▁짱짱	-9.74786
자체	-9.74795
▁현실성	-9.74813
▁열정	-9.74823
중의	-9.74825
▁개판	-9.74887
님의	-9.74905
▁공감이	-9.74909
즘	-9.75088
X	-9.75126
홀	-9.75129
▁찡	-9.7513
▁기대안하고	-9.7514
▁눈빛	-9.75157
▁자신	-9.75159
끈	-9.75204
▁분노	-9.75235
▁봣는데	-9.75381
▁음악도	-9.75436
공포	-9.75509
▁소재가	-9.75638
잃	-9.75693
▁또한	-9.75746
기엔	-9.75747
▁지루할	-9.75755
▁이거보고	-9.75769
겹	-9.75909
▁진심으로	-9.75961
뿌	-9.75962
밑	-9.75981
▁실패	-9.75992
▁듣	-9.76002
냥	-9.76006
농	-9.76007
힐	-9.76007
(?)	-9.76009
영화로	-9.76103
▁40	-9.76106
A	-9.76143
▁다시한번	-9.76143
▁포장	-9.76195
▁결	-9.76239
▁해주	-9.76279
▁사람을	-9.76331
▁볼만하다	-9.76343
한게	-9.76348
▁초반에	-9.7635
하려고	-9.76369
해준	-9.76438
▁메시지	-9.76447
하는것	-9.7646
▁죽어	-9.76512
on	-9.76546
▁그린	-9.76579
!!!!!	-9.76596
▁잭	-9.76743
무비	-9.76758
학생	-9.76819
........	-9.76837
@	-9.76873
R	-9.76885
▁저렇게	-9.76885
▁느끼는	-9.7689
▁통쾌	-9.76898
▁페	-9.76918
▁보러	-9.7694
가슴	-9.76976
으론	-9.77004
아까워	-9.77009
형님	-9.77039
▁아직까지	-9.77075
▁인기	-9.77127
▁그렇다	-9.7717
▁식상	-9.77207
▁만든다	-9.77207
케이	-9.77232
11	-9.77367
▁잊혀지지	-9.77398
나게	-9.77447
▁폭력	-9.77489
▁배우의	-9.77503
▁괜찮았	-9.77523
▁남아	-9.7755
오브	-9.77561
하구	-9.77639
▁죽여	-9.77691
▁나오고	-9.77709
]	-9.7777
`	-9.7777
▁뜬금없	-9.7777
▁아름다움	-9.7777
▁섹스	-9.77775
▁매력있	-9.77799
상을	-9.77805
헤	-9.77806
▁베스트	-9.77846
높	-9.77892
▁영국	-9.77924
▁good	-9.77925
▁반전도	-9.77936
▁좋습니다	-9.77945
개봉	-9.78028
있네	-9.78116
하려는	-9.78181
▁퍼	-9.78284
프리	-9.78331
받고	-9.78354
온다	-9.78412
▁푹	-9.78422
▁만큼	-9.78453
▁민	-9.78469
ᅲᅮ	-9.78504
영화의	-9.7851
협	-9.78599
벽	-9.78635
잤	-9.78636
▁헐리우드	-9.78663
▁로그인	-9.78663
째	-9.78697
▁재미있었어요	-9.78744
▁즐겁게	-9.78822
잠	-9.78837
▁사랑하는	-9.78856
M	-9.78924
같음	-9.78971
▁이쁜	-9.78989
영화라고	-9.78991
▁힘들다	-9.79005
▁낮아서	-9.79008
구성	-9.79026
▁꾸	-9.79239
▁좋아서	-9.79295
스럽	-9.79335
막장	-9.79345
▁아는	-9.79346
▁인생을	-9.79416
▁빌려	-9.79432
▁드	-9.79434
▁젊은	-9.79501
형제	-9.79515
▁든다	-9.79537
주고싶	-9.79546
▁견자단	-9.79564
▁레전드	-9.79564
▁뛰어난	-9.79594
▁종교	-9.79606
나와서	-9.79608
▁안되고	-9.79627
▁시대를	-9.79645
▁자막	-9.79696
▁최근	-9.79729
OOO	-9.79734
할까	-9.79787
폐	-9.79842
착	-9.79847
속에서	-9.7985
낫	-9.79862
▁이기	-9.7996
▁죽을	-9.80151
▁무서워	-9.80181
▁했던	-9.80215
▁칼	-9.80245
▁나타	-9.80279
찾	-9.80282
겟다	-9.80309
▁정말로	-9.80351
점수	-9.80367
님이	-9.80375
▁굳이	-9.80386
▁역할	-9.80405
▁발로	-9.80445
▁어려운	-9.80473
ᅩ	-9.80473
▁희생	-9.80483
▁남을	-9.80555
▁행	-9.80575
▁마세요	-9.80581
▁헤	-9.80633
▁올라	-9.80635
▁유쾌하고	-9.80777
▁출연진	-9.8078
▁의심	-9.80796
자는	-9.8085
▁산으로	-9.80881
▁팬이	-9.80907
▁몰라도	-9.80936
▁재미없어요	-9.80962
▁필	-9.81034
▁영화냐	-9.81145
▁가진	-9.81224
▁합	-9.81296
콜	-9.81375
솔	-9.81388
떄	-9.8139
톱	-9.8139
▁시트콤	-9.8139
▁헐리웃	-9.8139
컷	-9.8139
스러웠	-9.81403
▁생생	-9.81463
▁없지만	-9.81464
▁고생	-9.81553
내용도	-9.8159
▁아쉬움	-9.81601
긴한데	-9.81602
▁독특	-9.8169
정이	-9.81714
▁생각없이	-9.81719
▁여러	-9.81721
접	-9.81739
▁광고	-9.8175
짜증	-9.81776
젠	-9.81922
무엇	-9.81944
▁안타깝다	-9.8198
▁높아	-9.81998
▁탄탄한	-9.82013
▁어렸을	-9.82058
▁d	-9.82067
▁빠지	-9.82086
고싶어	-9.82093
수있는	-9.82095
▁엉성	-9.82115
딩	-9.82278
재밌음	-9.8229
▁긴장감도	-9.82314
붕	-9.82316
▁즐거운	-9.82316
▁짝퉁	-9.82316
▁둘다	-9.82316
▁쵝오	-9.82317
포인트	-9.82321
▁나머지	-9.82324
▁시시	-9.82341
이유	-9.82367
스럽고	-9.82379
▁연출도	-9.82396
▁단연	-9.82466
도아니고	-9.82479
웨	-9.82497
▁보길	-9.82618
▁안돼	-9.82623
▁전투	-9.8263
▁가득	-9.82651
▁죽이	-9.82664
▁나쁘지	-9.82664
세기	-9.82673
▁딱히	-9.82693
▁평이	-9.82755
표현	-9.82831
보자	-9.82851
씨가	-9.82857
▁정서	-9.82943
나오네	-9.82968
는줄	-9.83047
▁야한	-9.83105
했나	-9.83178
있음	-9.83215
▁울었다	-9.8323
균	-9.83233
N	-9.83249
댄	-9.83251
▁와우	-9.83253
▁점수를	-9.83337
스의	-9.83362
▁악당	-9.83366
▁눈물을	-9.83396
었어	-9.83454
▁지루했다	-9.83489
▁환상	-9.83521
▁이유는	-9.83648
▁재밌을	-9.83685
▁많았	-9.83711
한것	-9.83728
떠	-9.83733
거같	-9.83765
버림	-9.83778
▁투자	-9.83847
▁불쌍	-9.83947
V	-9.83968
▁이런영화가	-9.84014
▁앤	-9.84018
▁뒤로	-9.84039
▁굿굿	-9.84113
씀	-9.84119
릿	-9.84183
ᅵ	-9.84194
텔	-9.84194
▁청소년	-9.84194
▁잔인한	-9.84205
ᄋᄋ	-9.84291
감동적	-9.84297
사람은	-9.84304
▁많아	-9.84315
▁맘	-9.84337
▁c	-9.84408
▁생각한다	-9.84413
▁찍었	-9.84435
▁끄	-9.84488
혼	-9.84504
ᄏᄏᄏᄏᄏᄏᄏᄏᄏᄏᄏᄏᄏᄏᄏᄏ	-9.84549
명이	-9.84558
▁사는	-9.84584
계의	-9.84642
들만	-9.84673
장난	-9.84694
젤	-9.84719
▁받아	-9.84754
사이	-9.84791
극장	-9.84932
▁판	-9.84941
▁그려	-9.85088
▁펑펑	-9.85139
콤	-9.85146
▁의외로	-9.85167
▁따뜻해지는	-9.85176
스러워	-9.85176
▁흐름	-9.85178
감을	-9.85208
▁끝나는	-9.85264
▁홍보	-9.85313
기억	-9.85343
▁멋있다	-9.85365
▁아나	-9.85469
면에서	-9.85534
▁생각합니다	-9.85548
메이	-9.85566
▁"""""""	-9.85714
답답	-9.85734
남는	-9.85738
▁당시에	-9.85749
▁되었	-9.85776
엄마	-9.85784
에서도	-9.85786
아요	-9.85828
▁직	-9.85848
▁죄다	-9.85883
느라	-9.85899
▁왜케	-9.85915
▁밥	-9.85946
▁이루	-9.85952
스타일	-9.8598
▁느낄수	-9.85988
▁식	-9.85994
가지고	-9.86039
엔딩	-9.86048
▁중반	-9.86063
▁돋	-9.86096
혈	-9.86108
▁위대한	-9.8611
▁007	-9.8611
▁마이클	-9.86114
▁채널	-9.86116
▁무엇을	-9.86137
▁상처	-9.86163
▁주인공의	-9.86205
하지도	-9.86209
집니다	-9.8625
▁학교에서	-9.8626
그래	-9.86264
▁오글거리	-9.86269
▁지나치	-9.86274
원작	-9.86293
▁우와	-9.86308
있는데	-9.86323
▁국	-9.86365
▁되었다	-9.86434
시다	-9.86518
▁여기서	-9.86551
▁연속	-9.86649
워서	-9.86815
▁모든게	-9.86901
▁빌	-9.86932
인가요	-9.86976
▁많다	-9.87053
노래	-9.87055
▁주성치	-9.87081
▁북한	-9.87114
끄러	-9.87136
사가	-9.87139
▁영화에요	-9.87169
▁핵	-9.87257
▁이쁘고	-9.87281
▁무시	-9.87311
져서	-9.87333
▁미소	-9.87367
▁안타깝	-9.87431
얘기	-9.8744
▁아침	-9.87462
▁이쁘다	-9.87496
▁돌아가	-9.87511
었고	-9.87545
▁하루	-9.8756
▁심장	-9.87566
▁봣	-9.87568
끌	-9.87616
▁보니까	-9.87623
했네요	-9.87624
▁늘어	-9.87628
친다	-9.87661
닌	-9.87681
ᄌ	-9.87739
캐릭터	-9.87759
만드는	-9.8778
하셨	-9.87782
▁쩐다	-9.87789
흥	-9.87811
나와	-9.87816
▁있네요	-9.87823
▁망한	-9.87837
▁영화였어요	-9.87837
▁끊	-9.87879
▁드라마는	-9.87978
▁어른	-9.88
관계	-9.88018
값	-9.88046
씹	-9.88059
▁무언가	-9.88061
▁어머니	-9.88103
▁자신의	-9.88109
전쟁	-9.88123
▁결말도	-9.88131
▁소재로	-9.88164
▁코난	-9.88187
▁내려	-9.88199
안되는	-9.88201
▁중요한	-9.88233
▁남녀	-9.88249
▁매력적이	-9.88264
시키는	-9.88353
▁평범	-9.88389
▁이후로	-9.88443
▁전문가	-9.88458
▁울었	-9.8847
봉	-9.88492
"""""""	-9.88515
▁노답	-9.88515
▁이따위	-9.88565
연기도	-9.88589
ᅮᅮᅮ	-9.88651
▁풍	-9.88652
▁뜨	-9.88678
▁자극	-9.88713
▁결말은	-9.88746
▁히	-9.88786
▁못했다	-9.88801
한다면	-9.8886
.........	-9.88892
▁라는	-9.88927
이해	-9.88975
▁특이	-9.8898
▁발전	-9.88988
▁있게	-9.89002
▁다만	-9.89004
▁어렵	-9.89008
되었	-9.89027
뛰	-9.89027
멘	-9.89048
헌	-9.89049
▁마이너스	-9.89049
▁전기세	-9.89052
▁보고나면	-9.8906
▁발견	-9.89094
▁에휴	-9.891
영화임	-9.8911
매력	-9.89157
▁꽃	-9.89217
현실	-9.89225
▁옛	-9.89246
학교	-9.89266
▁이때	-9.89271
▁동생	-9.89335
일본	-9.89344
▁찬	-9.89366
▁건지	-9.89421
▁나옴	-9.89565
려면	-9.89591
▁좋지만	-9.89622
▁끝이	-9.89656
▁한국인	-9.89696
▁지금은	-9.89716
▁과정	-9.8973
▁가지	-9.89759
▁무비	-9.89772
마리	-9.89789
▁사기	-9.89831
▁인생의	-9.89833
슬프	-9.89887
▁멍청한	-9.89902
▁있어요	-9.89941
보지	-9.89941
▁웃김	-9.90001
▁ᄋᄋ	-9.90002
쌍	-9.90003
▁의리	-9.90026
옹	-9.90034
ᄇ	-9.90035
땡	-9.90049
▁흔한	-9.90079
▁연결	-9.90128
▁살아있	-9.90172
력이	-9.90205
이며	-9.90207
▁알겠	-9.90218
계속	-9.90246
식으로	-9.90259
였어	-9.90263
▁쓸	-9.90281
▁문화	-9.90305
▁않게	-9.90384
따라	-9.90399
▁진부	-9.90407
▁나왔다	-9.90465
▁만들고	-9.90571
▁예쁘	-9.90609
지가	-9.90656
▁한국영화는	-9.90711
▁잊지	-9.90799
▁손발이	-9.90835
빙	-9.90838
▁왠	-9.90898
▁빼고	-9.90936
▁뻔하고	-9.90974
부족	-9.91002
▁슈퍼	-9.91044
▁영화에서	-9.91058
렷	-9.91059
▁흥미로운	-9.91074
▁속에	-9.91088
▁반개도	-9.9111
▁웃기지도	-9.91122
▁달달	-9.91146
▁아픔	-9.91148
빼곤	-9.91224
▁명품	-9.91266
▁몰입해서	-9.91268
해진다	-9.91286
▁전체	-9.91346
▁틀	-9.91362
하더라	-9.91434
▁음악과	-9.9144
슬퍼	-9.9148
▁진리	-9.91501
▁그럼	-9.91555
쉽	-9.91588
▁싶네요	-9.91604
▁단순한	-9.91758
▁신선하고	-9.91805
▁보아	-9.91809
있나	-9.91874
▁케이블	-9.91895
▁빼고는	-9.91915
▁월	-9.9194
정신	-9.91963
보는내내	-9.92025
왔는데	-9.9206
▁반성	-9.92077
뽕	-9.9208
녕	-9.9208
털	-9.9208
▁김기덕	-9.9208
▁쉽게	-9.92093
▁웃음이	-9.92116
아쉽	-9.92152
▁최강	-9.9216
▁표현한	-9.92233
지지	-9.92316
▁차이	-9.92319
▁보았다	-9.92347
▁시간을	-9.92348
리아	-9.92357
로써	-9.92359
▁현실적인	-9.92392
▁느꼈	-9.92393
▁아쉽네요	-9.92395
▁쓰레기같은	-9.92464
▁엉망	-9.92465
▁말을	-9.92587
▁우주	-9.92606
▁채	-9.92609
▁아마	-9.92662
▁비슷	-9.9267
▁맡	-9.92696
점정도	-9.92816
더라면	-9.92854
▁;;	-9.92961
▁50	-9.9298
▁받을	-9.92982
▁크게	-9.92983
▁13	-9.93015
▁솔직	-9.93047
갈수록	-9.93051
▁봤더니	-9.93111
▁뭉클	-9.93111
이런영화	-9.93146
같고	-9.93194
▁어휴	-9.93214
▁꼽	-9.93218
?!	-9.93225
대사	-9.93254
▁무협	-9.93335
뻔한	-9.93347
겨울	-9.93364
▁극치	-9.93379
it	-9.93444
▁국내	-9.9347
▁미모	-9.93558
▁순수	-9.9358
엇다	-9.93599
되면	-9.93654
ᄏᄏᄏᄏᄏᄏᄏᄏᄏᄏᄏᄏᄏ	-9.93724
▁철	-9.93724
▁할말	-9.93724
▁나오면	-9.93732
했으나	-9.93736
▁잼있다	-9.93751
하려	-9.93882
▁[	-9.94011
드러	-9.94053
▁the	-9.94153
▁벌써	-9.9417
▁국민	-9.94202
하기만	-9.94206
▁느낌을	-9.94208
하지마라	-9.9428
▁좋았을	-9.94284
▁시각	-9.94288
뭔	-9.94302
▁남자가	-9.94309
▁멍청	-9.94316
▁끌어	-9.94347
▁좀더	-9.94407
▁신파	-9.94455
▁떠나서	-9.9447
▁못해	-9.94552
▁현실적이	-9.9456
▁모르	-9.94618
▁집에서	-9.94673
▁루	-9.94689
▁않지만	-9.94735
▁보인다	-9.9484
적은	-9.94859
▁우리가	-9.94906
▁끼	-9.94987
뚱	-9.95205
컨	-9.95205
줄알았	-9.95258
해주세요	-9.95275
▁역대급	-9.953
▁시도	-9.9533
▁무척	-9.9538
~~~~~~~~	-9.95457
▁떨어지	-9.95519
▁가서	-9.95581
▁공부	-9.9559
▁주말	-9.95604
▁관한	-9.95654
장면이	-9.95665
했다는	-9.95667
대는	-9.95675
사회	-9.95717
▁이해할	-9.95719
▁없는데	-9.95733
▁볼수있	-9.95735
▁되지	-9.95757
냈	-9.95827
▁오바	-9.95827
▁진부하고	-9.95836
만큼은	-9.95839
▁훈훈한	-9.95849
▁질리지	-9.95977
▁무서웠	-9.95981
▁아줌마	-9.96172
▁지루하게	-9.96204
로우	-9.9622
컬	-9.96265
▁낳	-9.96267
떼	-9.96269
퀴	-9.96269
▁포르노	-9.96269
팀	-9.96269
▁연예인	-9.96269
▁보지마	-9.9627
▁더러운	-9.9627
▁젠장	-9.96273
몽	-9.96281
▁새롭	-9.9629
▁울고	-9.96299
▁민망	-9.96312
▁이래	-9.96317
▁레알	-9.96326
▁풀	-9.96342
▁조합	-9.9641
▁사람의	-9.96437
끝까지	-9.96525
▁부족하다	-9.96545
셔서	-9.96591
▁없지	-9.96619
아니다	-9.96671
씬은	-9.96674
▁배우들도	-9.96688
▁적당	-9.96695
까지는	-9.96753
쁜	-9.96834
▁영화인듯	-9.96858
▁있으면	-9.96889
▁감동적	-9.96913
▁한참	-9.96949
▁영화인	-9.97015
▁샤	-9.97022
하신	-9.97141
▁안보고	-9.97149
▁콩	-9.97154
▁줌	-9.97249
택	-9.97266
▁잊을	-9.97288
▁러닝타임	-9.97344
넹	-9.97344
▁f	-9.97385
▁맨날	-9.97395
▁무섭지도	-9.97414
I	-9.97433
▁상업	-9.97439
▁최고입니다	-9.97466
▁있습니다	-9.97522
보네	-9.97667
치곤	-9.9768
▁괜찮은데	-9.97831
▁한데	-9.97852
식이	-9.9788
▁감동적이다	-9.97907
▁한심	-9.97975
▁삶에	-9.98055
지도않고	-9.98131
ᄏᄏᄏᄏᄏᄏᄏ	-9.98301
하는건	-9.98406
낀	-9.98422
▁아름다웠	-9.98431
▁묘사	-9.98446
▁찌질	-9.98497
▁기다리	-9.98503
만의	-9.98511
이라서	-9.98558
쥐	-9.98558
돋	-9.98561
몰입	-9.98614
▁의문	-9.98638
▁지구	-9.98643
시작	-9.9868
▁영어	-9.98705
▁뜻	-9.98705
연기력	-9.98722
▁못한다	-9.98723
와는	-9.98732
▁시청	-9.98812
에대한	-9.98839
▁조연	-9.98875
어라	-9.98889
▁진지	-9.98975
거라	-9.99043
▁놈	-9.99088
▁아이가	-9.99103
이자	-9.99123
▁힘이	-9.99148
▁올려	-9.99245
ᄏᄏᄏᄏᄏᄏᄏᄏᄏᄏ	-9.99253
텐	-9.99431
▁인도	-9.99487
▁여행	-9.99525
▁인상적이	-9.99526
▁카리스마	-9.9953
칸	-9.9953
▁싸이코	-9.99531
편의	-9.99533
ing	-9.99553
▁필름	-9.99553
▁지켜	-9.99604
▁일품	-9.9964
꿀잼	-9.99645
아쉬	-9.99653
밥	-9.99715
▁남겨	-9.9978
▁하나하나	-9.9979
▁혼	-9.99819
봐요	-9.99828
▁원작의	-9.99901
▁인간이	-9.99923
▁논	-9.99936
▁제로	-9.9997
▁오글	-10.0004
▁왜이래	-10.0009
▁억지스럽	-10.0015
▁잔	-10.0019
자의	-10.002
해진	-10.002
님들	-10.0022
제발	-10.0025
제작	-10.0033
않다	-10.0035
▁쓰레기다	-10.004
▁보자	-10.0042
나가는	-10.0043
en	-10.0054
▁졸리	-10.0055
기에는	-10.0057
▁철학	-10.0062
▁초등학생	-10.0064
롤	-10.0064
칙	-10.0064
▁크리스마스	-10.0064
▁지루하기	-10.0064
▁불구하고	-10.0064
▁더불어	-10.0065
▁흥	-10.0065
했었는데	-10.0065
▁검색	-10.0066
▁니들	-10.0077
▁외모	-10.0079
▁사랑이야기	-10.0079
봅니다	-10.0087
▁모르겠지만	-10.0087
시즌	-10.0093
같네	-10.011
▁추억이	-10.011
♥♥♥	-10.011
우리	-10.0125
▁재미잇	-10.0129
버릴	-10.0129
▁a	-10.0131
▁못할	-10.0133
편에	-10.0146
이었음	-10.0147
▁아역	-10.0152
힘	-10.0152
▁만든영화	-10.0153
내고	-10.0154
버리는	-10.0163
▁나오지	-10.0173
좋아하는	-10.0175
▁기독교	-10.0176
례	-10.0176
▁아까울	-10.0177
▁좋았으나	-10.0179
공감	-10.0179
▁복잡	-10.018
▁변태	-10.0183
다는게	-10.0183
뭔가	-10.0186
지말고	-10.0191
▁재밌던데	-10.0192
▁설마	-10.0194
지를	-10.0195
똥	-10.0195
▁그걸	-10.0196
▁박수를	-10.02
▁최소	-10.0202
▁없었던	-10.0206
자체가	-10.0208
▁가면	-10.0209
▁인간들	-10.0209
▁누구나	-10.0216
이였다	-10.0231
▁ᄏᄏᄏᄏᄏᄏ	-10.0232
▁작가가	-10.0234
소설	-10.0235
세상	-10.0236
▁쇼	-10.0237
▁잊을수	-10.0262
▁비디오로	-10.0267
기위해	-10.0267
▁영화라는	-10.0268
줘서	-10.0268
▁찌	-10.0269
▁시리즈중	-10.028
~!!!	-10.0285
랫	-10.029
냄새	-10.0291
▁크리스	-10.0293
▁개뿔	-10.0293
년만에	-10.0294
▁꽝	-10.0295
▁좋겠어요	-10.0296
▁인물들	-10.0298
▁한번쯤	-10.0299
▁하네요	-10.0306
▁의미를	-10.0307
라이언	-10.0308
▁대사가	-10.0309
그리	-10.0318
▁빵점	-10.0322
G	-10.0322
빌	-10.0324
샤	-10.0324
듣	-10.0325
해야지	-10.0326
▁착	-10.0327
..;;	-10.0331
겠음	-10.0331
▁끝났	-10.0333
▁괜찮다	-10.0339
놨	-10.034
▁안나	-10.0346
▁중요	-10.0352
중에서	-10.0354
울리	-10.0356
▁명작입니다	-10.0356
지네요	-10.0359
▁점수가	-10.0363
쟁이	-10.0364
▁홍콩영화	-10.0368
▁보시	-10.0378
하던데	-10.038
잖	-10.0381
▁싶지	-10.0392
▁안맞	-10.0393
▁주기	-10.0395
▁한명	-10.0395
는것도	-10.0397
흡	-10.0403
점줌	-10.0403
괜	-10.0403
둔	-10.0405
탓	-10.0405
▁으리	-10.0406
▁방법	-10.0409
머니	-10.0411
▁고통	-10.0417
▁양심	-10.0418
공포영화	-10.0423
배우가	-10.0426
▁뭐라	-10.043
겠네요	-10.043
허접	-10.0444
▁재미있었	-10.0458
야한다	-10.046
씨의	-10.0465
▁필요한	-10.0468
▁거지	-10.0469
▁장면에서	-10.047
▁유명한	-10.0472
▁낮다	-10.0473
편도	-10.0476
▁가져	-10.0477
▁이해하기	-10.0481
▁전설의	-10.0485
▁필요없	-10.0489
수없는	-10.0492
▁시청자	-10.0492
본영화	-10.0506
▁작품을	-10.051
▁유명	-10.0515
▁좋게	-10.0517
ᅥ	-10.0521
▁패러디	-10.0521
렁	-10.0521
폼	-10.0521
▁로봇	-10.0522
▁빈약	-10.0523
▁즐기	-10.0526
끼리	-10.0529
▁비극	-10.0551
..........	-10.0554
▁기대했는데	-10.0556
▁멍	-10.0559
▁좋아해서	-10.056
쓰레기영화	-10.056
한국	-10.0563
▁재미있어	-10.0574
▁감동의	-10.0581
는거야	-10.059
그래서	-10.0591
▁본거	-10.0592
▁틀어	-10.0594
▁되고	-10.0596
▁이유를	-10.06
막히	-10.06
재미없음	-10.0604
▁망치	-10.0605
었네	-10.0606
내내	-10.0607
지않고	-10.0618
티비	-10.0623
▁십	-10.0624
▁최대	-10.0624
감독님	-10.0628
▁평점보고	-10.0628
▁워	-10.0635
오래	-10.0638
깍	-10.0639
삐	-10.0639
쭉	-10.0639
▁시간가는줄	-10.0639
▁느껴진다	-10.0642
저리	-10.0645
하시는	-10.0649
▁존경	-10.0651
▁있구나	-10.0656
앞	-10.0657
▁보기에	-10.0657
▁떨어진다	-10.0661
▁낚시	-10.0666
▁장면들	-10.0671
▁사랑은	-10.0672
▁좋아할	-10.0673
▁작은	-10.0675
▁낮네	-10.0677
."""	-10.0681
특	-10.0682
▁가슴에	-10.0683
▁자살	-10.0684
<	-10.0689
밤	-10.069
으려	-10.0701
▁작품이다	-10.0702
했을까	-10.0706
▁오랜만	-10.0712
▁싶었	-10.0715
나올때	-10.0715
시길	-10.0717
렬	-10.0719
억지	-10.0719
▁살려	-10.0731
▁전쟁영화	-10.0733
랄까	-10.0734
점이다	-10.0735
▁들었	-10.0742
사는	-10.0745
▁어릴	-10.0745
▁O	-10.0748
편을	-10.0749
닮	-10.0753
없는영화	-10.0754
K	-10.0758
▁외계인	-10.0758
무서움	-10.0759
▁바뀌	-10.0759
▁기다려	-10.076
▁어린시절	-10.076
▁감흥	-10.0761
겁니다	-10.0764
▁폴	-10.0766
▁사랑의	-10.0766
▁세월	-10.0766
▁같아서	-10.0771
▁할까	-10.0788
▁간다	-10.0789
▁재미와	-10.0789
겠어요	-10.0791
▁형님	-10.0791
▁이럴	-10.0795
▁착한	-10.0799
▁웃기다	-10.0807
없어서	-10.0807
▁한심한	-10.0813
▁친구들	-10.0814
차라리	-10.0817
얼굴	-10.0818
잇는	-10.0819
짜증나	-10.0821
▁말하는	-10.0821
주면	-10.083
스크	-10.0835
▁헤어	-10.0836
▁18	-10.0846
▁덕분에	-10.0849
하기엔	-10.0851
놔	-10.0861
뽑	-10.0874
멸	-10.0878
쿨	-10.0879
▁깜짝	-10.0879
▁개봉한	-10.0882
있냐	-10.0883
▁죽는줄	-10.0884
같아	-10.0886
의미	-10.0892
▁엄	-10.0892
랜드	-10.0894
▁허세	-10.0914
새끼들	-10.0926
▁연기력도	-10.0928
▁깔끔	-10.0929
보고싶다	-10.0939
맥	-10.0942
▁긴장감이	-10.0955
▁무리	-10.0959
스키	-10.0963
▁운	-10.0964
▁용기	-10.0977
룡	-10.0986
▁꿈을	-10.0986
▁못하다	-10.0992
▁뿐이다	-10.0996
꾼	-10.1
셀	-10.1
깜	-10.1
▁에피소드	-10.1
▁왠만하면	-10.1
▁고양이	-10.1001
▁색다른	-10.1001
▁교육	-10.1003
▁겨우	-10.1003
▁풍경	-10.1006
▁최초	-10.1009
▁보지말	-10.1011
▁ᄏᄏᄏᄏᄏᄏᄏ	-10.1013
▁잼나게	-10.1032
▁명화	-10.1033
▁그녀의	-10.1041
▁잘봤어요	-10.1043
▁따뜻	-10.1043
▁눈에	-10.1045
년도에	-10.1051
▁원작이	-10.1054
▁넘치는	-10.1061
것인가	-10.1061
꼴	-10.107
보구	-10.1072
▁야구	-10.1073
▁개성	-10.1078
▁보려고	-10.1084
▁도전	-10.1086
▁한마디	-10.1092
▁뇌	-10.1093
▁하는지	-10.1102
기로	-10.1103
부작	-10.1106
▁D	-10.1106
닐	-10.1106
▁봤네	-10.1107
▁부르	-10.111
▁단지	-10.1114
▁199	-10.1118
있었	-10.1121
인건	-10.1122
뮤	-10.1124
긋	-10.1124
▁자식	-10.1126
뭐야	-10.1128
▁영원히	-10.1128
▁특별한	-10.1129
▁낚였다	-10.113
▁갈등	-10.1132
지루함	-10.1133
▁빠진	-10.1134
▁여름	-10.1136
▁개막장	-10.1136
▁학교	-10.1137
▁갔	-10.1144
▁기대이상	-10.1149
▁본영화	-10.115
▁보긴	-10.1151
▁훌륭하다	-10.1152
..^^	-10.1155
▁감히	-10.1158
▁피해자	-10.1161
▁어른들	-10.1183
▁재미없었다	-10.1185
대단	-10.1187
▁이것이	-10.1187
▁생각함	-10.1188
▁행복한	-10.1191
잔잔	-10.1195
▁미쳤	-10.1196
▁답답한	-10.1197
F	-10.1198
드립니다	-10.1204
고싶은	-10.1205
요즘	-10.1206
▁그렇다고	-10.1208
줬다	-10.1219
기법	-10.1225
▁지나도	-10.123
▁뛰어	-10.1233
▁척	-10.1237
▁재밌다고	-10.124
였고	-10.1241
▁쩝	-10.1246
륜	-10.1246
춰	-10.1247
하는영화	-10.1247
탐	-10.1249
▁중에서	-10.1249
▁핵노잼	-10.125
▁전개도	-10.125
▁보여준다	-10.1251
히어로	-10.1251
▁극장가서	-10.1251
▁참신한	-10.1252
빨리	-10.1255
오글	-10.1255
▁밤	-10.1255
▁전율	-10.126
▁알려	-10.1262
▁기술	-10.1264
▁그당시	-10.1267
▁들었다	-10.1269
자나	-10.1269
▁애기	-10.127
▁야동	-10.1273
좋음	-10.1273
▁좋았지만	-10.1274
▁싶은데	-10.1281
▁보통	-10.1285
▁조카	-10.1289
곳	-10.1291
▁부모	-10.1292
살아	-10.1293
▁맹	-10.1293
었네요	-10.1294
하기도	-10.1294
냈다	-10.1301
▁탑	-10.1302
▁때문	-10.1302
볼수	-10.1307
▁생각하는	-10.1308
▁못함	-10.131
으로써	-10.131
▁쿠	-10.1311
겠습니다	-10.1312
기까지	-10.1312
▁소름이	-10.1318
럴	-10.1319
▁결론	-10.1324
맹	-10.1331
▁그렇지	-10.1338
이걸	-10.1339
쓰고	-10.1348
▁잊	-10.1357
▁없어요	-10.136
때매	-10.1362
마지막에	-10.1363
거면	-10.1368
▁빠져들	-10.1368
▁블랙	-10.1375
올리	-10.1375
▁캬	-10.1375
숭	-10.1375
▁봤을때	-10.1375
▁몇몇	-10.1378
매니아	-10.1378
▁재미없게	-10.138
▁그저그런	-10.138
▁만들면	-10.1382
▁다룬	-10.1383
▁충격적이	-10.1391
▁잼잇	-10.1398
▁해석	-10.1401
▁악마	-10.1401
▁장르가	-10.1408
▁완전히	-10.1411
감독의	-10.1415
▁견	-10.1418
잡고	-10.142
▁이미지	-10.1426
▁공포물	-10.1428
▁오락	-10.1431
▁충	-10.1433
▁가치가	-10.1435
끄	-10.144
▁웃고	-10.144
▁들어가	-10.145
▁에로영화	-10.1453
적이다	-10.1454
까요	-10.1456
▁:	-10.146
덜	-10.1465
영화인데	-10.148
만듬	-10.148
▁누군가	-10.1488
배경	-10.1491
하고싶은	-10.1495
H	-10.1504
쥬	-10.1504
핀	-10.1504
섯	-10.1504
▁스트레스	-10.1504
▁무엇인지	-10.1504
옴	-10.1505
어여	-10.1508
▁어이	-10.1508
200	-10.1511
▁가능	-10.1519
▁아니야	-10.152
▁이래서	-10.1527
▁색감	-10.1533
▁재미있습니다	-10.1533
부분이	-10.1534
▁생각하고	-10.1545
▁아픈	-10.1546
▁아이돌	-10.1547
▁좋아하는데	-10.1547
▁모르게	-10.1547
▁연기자들	-10.1548
▁드립니다	-10.1555
▁볼게	-10.156
▁최고였다	-10.1569
▁심하게	-10.1587
재밌어	-10.1588
했지	-10.159
▁대화	-10.1591
▁뻔하	-10.1591
▁노래도	-10.1592
▁조화	-10.1595
켜	-10.1595
간의	-10.1596
▁말하고	-10.1597
큰	-10.1601
더빙	-10.1608
속의	-10.1616
▁웬	-10.162
콘	-10.1624
▁씬	-10.1625
섹	-10.1632
냉	-10.1633
뽀	-10.1634
▁스티븐	-10.1634
ᄎ	-10.1634
핑	-10.1634
▁이제서야	-10.1634
▁잔뜩	-10.1634
▁반복	-10.1644
▁확실	-10.1647
빠지	-10.1653
▁만남	-10.1654
▁챙겨	-10.1657
▁감명	-10.1657
▁만들다니	-10.1659
▁짜증난다	-10.1662
bb	-10.1665
▁색	-10.1665
▁그럴	-10.1673
센스	-10.1674
!!!!!!	-10.1674
ll	-10.1676
▁가족영화	-10.1678
▁비하면	-10.168
아까운	-10.1683
▁보지마라	-10.1685
▁생각나서	-10.1688
▁이런영화를	-10.1693
더라도	-10.17
절대	-10.1702
▁암튼	-10.1702
개그	-10.1704
씬이	-10.1713
▁그거	-10.1715
▁노래가	-10.1715
▁밋밋	-10.1716
▁먹고	-10.1724
빛	-10.1734
▁다르다	-10.1739
▁죽이는	-10.1748
▁있어야	-10.176
닿	-10.176
▁전설	-10.176
오늘	-10.1762
▁DVD	-10.1765
뜬	-10.1765
빅	-10.1765
U	-10.1765
▁안타까운	-10.1765
▁아류작	-10.1765
▁소소한	-10.1765
▁모험	-10.1771
▁감각	-10.1774
▁동안	-10.1774
년작	-10.1774
는구나	-10.178
▁무술	-10.1783
명의	-10.1788
▁빼면	-10.1789
보여	-10.1792
▁어쩔수	-10.1794
▁남네요	-10.1806
▁돼	-10.181
점대는	-10.1811
▁깎	-10.1812
▁출연한	-10.1823
▁곳	-10.1824
설정	-10.1825
▁살고	-10.1827
▁엉성하고	-10.1831
▁관객들	-10.1834
▁감정을	-10.1835
▁하면서	-10.1844
▁모를	-10.1847
그만	-10.1848
▁관객을	-10.1854
으로서	-10.1859
만드네	-10.1863
▁많고	-10.1865
꽃	-10.1876
▁훈훈	-10.1884
▁최근에	-10.1885
었나	-10.1886
좋았다	-10.1888
▁ᄏᄏᄏᄏᄏᄏᄏᄏ	-10.1891
껴	-10.1896
칭	-10.1898
▁봤을까	-10.1898
▁읽어	-10.1898
벅	-10.1898
낯	-10.1898
▁아이디어	-10.1899
▁2014	-10.1899
▁스스로	-10.1899
▁잔혹	-10.19
었지	-10.1901
▁11	-10.1908
le	-10.1909
현실을	-10.1914
안됨	-10.1914
되나	-10.1915
▁오래된	-10.1916
▁열연	-10.1917
▁방영	-10.1918
▁수도	-10.1918
얘	-10.1923
하겠	-10.1924
▁잼있어요	-10.1924
▁보여줬	-10.193
▁낮지	-10.1931
▁않을까	-10.1932
한다고	-10.1935
ᄏᄏᄏᄏᄏᄏᄏᄏᄏᄏᄏᄏ	-10.1937
▁남편	-10.1939
▁선생님	-10.1946
▁체	-10.1947
▁돌리	-10.1949
-_-;	-10.1957
▁실제로	-10.196
▁소중한	-10.1964
▁멋지	-10.1965
▁본다면	-10.1969
▁됨	-10.1974
▁코미디영화	-10.1977
▁불쌍하다	-10.1981
▁볼만했	-10.1984
▁우리의	-10.1985
▁배우를	-10.1986
▁스릴있	-10.1988
긴하지만	-10.1988
▁정말이지	-10.1988
▁떨	-10.2
됐다	-10.2001
▁따로	-10.2008
트리	-10.2008
▁매력적	-10.2017
붙	-10.2017
▁낮아	-10.2017
흠	-10.2018
비디오	-10.2018
▁모든것	-10.2019
▁아쉬웠	-10.2022
관람	-10.2028
...........	-10.2031
▁21	-10.2032
▁아프	-10.2033
▁ᄋ	-10.2033
▁즐거웠	-10.2034
▁주윤발	-10.2034
▁후속작	-10.2034
▁교과서	-10.2034
▁sf	-10.2036
▁일어나	-10.204
거리는	-10.2043
▁보았습니다	-10.2045
블루	-10.2049
!!!!!!!!!!!!!!!!	-10.2054
▁여운을	-10.2056
▁분위기가	-10.2062
영화입니다	-10.2063
문화	-10.2064
동생	-10.2064
▁주기도	-10.2065
▁집중해서	-10.2067
▁신경	-10.2068
▁막판에	-10.207
▁개연성이	-10.2074
▁앞으로도	-10.2075
▁일반	-10.2077
▁여전	-10.2081
받는	-10.2082
▁예쁘고	-10.209
▁에이	-10.2091
요소	-10.2092
버전	-10.2092
▁한편의	-10.2094
▁섬	-10.2094
출연	-10.2097
99	-10.2099
본사람	-10.21
▁맞아	-10.2104
▁안습	-10.211
▁영상이	-10.2118
▁식상한	-10.212
▁썼	-10.2121
▁내가본	-10.2124
▁마이	-10.2131
▁됬	-10.2135
▁단편	-10.2138
아무	-10.2154
▁보내	-10.2155
▁가슴을	-10.2157
▁재난영화	-10.2157
긴장감	-10.2161
▁구성이	-10.2165
아까웠	-10.2168
z	-10.2171
▁살다살다	-10.2171
앵	-10.2171
▁로버트	-10.2171
▁여러분	-10.2171
▁제임스	-10.2171
▁직접	-10.2171
▁잠깐	-10.2172
거같은데	-10.2172
납니다	-10.2173
▁아까웠다	-10.2173
보지마셈	-10.2178
후회	-10.2179
있어서	-10.218
▁만들었는지	-10.2182
▁뛰어나	-10.2184
▁대표	-10.2185
▁있다니	-10.219
▁남자의	-10.219
스토리도	-10.2191
▁잇	-10.2195
▁탄탄	-10.2196
▁먼가	-10.2197
▁살면서	-10.2199
▁재미도없고	-10.22
▁남아있	-10.2202
30	-10.2208
▁내면	-10.2209
때부터	-10.221
▁지났	-10.221
것같아요	-10.2216
보니까	-10.2217
▁귀여워	-10.2223
▁정도의	-10.2233
점이상	-10.224
하다가	-10.2243
높은	-10.2245
▁망친	-10.2245
스포	-10.2246
▁잼나	-10.225
▁못보겠	-10.2254
뻐	-10.2268
▁G	-10.2268
▁본방사수	-10.2272
▁안볼	-10.2276
▁영화보면서	-10.2281
♥♥♥♥	-10.2281
............	-10.2283
굳	-10.2298
자를	-10.23
▁만들수	-10.2302
▁넌	-10.2303
▁집에	-10.2305
▁줄수	-10.2305
▁최고임	-10.2307
략	-10.2308
▁특수효과	-10.2309
룩	-10.2309
싼	-10.231
▁동성애	-10.231
배우들의	-10.2311
▁여러가지	-10.2312
▁술	-10.2313
▁바꾸	-10.2317
졸작	-10.2318
▁^	-10.2321
되었다	-10.2324
▁강력	-10.2326
▁해결	-10.2328
하지마	-10.2329
▁조작	-10.233
0%	-10.233
▁이딴걸	-10.233
▁모두가	-10.2331
덕에	-10.2336
▁별로임	-10.2337
▁선동	-10.2337
조금	-10.2339
애들이	-10.2345
▁궁금하다	-10.2346
했더니	-10.2348
레스	-10.2348
이뻐	-10.235
▁ᄌ	-10.2354
모두	-10.2357
감정	-10.2362
▁좀비영화	-10.2364
▁침	-10.2369
것같은	-10.2385
ᄏᄏᄏᄏᄏᄏ	-10.2393
주연	-10.24
여주	-10.2401
생각이	-10.2402
▁엘	-10.2405
인데도	-10.2407
보셈	-10.2408
럼	-10.2419
▁모르겠고	-10.2434
▁얼마	-10.2436
▁끈	-10.2437
▁현실이	-10.2437
▁영화보는	-10.2439
▁하는거	-10.2445
▁다운받아	-10.245
롯	-10.245
닉	-10.245
▁심형래	-10.245
▁인내심	-10.245
▁제이슨	-10.2451
몸	-10.2452
찡	-10.2452
아저씨	-10.2452
헐	-10.2452
es	-10.2453
▁경험	-10.2453
▁볼수있는	-10.2457
▁억지스러운	-10.2458
관객	-10.2458
▁빵	-10.2459
▁로코	-10.2461
▁게다가	-10.2462
▁타임	-10.2465
100	-10.2467
▁주변	-10.2467
▁위로	-10.2469
▁매력을	-10.247
▁신선하	-10.2471
▁세상을	-10.2471
이즈	-10.2473
왓	-10.2474
▁따분	-10.2474
▁케이블에서	-10.2477
▁부실	-10.2478
말이필요없	-10.2478
▁조절	-10.248
만하다	-10.2483
▁포스터가	-10.2485
▁캐릭터가	-10.2488
장애	-10.2491
▁많은걸	-10.2498
▁마지막장면	-10.2498
▁내용인지	-10.2499
▁아까운영화	-10.2504
▁풍자	-10.2506
▁요리	-10.2511
려다가	-10.2513
▁보며	-10.2518
특별	-10.2519
배우들이	-10.2521
▁죽은	-10.2522
게임	-10.2527
보이는	-10.2528
▁초딩때	-10.2535
▁안맞는	-10.2543
12	-10.2552
▁검	-10.2553
야할	-10.2553
▁생각하면	-10.2558
▁진수	-10.2561
▁엔딩이	-10.2576
▁쥐	-10.2576
▁커플	-10.2577
▁잠이	-10.2577
▁나은	-10.2578
▁예쁘다	-10.2578
▁포스	-10.2581
▁소장	-10.2588
딴	-10.2591
찮	-10.2592
받아서	-10.2593
엑	-10.2593
^-^	-10.2593
랭	-10.2593
▁W	-10.2593
▁거짓말	-10.2593
▁내생에	-10.2594
▁애들은	-10.2597
▁소중	-10.2597
▁언제봐도	-10.2601
촌	-10.2601
▁남자들	-10.2601
화이팅	-10.2602
▁높게	-10.2604
▁단어	-10.2604
개념	-10.2605
▁담배	-10.2606
?????	-10.2607
▁연출과	-10.2608
▁p	-10.2611
▁결정	-10.2612
같은영화	-10.2612
▁우리는	-10.2615
▁영화인지	-10.2618
셈	-10.2628
▁반전은	-10.2629
브라	-10.2629
▁괜찮음	-10.2634
▁답이	-10.2638
겼	-10.2646
모든	-10.2654
▁그립다	-10.2657
▁있었지만	-10.2658
▁형편없	-10.2659
▁만든거	-10.2659
▁싶을	-10.2661
▁잘만들	-10.2671
▁어디에	-10.2671
다큐	-10.2671
쟁	-10.2672
문제	-10.2672
▁작품은	-10.2672
같지	-10.2681
▁ᄀ	-10.2684
믿	-10.2686
▁않네요	-10.2688
▁부터	-10.2698
거같아요	-10.2707
분은	-10.2712
▁봤어	-10.2721
이름	-10.2721
재미있게	-10.2722
하진	-10.2723
아빠	-10.2725
나오고	-10.2726
보소	-10.2729
갔는데	-10.2731
▁개연성도	-10.2732
▁응	-10.2733
상태	-10.2736
액	-10.2737
▁블록버스터	-10.2738
▁해리포터	-10.2738
▁dvd	-10.2738
▁디테일	-10.2738
▁스크린	-10.2738
▁말도안되는	-10.274
▁어쩜	-10.2742
▁잤다	-10.2743
▁할머니	-10.2745
▁라이	-10.2746
▁태어나서	-10.2746
▁영혼	-10.275
것만으로도	-10.2753
▁안본	-10.2753
▁알겠는데	-10.2755
추억	-10.2757
싸움	-10.2757
▁나에겐	-10.276
▁사진	-10.2766
장르	-10.2766
▁그자체	-10.2768
▁모르겠음	-10.2768
좋은영화	-10.2771
초반	-10.2771
▁기억나는	-10.2772
▁아쉽지만	-10.2776
▁해라	-10.2777
놈이	-10.2783
▁보여주고	-10.2791
번은	-10.2792
치고는	-10.2792
▁지겹다	-10.2797
기전에	-10.2802
여행	-10.2808
▁약간의	-10.2816
▁남은	-10.2816
▁액션씬	-10.2822
보시길	-10.2826
조아	-10.2827
▁대부분	-10.2828
상실	-10.2829
▁줬	-10.2833
▁뭘까	-10.2837
어이없	-10.2838
바닥	-10.2839
▁이런영화는	-10.284
▁이상하게	-10.284
지않아	-10.2847
있습니다	-10.2848
▁최고로	-10.2848
햇다	-10.2851
▁만한	-10.2858
▁있던	-10.2859
▁이런건	-10.286
▁효과	-10.2862
▁푸	-10.2863
임에도	-10.2866
▁오락영화	-10.2868
▁오빠	-10.2875
평가	-10.2875
으니까	-10.2877
몇	-10.2881
▁실력	-10.2884
엠	-10.2885
ᄁ	-10.2885
쪼	-10.2885
▁가벼운	-10.2885
곰	-10.2885
펙	-10.2885
▁짜임새	-10.2885
▁이뻐서	-10.2886
▁탄생	-10.2886
▁어설프고	-10.2887
▁1,2	-10.2887
▁충실	-10.2888
▁엿	-10.2888
▁재밋어요	-10.2892
▁데리고	-10.2892
▁봐야하는	-10.2896
▁또다른	-10.2898
▁나름대로	-10.2899
▁인상적	-10.29
▁깨닫게	-10.2902
▁다시는	-10.2904
▁반담	-10.2905
푸	-10.2905
논	-10.2906
▁과장	-10.2906
걍	-10.2908
였으면	-10.2908
▁봐도봐도	-10.2909
커플	-10.2911
포스터	-10.2911
▁낙	-10.2912
▁옥	-10.2913
웃김	-10.2914
▁재미로	-10.2918
웃겨	-10.2918
▁동심	-10.292
▁대해서	-10.2921
▁선물	-10.2924
▁하나의	-10.2928
같아서	-10.2931
▁비판	-10.2948
▁원작에	-10.2948
ᅮᅲ	-10.2958
모르겟	-10.2963
들에	-10.2964
우스	-10.2969
▁아름답	-10.3001
▁똑같은	-10.3004
맘	-10.3008
▁진부하	-10.3023
▁대중	-10.3023
려나	-10.3024
▁평론가들	-10.3025
▁기자	-10.3027
▁감동은	-10.3027
▁자주	-10.303
묵	-10.3034
닷	-10.3034
뎅	-10.3034
▁숨겨진	-10.3034
▁장국영	-10.3034
▁제니퍼	-10.3034
▁러시아	-10.3034
▁울컥	-10.3035
▁재개봉	-10.3039
▁결코	-10.304
본영화중	-10.3041
▁남자주인공	-10.3043
연기는	-10.3043
▁놀라운	-10.3043
▁적당히	-10.3043
ut	-10.3045
▁한숨	-10.3045
하군	-10.3047
▁비밀	-10.305
▁따뜻하고	-10.3059
앤	-10.3062
▁개노잼	-10.3064
쳐서	-10.3064
▁죽이고	-10.3066
라곤	-10.3074
▁새벽에	-10.3077
없었	-10.3077
▁톰	-10.3081
▁최고의영화	-10.3082
▁놀랍다	-10.3087
▁형사	-10.3089
▁없습니다	-10.3089
▁클레멘타인	-10.3091
받은	-10.3094
▁잘만들었	-10.3095
▁궁	-10.3096
떨	-10.3111
▁재미없어서	-10.3115
▁수작이다	-10.3116
▁조선	-10.3116
▁이야기는	-10.3121
사람들은	-10.3122
엇는데	-10.3126
▁열받	-10.3126
▁아이들과	-10.3129
▁제목만	-10.3134
▁느꼈다	-10.314
기도하고	-10.3141
빠져	-10.3146
재밌는	-10.3146
▁거장	-10.3148
여운이	-10.3149
베리	-10.3151
▁뭐니	-10.3151
검	-10.3158
▁시리즈는	-10.3162
지말자	-10.3163
른다	-10.3163
al	-10.3166
▁아깝고	-10.3168
▁명작을	-10.3179
▁본게	-10.318
▁있네	-10.3182
^^*	-10.3182
딘	-10.3186
▁오랫만에	-10.3186
싹	-10.3186
▁왤케	-10.3186
▁배트맨	-10.3186
▁유일한	-10.3187
하길	-10.3189
▁재밌지	-10.3193
▁여자친구	-10.3194
▁어렵다	-10.3197
▁흔들	-10.3197
어린	-10.3198
▁최고봉	-10.3202
▁영상과	-10.3205
구석	-10.3206
▁연극	-10.3206
▁욕망	-10.321
▁울리는	-10.321
뇌	-10.3218
주기	-10.3219
▁길게	-10.322
▁잔인	-10.3222
할수가	-10.3228
▁ᄍᄍᄍ	-10.3232
▁속에서	-10.324
류영화	-10.3249
큐	-10.325
▁녹	-10.3256
었을	-10.326
이후	-10.3264
▁뭐하나	-10.3267
거같음	-10.3274
▁편견	-10.3277
▁한국에서	-10.3279
▁군	-10.3289
19	-10.3293
쳤다	-10.3294
후에	-10.33
ad	-10.3309
▁하아	-10.3316
▁두고	-10.3324
▁삼류영화	-10.3327
객	-10.3332
▁싸움	-10.3333
곧	-10.334
램	-10.334
벼	-10.334
층	-10.334
▁you	-10.334
▁조니뎁	-10.334
▁내생애	-10.334
▁사운드	-10.334
▁끔찍	-10.334
▁다양한	-10.334
▁시청률이	-10.3342
갠적으로	-10.3342
사람들이	-10.3343
타임	-10.3345
▁다시보니	-10.3345
▁만들기	-10.3348
▁믿고보는	-10.3348
▁=	-10.3355
보는게	-10.3359
▁꼬마	-10.3362
▁하나같이	-10.3362
글자	-10.3364
때문	-10.3365
▁어색하	-10.3365
!!!!!!!!!	-10.337
부러	-10.3372
▁느껴졌	-10.3372
삶	-10.3377
▁벤	-10.3378
받아	-10.3379
L	-10.3381
▁막장드라마	-10.3382
어떻게	-10.3384
솔직히	-10.3384
자리	-10.3384
▁모든걸	-10.3385
▁범	-10.3385
▁나랑	-10.3387
▁않아서	-10.3388
▁시간아깝다	-10.3391
▁사랑해요	-10.3394
쩐다	-10.3394
▁좋겠	-10.3399
▁불러	-10.3402
▁잡아	-10.3407
▁기준	-10.3411
줘도	-10.3414
▁싶어요	-10.3414
▁정의	-10.3416
▁넘게	-10.3418
~~!!	-10.3419
▁잘하고	-10.3422
▁주연배우	-10.3428
▁재미있을	-10.343
멜로	-10.3433
▁새로	-10.3438
▁기회	-10.3439
▁난해하	-10.3443
▁자랑	-10.3445
스럽게	-10.3445
없네요	-10.3447
▁헬	-10.3447
구리	-10.3457
▁샘	-10.3458
무시	-10.346
건가요	-10.346
웨이	-10.3465
▁맞지	-10.3482
▁갖고	-10.3483
▁다운	-10.3485
▁찾아보	-10.3486
낭	-10.3487
렵	-10.3491
▁분들은	-10.3493
닫	-10.3495
J	-10.3496
▁강렬한	-10.3496
▁빵빵	-10.3497
▁집착	-10.3498
▁돋보이는	-10.3499
분만에	-10.3501
▁웃으면서	-10.3502
할만한	-10.3503
져요	-10.3512
▁당연	-10.3515
▁배역	-10.3516
제로	-10.3518
집어	-10.3521
▁변화	-10.3523
일듯	-10.3523
기억이	-10.3524
재미도	-10.3525
▁소설을	-10.353
겨운	-10.3531
▁시간만	-10.3531
▁둘이	-10.3532
▁보다는	-10.3544
▁없었음	-10.3548
느껴	-10.3549
▁다루	-10.3549
▁교훈을	-10.3551
▁본인	-10.3552
▁잔잔하면서	-10.3554
▁별로고	-10.357
언제	-10.3572
▁없냐	-10.3577
말아먹	-10.3578
▁재밌어서	-10.358
,,,,,,	-10.3591
당한	-10.3605
▁L	-10.3612
▁의미가	-10.3614
▁귀엽다	-10.3615
▁짧은	-10.3615
▁볼때	-10.3615
▁안봐도	-10.3619
스럽지	-10.3629
▁하길래	-10.363
▁멋졌	-10.3638
▁임팩트	-10.3655
▁줍니다	-10.3655
▁뱀파이어	-10.3655
▁싸우는	-10.3656
▁처절	-10.3661
▁어째	-10.3664
▁있었는데	-10.3665
▁여자주인공	-10.3667
혹은	-10.3667
학년	-10.3668
▁하늘	-10.3669
로드	-10.367
▁좋겠네요	-10.3673
▁내용과	-10.3675
지마세요	-10.3676
인물	-10.3677
이랄까	-10.3683
▁불편한	-10.369
▁보다니	-10.3692
▁대단하	-10.3693
▁책을	-10.3695
옆	-10.3699
▁명장면	-10.3702
▁난잡	-10.3702
▁폐	-10.3704
될듯	-10.3706
야겠다	-10.3708
▁흑인	-10.3708
잊	-10.3712
썼	-10.3712
벗	-10.3713
▁호구	-10.3715
드만	-10.3715
▁한국판	-10.3716
▁참신하	-10.372
▁매미	-10.3721
차원	-10.3722
▁살린	-10.3737
재미있어요	-10.3738
낚	-10.374
~~^^	-10.374
보인다	-10.3743
소름	-10.3747
▁볼만했다	-10.3749
할것	-10.3758
▁듣고	-10.3768
해야할	-10.3779
스토	-10.3779
▁짜증만	-10.3794
발연기	-10.38
할뿐	-10.3802
뿐이다	-10.3805
역사	-10.3811
▁몽	-10.3812
랙	-10.3816
갱	-10.3816
닼	-10.3816
▁아닙니다	-10.3816
▁할리우드	-10.3816
찐	-10.3816
▁홍상수	-10.3816
▁뭥미	-10.3816
▁유일하게	-10.3816
▁꽤나	-10.3818
▁감정이입	-10.3818
▁첫사랑	-10.3823
▁저평가	-10.3823
▁허술한	-10.3824
▁이상해	-10.3826
▁두번째	-10.3827
▁조잡	-10.3828
▁쉽지	-10.3832
였나	-10.3833
▁생긴	-10.3834
▁본듯	-10.3843
▁60	-10.3847
▁흑	-10.3847
▁부모님	-10.3848
어색	-10.385
ch	-10.385
▁몰랐다	-10.3852
살인	-10.3852
▁감독을	-10.3854
▁가정	-10.3857
▁자체는	-10.3858
▁바다	-10.3858
었을까	-10.386
▁짜증이	-10.3863
▁없나요	-10.3865
▁답답하고	-10.3867
▁점수는	-10.3869
▁믿기지	-10.3874
존나	-10.3874
도대체	-10.3885
▁안간다	-10.3886
▁멋지고	-10.389
▁잔잔하	-10.3899
▁쩔어	-10.3902
상황	-10.3906
했을때	-10.3911
▁하나로	-10.3911
들끼리	-10.3913
▁마음으로	-10.3915
▁발상	-10.3918
▁재미있는데	-10.3924
▁맛이	-10.3928
공주	-10.3929
▁받는	-10.3931
▁추리	-10.3943
었는지	-10.3945
▁유치해	-10.3946
▁배우들은	-10.395
▁포스터만	-10.3951
않음	-10.3952
▁반전을	-10.3954
▁주제를	-10.3962
▁스릴도	-10.3966
싶다	-10.3966
▁생기	-10.397
▁돈을	-10.3977
맴	-10.398
짤	-10.398
뭣	-10.398
앨	-10.398
욤	-10.398
부끄럽	-10.398
덩어리	-10.398
▁아놀드	-10.398
▁영환데	-10.3981
▁사랑해	-10.3998
후반	-10.4
as	-10.4001
▁성격	-10.4002
▁않나	-10.4002
▁대놓고	-10.4003
굿굿굿	-10.4006
▁하지원	-10.4009
▁영화라니	-10.4009
▁살아가는	-10.4009
두고	-10.4014
이딴	-10.4021
▁강한	-10.4022
번을	-10.403
▁아깝네	-10.4035
▁폐지	-10.4042
▁F	-10.4046
쓰는	-10.4047
낮은	-10.4054
귀엽	-10.4056
▁소재도	-10.4057
불쌍	-10.4059
짱짱	-10.4064
▁보라	-10.4065
▁음식	-10.4087
극장에서	-10.4092
▁재미없을	-10.4094
▁낮게	-10.4094
▁그만큼	-10.41
▁보는거	-10.4105
▁무섭지	-10.4107
▁관점	-10.4107
▁어른이	-10.4108
▁아쉬움이	-10.4109
▁세번	-10.4113
▁감동받	-10.4114
▁어울리는	-10.4115
바라	-10.4115
▁보기에는	-10.4121
▁순수함	-10.4133
꼈	-10.4146
삭	-10.4146
웟	-10.4147
탱	-10.4147
▁우뢰매	-10.4147
▁짐캐리	-10.4147
땀	-10.4147
럭	-10.4147
깃	-10.4147
▁깡패	-10.4147
▁이소룡	-10.4147
▁희대의	-10.4147
▁플롯	-10.4147
▁하정우	-10.4147
▁바랍니다	-10.4149
▁흐르는	-10.4149
▁끼워	-10.4154
▁다운받	-10.4156
▁근래	-10.4158
아아아	-10.4158
줄알았는데	-10.4162
▁첨엔	-10.4163
▁괜찮았는데	-10.4165
▁중독	-10.4166
▁인해	-10.4171
만족	-10.4172
▁영화예요	-10.4176
▁애매	-10.4177
▁생각으로	-10.4177
..............	-10.4181
▁머리가	-10.4183
멋있	-10.4183
▁아냐	-10.4186
이런류의	-10.4191
▁거리	-10.4194
▁봉	-10.4197
봐야지	-10.4197
90	-10.4205
▁반대	-10.4208
같지만	-10.4218
▁연인	-10.4219
▁매일	-10.4222
▁잼있음	-10.4225
▁충분	-10.4228
춤	-10.4231
분위기	-10.4233
코믹	-10.4233
▁소년	-10.4235
느끼	-10.4239
▁있으	-10.4244
재미없어	-10.4245
방식	-10.4245
▁받은	-10.4246
든지	-10.4249
라는걸	-10.4251
▁엉망이	-10.4253
▁많은데	-10.4259
▁재밋음	-10.426
게만드는	-10.4266
▁보던	-10.4273
▁:)	-10.4273
거죠	-10.4274
▁포스터에	-10.4278
▁봅니다	-10.4282
▁그럴듯	-10.4287
▁무섭고	-10.4292
▁나네요	-10.4299
▁실화를	-10.4306
▁괜찮았다	-10.4309
너무너무	-10.4312
▁힘내	-10.4313
납	-10.4313
쿵	-10.4316
퓨	-10.4316
ᄡ	-10.4316
▁터미네이터	-10.4316
얄	-10.4316
켄	-10.4316
컴	-10.4316
▁제시카	-10.4316
▁즐겨	-10.4316
▁of	-10.4317
▁뭐하자는	-10.4318
▁귀여움	-10.4318
▁명대사	-10.4319
▁배경음악	-10.432
해주고	-10.4321
▁은근히	-10.4322
미친	-10.4323
▁돈내고	-10.4324
▁그야말로	-10.4327
▁디워	-10.4329
▁주인공은	-10.4331
▁손에	-10.4336
▁불쌍한	-10.4339
▁방식	-10.434
▁인형	-10.4342
▁무료	-10.4343
▁어거지	-10.4346
▁결말을	-10.4349
보긴	-10.4352
▁정신병자	-10.4353
있지	-10.4361
▁작가님	-10.4362
▁세상이	-10.4367
볼수있	-10.4369
▁꿀	-10.4371
이었습니다	-10.4374
▁느껴지	-10.4374
▁짜증나서	-10.4377
▁때려	-10.4378
▁좋네	-10.4395
숨	-10.4396
▁대본	-10.4405
섬	-10.4408
▁떨어지고	-10.4413
엄청	-10.4413
없구	-10.4418
좋아하	-10.4424
▁여주인공이	-10.4424
▁저급	-10.4427
▁사상	-10.4429
▁아니지	-10.444
점부터	-10.4441
깝	-10.4451
▁여주가	-10.4452
보고있어요	-10.4452
여운	-10.4454
므	-10.4456
나왓	-10.446
▁위해서	-10.4462
▁알겠다	-10.4465
에대해	-10.4475
아닌가	-10.4476
▁ᄃᄃᄃ	-10.448
▁고등학교	-10.4489
▁대통령	-10.4489
▁명불허전	-10.4489
▁쓸데없이	-10.4489
▁아무생각없이	-10.4489
젖	-10.4489
▁아내	-10.4489
▁익숙	-10.4489
▁정우성	-10.4489
▁정신없	-10.449
▁폭풍	-10.4491
▁평균	-10.4492
▁자아	-10.4493
▁모른다	-10.4493
▁알았네	-10.4494
▁루즈	-10.4495
▁좋앗	-10.4496
▁당연히	-10.4496
▁싶었다	-10.4497
▁없으면	-10.4497
▁현실과	-10.4497
▁사라지	-10.4497
▁아닐	-10.4498
▁그건	-10.4501
▁볼만합니다	-10.4503
▁거품	-10.4504
▁이름이	-10.4506
사건	-10.4506
분동안	-10.4507
최고다	-10.4507
▁짜증남	-10.4509
▁주제가	-10.4511
▁부분도	-10.4511
앞에서	-10.4511
▁보고싶어	-10.4512
▁혹시나	-10.4517
봣다	-10.4521
▁공감할	-10.4523
▁독일	-10.4525
▁아름답게	-10.4526
▁원조	-10.4531
▁말자	-10.4533
▁우연	-10.4534
먹은	-10.4536
장면은	-10.4544
작이라	-10.4546
▁손발	-10.4551
보고싶어요	-10.4564
▁별하나	-10.4565
▁아래	-10.4569
▁이해할수	-10.4583
궁	-10.4587
탑	-10.459
아직도	-10.4593
재미있다	-10.4601
노답	-10.4603
▁목적	-10.4604
▁정도면	-10.4606
th	-10.4611
▁쩌는	-10.4627
▁배경이	-10.4631
하겠다	-10.4633
겠죠	-10.4634
싫어	-10.4647
▁아예	-10.465
▁보게된	-10.4656
쩜	-10.4659
▁예수	-10.4661
왔어요	-10.4662
뚝	-10.4664
ᅢ	-10.4664
뢰	-10.4664
똘	-10.4664
뻥	-10.4664
읍	-10.4664
▁빨갱이	-10.4664
▁짜집기	-10.4664
▁이토록	-10.4664
▁스포츠	-10.4664
▁반드시	-10.4664
보느니	-10.4665
▁배꼽	-10.4667
▁착각	-10.4667
▁하다가	-10.4667
부분은	-10.4668
▁응원	-10.4669
▁여러번	-10.4671
▁추격	-10.4677
▁내용전개	-10.4681
찾아	-10.4684
질질끌	-10.4687
▁하품	-10.4688
거든	-10.4689
▁한개도	-10.4697
▁도망	-10.4698
80	-10.4701
▁쓰는	-10.4702
▁높아서	-10.4709
좋네요	-10.471
미국	-10.4711
!!!!!!!!!!!!	-10.4714
둥이	-10.4715
내용은	-10.4716
▁이상하고	-10.4716
스톤	-10.4719
▁키스	-10.472
▁본건데	-10.472
▁영상미가	-10.4732
▁심각하	-10.474
▁봐야지	-10.474
있으면	-10.4744
▁못보겠다	-10.4744
▁어처구니	-10.475
당시	-10.4755
왠	-10.4776
나름	-10.4778
▁부부	-10.4778
들이랑	-10.4778
▁삶이	-10.4779
▁만들어주	-10.4787
▁장난아니	-10.4792
▁그립	-10.4793
▁허무한	-10.4793
델	-10.4803
외로	-10.4805
행복	-10.4806
혼자	-10.4807
▁자리	-10.481
있었다	-10.4812
▁살리	-10.482
▁멋있는	-10.4823
모자	-10.4825
듯하다	-10.4828
ᄍ	-10.483
윈	-10.4831
뭐냐	-10.4831
현실적	-10.4831
뻔했다	-10.4836
▁당신은	-10.4836
뷰	-10.4841
▁설득력	-10.4843
곱	-10.4843
쟈	-10.4843
쫓	-10.4843
▁나레이션	-10.4843
▁박중훈	-10.4843
▁드디어	-10.4843
▁양아치	-10.4843
▁블랙코미디	-10.4844
▁맞춰	-10.4846
▁이것보단	-10.4847
▁장난하냐	-10.4848
▁만화책	-10.485
답니다	-10.4851
▁어디가	-10.4851
▁자신이	-10.4854
▁만들었을까	-10.4854
▁아만다	-10.486
보여주	-10.4863
▁즐겁	-10.4864
▁부담	-10.4873
▁울면서	-10.4876
올라	-10.4878
▁시작부터	-10.4879
▁재밌었던	-10.4883
햇는데	-10.4886
▁생각했는데	-10.489
▁몰라	-10.4894
▁영원한	-10.4899
▁재난	-10.49
▁않았지만	-10.4905
▁좋을듯	-10.4909
▁답답해	-10.491
시원	-10.4912
▁감동적이네요	-10.4913
께요	-10.4917
흑	-10.4919
▁생에	-10.4923
▁아프다	-10.4925
▁눈물나	-10.4931
▁가능한	-10.4931
▁가수	-10.4932
하시길	-10.4933
▁등장인물	-10.4939
▁생각할	-10.4942
광구	-10.4948
~~~~~~	-10.4951
멍	-10.496
꿀	-10.4961
▁철학적	-10.4961
아버지	-10.4964
톤	-10.4968
목소리	-10.4972
▁황당한	-10.4973
▁자신을	-10.4974
500	-10.4974
마냥	-10.4974
▁작품입니다	-10.4978
▁명배우	-10.4979
같아요	-10.4987
▁난리	-10.4997
지루하다	-10.5021
풋풋	-10.5021
하는건지	-10.5023
▁케릭터	-10.5024
랴	-10.5024
▁유덕화	-10.5024
▁박진감	-10.5025
▁우려먹	-10.5025
▁이해불가	-10.5025
▁떨어짐	-10.5025
▁도무지	-10.5025
듭니다	-10.5025
▁소중함을	-10.5026
▁니콜	-10.5027
▁빠른	-10.5029
▁아무런	-10.5031
▁흘리	-10.5031
▁영화였음	-10.5032
▁향수	-10.5033
▁폭발	-10.5034
▁아진짜	-10.5034
아이들	-10.5036
▁봤다면	-10.5042
없나	-10.5051
▁안보는게	-10.5057
▁잔잔하게	-10.5061
▁생각난다	-10.5064
▁ᄒᄒᄒᄒ	-10.5067
꺼야	-10.5076
소녀	-10.5077
간만에	-10.5077
▁진한	-10.5077
▁따뜻해	-10.5079
▁다신	-10.5079
▁아깝네요	-10.5087
▁옷	-10.509
▁ᄒᄃᄃ	-10.5092
▁끝날때	-10.5095
보기싫	-10.5096
빼	-10.5097
▁여자애	-10.5105
놨네	-10.5108
▁소화	-10.5111
▁배신	-10.5112
▁아우	-10.5113
▁밤에	-10.512
▁목소리가	-10.5147
받을	-10.5157
캐스팅	-10.5158
있어요	-10.5167
▁갖다	-10.5186
▁감정이	-10.5191
▁매력에	-10.5197
▁역사를	-10.5198
▁박수	-10.5199
▁웰메이드	-10.521
띠	-10.521
및	-10.521
밧	-10.521
표정	-10.521
알아	-10.5211
괜찬	-10.5212
▁앞뒤	-10.5213
▁축구	-10.5214
▁장애인	-10.5216
▁어우	-10.5218
▁만들어낸	-10.5224
▁억지감동	-10.5225
▁동양	-10.5229
▁100%	-10.5231
▁보려	-10.5234
외엔	-10.5235
아까운영화	-10.5235
귀신	-10.5235
갈때	-10.5237
▁to	-10.524
못하는	-10.5242
▁비슷하	-10.5245
지루하고	-10.5248
▁화나	-10.5248
▁스토리전개	-10.5248
▁친구가	-10.5249
빠진	-10.5254
▁욕심	-10.5258
▁예술영화	-10.5266
▁얼굴이	-10.5268
▁사랑스럽다	-10.5269
▁볼려고	-10.5271
▁기대없이	-10.5273
▁최악의영화	-10.5274
▁확인	-10.5274
▁사랑합니다	-10.5278
도좋고	-10.5279
▁책으로	-10.528
▁왜곡	-10.5289
▁넘치	-10.529
지루해	-10.5293
▁말하고자	-10.5294
맞는	-10.5298
▁이딴영화	-10.5299
▁전편보다	-10.5301
▁보이지	-10.5303
▁안될	-10.5308
▁명연기	-10.5317
▁다시보고	-10.5322
만큼이나	-10.5324
하니까	-10.5325
▁적당한	-10.5326
40	-10.5329
▁추천하고	-10.533
▁거기에	-10.5332
▁미국식	-10.5333
▁후에	-10.5337
▁액션과	-10.5338
주기도	-10.5339
▁지겹	-10.5341
ce	-10.5342
것보다	-10.5347
뻔함	-10.5348
▁장진	-10.5351
벤	-10.5352
TV	-10.5356
못하겠	-10.5358
▁혹시	-10.537
▁가고	-10.5372
▁초등학교	-10.5392
▁자극적	-10.5393
랍	-10.5395
되요	-10.5395
젊	-10.5395
측	-10.5396
▁스타워즈	-10.5398
▁살렸다	-10.5398
▁브루스	-10.5398
▁공짜로	-10.5398
▁향연	-10.5399
▁왠만한	-10.5401
▁풋풋한	-10.5401
유쾌하게	-10.5401
했다면	-10.5403
못한	-10.5405
▁로빈	-10.5405
▁깨알	-10.5406
▁따름	-10.5407
▁2000	-10.5409
▁에효	-10.5409
▁상영관	-10.5409
▁어느정도	-10.5412
조연	-10.5413
▁재미있었습니다	-10.5413
것같은데	-10.5413
▁마지막까지	-10.5414
▁담겨	-10.5415
▁이해를	-10.5417
▁꼭보세요	-10.5417
▁마니	-10.5418
티가	-10.542
▁무겁	-10.5421
▁귀여워요	-10.5423
▁보았는데	-10.5423
맘에	-10.5423
▁재미있었음	-10.5429
▁친구랑	-10.5431
▁국가	-10.5436
▁평화	-10.5445
▁기대하지	-10.5449
▁알았음	-10.5449
▁소름끼치는	-10.545
▁그렇지만	-10.5455
▁유치해서	-10.5457
▁내돈	-10.5464
▁아니었다	-10.5468
▁말밖에	-10.5468
▁운명	-10.5469
스릴	-10.5472
였지	-10.5478
편까지	-10.5482
뭐지	-10.5483
▁타란티노	-10.5488
▁중심	-10.5488
▁표현할	-10.5489
놈들은	-10.549
▁끝나서	-10.5496
▁정작	-10.5497
겐	-10.5508
▁깔끔한	-10.551
▁놀랍	-10.5524
▁어색하고	-10.5531
▁대학	-10.5531
▁않으	-10.5534
신분	-10.5534
▁어디로	-10.5536
▁없게	-10.5543
▁파리	-10.5547
늙	-10.5549
▁빛을	-10.5551
핵	-10.5553
나왔으면	-10.5554
▁희망을	-10.5555
▁시도는	-10.5555
▁아들이	-10.5562
선택	-10.5563
▁기적	-10.5568
젼	-10.559
윌	-10.5591
▁네티즌	-10.5591
닭	-10.5591
스파이더맨	-10.5591
▁명복을	-10.5591
▁첩보	-10.5591
▁즐길	-10.5591
▁스타뎀	-10.5591
▁무엇인가	-10.5591
▁역겨운	-10.5592
잖아요	-10.5592
▁내일	-10.5594
▁실험	-10.5594
▁적어도	-10.5598
▁판단	-10.5601
▁마시길	-10.5602
▁요새	-10.5603
▁짜증나고	-10.5604
▁개콘	-10.5604
▁서울	-10.5604
▁찾을	-10.5606
▁잘못된	-10.561
▁마약	-10.5612
▁보시면	-10.5614
▁만들었나	-10.5616
▁사람이라면	-10.5616
▁미안하다	-10.5617
▁울었어요	-10.5617
▁다행이다	-10.5618
▁슬픈영화	-10.5618
▁괜찮았음	-10.562
▁재미있었는데	-10.5624
겠는데	-10.5624
▁만들어서	-10.5626
▁있었으면	-10.5628
▁수많은	-10.5629
▁순수하고	-10.5629
▁보았던	-10.5633
▁인간은	-10.5634
순위	-10.5636
▁절정	-10.5637
▁많아서	-10.5637
힘들	-10.5638
광고	-10.5647
▁첨이다	-10.5652
▁넘넘	-10.5653
ri	-10.5654
재밋다	-10.567
▁뭐여	-10.5671
▁보고나니	-10.5671
▁고어	-10.5682
터짐	-10.5683
~~~~~	-10.5688
▁실수	-10.5693
▁잼있네요	-10.5693
▁잘만들었다	-10.5697
셔야	-10.5704
▁않은데	-10.5704
▁화끈	-10.5712
▁괜찮게	-10.5721
멜	-10.5725
선수	-10.5734
▁김치	-10.5739
보내	-10.5745
싫다	-10.5746
▁찍는	-10.5763
▁설정이	-10.5766
바람	-10.5769
▁안본다	-10.5774
▁장난치	-10.5774
슷	-10.5781
픽	-10.5782
보신분들	-10.5785
덩	-10.5787
멈	-10.5787
쯔	-10.5787
셋	-10.5787
퀄	-10.5787
▁movie	-10.5787
▁류승범	-10.5787
걷	-10.5787
버렸네	-10.5787
븐	-10.5787
인상깊었	-10.5787
켰	-10.5787
▁화장실	-10.5787
▁가까운	-10.5787
▁씁쓸하	-10.5787
쯧쯧	-10.5787
▁하이틴	-10.5787
▁누군지	-10.5787
▁오글오글	-10.5787
것같네요	-10.5787
▁엽기	-10.5788
▁심지어	-10.5788
▁흑백	-10.5789
▁어설프다	-10.5789
▁낭만	-10.5789
▁4.44	-10.579
부분에서	-10.579
▁좋았을텐데	-10.579
▁오래전에	-10.5791
▁할아버지	-10.5792
▁일부러	-10.5793
▁감동적이에요	-10.5794
전혀	-10.5795
▁귀여	-10.5795
▁재미없었	-10.5795
▁낫겠다	-10.5795
▁개똥	-10.5803
자마자	-10.5806
▁장난하나	-10.5807
▁아파	-10.5811
시간동안	-10.5812
▁처음에는	-10.5816
▁마지막엔	-10.5817
▁담긴	-10.5818
▁기존	-10.5819
으려고	-10.582
▁웃었다	-10.5823
하나하나가	-10.5824
▁나을듯	-10.5827
점만점에	-10.5832
▁실감	-10.5833
▁괜찮고	-10.5834
긴했지만	-10.584
▁뭐임	-10.5858
am	-10.5872
등록	-10.5877
답게	-10.5878
것처럼	-10.5881
곳에	-10.5882
해줄	-10.5884
▁실망스럽	-10.589
▁두시간	-10.5898
천원	-10.59
▁편안	-10.5908
상영	-10.5922
▁가득한	-10.5924
▁만난	-10.5926
15	-10.5928
50	-10.5938
▁인상적인	-10.5939
▁사랑한다	-10.5952
▁찍고	-10.596
꼽	-10.5962
해지고	-10.5963
시나리오	-10.5967
픔	-10.5968
곳에서	-10.5982
엽	-10.5983
▁늑대	-10.5987
팍	-10.5987
▁감명깊게	-10.5987
눌	-10.5987
렐	-10.5987
뱀	-10.5987
츄	-10.5987
껀	-10.5987
넬	-10.5987
툭	-10.5987
▁신하균	-10.5987
▁전반적으로	-10.5987
▁도데체	-10.5987
▁박보영	-10.5987
▁Good	-10.5987
▁한효주	-10.5987
▁불가능	-10.5987
▁혐오	-10.5987
▁흥미로웠	-10.5987
▁환경	-10.5988
누님	-10.5989
▁말그대로	-10.5993
▁그림체	-10.5995
▁일본인	-10.5996
▁고독	-10.5998
▁현실감	-10.6002
제대로	-10.6008
▁액션신	-10.6013
▁조낸	-10.6014
▁치유	-10.6024
▁유행	-10.6025
▁언제까지	-10.6033
▁맞나	-10.6034
ve	-10.6035
▁공간	-10.6036
▁사람들에게	-10.604
▁그동안	-10.6042
▁위트	-10.6043
▁어이없다	-10.6044
▁생명	-10.6048
그러나	-10.6049
하지말고	-10.605
▁기대이하	-10.6059
에비해	-10.6062
▁프랑스영화	-10.6074
▁잠시	-10.608
▁모르겠네	-10.6082
▁어울리지	-10.6083
당시엔	-10.6099
▁소장하고	-10.6109
▁놓치	-10.6115
▁죽었	-10.6115
▁찾아서	-10.6118
▁열라	-10.6135
ma	-10.6138
줘야지	-10.6142
▁재미없네요	-10.6149
못하고	-10.616
▁한방	-10.6163
여배우	-10.6172
꿈	-10.6176
갖	-10.6177
폴	-10.6178
그렇게	-10.6179
CG	-10.618
소재와	-10.6184
sh	-10.6184
갠	-10.6188
퉁	-10.6191
렀	-10.6191
숀	-10.6191
▁알파치노	-10.6191
쉐	-10.6191
▁놀랐다	-10.6191
▁못봐주겠	-10.6191
▁빕니다	-10.6191
▁오프닝	-10.6191
▁흡입력	-10.6191
헉	-10.6191
쇄	-10.6191
▁언젠가	-10.6191
▁자동차	-10.6191
▁적절한	-10.6191
▁호기심	-10.6191
▁배급사	-10.6191
▁일주일	-10.6191
▁케빈	-10.6191
▁민폐	-10.6192
▁스파이	-10.6193
▁짜릿	-10.6193
▁예측	-10.6193
▁그려낸	-10.6194
▁픽사	-10.6194
▁생각해보게	-10.6195
할줄	-10.6199
였네요	-10.6201
▁부활	-10.6203
▁은근	-10.6205
▁말아야	-10.6206
ᄀᄀ	-10.6207
▁거북	-10.6207
▁승리	-10.6207
▁말하려는	-10.6209
▁여친	-10.6209
되네	-10.6213
▁신선함	-10.6215
▁살인마	-10.6216
▁재능	-10.6217
▁유럽	-10.6219
▁모르지만	-10.622
▁심한	-10.6221
▁탄탄하고	-10.6221
▁답답하다	-10.6229
재밋음	-10.6235
▁녹아	-10.6238
줘요	-10.6241
있지만	-10.6249
보임	-10.625
▁시작해서	-10.6268
▁다르게	-10.6274
▁코믹영화	-10.6277
▁볼것	-10.6287
▁등장인물들	-10.6288
▁충분한	-10.6293
▁빠지는	-10.6297
▁벗어	-10.6299
였다면	-10.6299
▁이거보다	-10.6318
▁짝이	-10.6328
▁만들다	-10.6335
▁돼지	-10.6336
^^;	-10.6345
비추	-10.6345
▁느낌이다	-10.6346
▁대신	-10.6359
▁정상	-10.637
ed	-10.6378
▁괜찮아	-10.639
녀석	-10.6395
평론가	-10.6395
훌륭	-10.6396
▁영원	-10.6398
뭉	-10.6399
▁EBS	-10.6399
▁송강호	-10.6399
▁유치찬란	-10.6399
랩	-10.6399
쩍	-10.6399
템	-10.6399
▁아름다워	-10.6399
▁왕조현	-10.6399
샌	-10.6399
오랫동안	-10.6399
▁강동원	-10.6399
▁이끌어	-10.6399
▁목숨	-10.64
▁극혐	-10.6401
▁죄송	-10.6401
▁고딩	-10.6405
살때	-10.6405
또보고싶	-10.6407
엇음	-10.6408
▁등등	-10.6408
▁절망	-10.6409
허무	-10.6413
있을까	-10.6413
▁로망	-10.6415
▁여태	-10.6418
▁첨부터	-10.6425
겼다	-10.643
앞으로	-10.6431
ᄃᄃᄃ	-10.6434
▁망할	-10.6434
▁가족애	-10.6435
돈주고	-10.6437
▁궁금해서	-10.644
▁역겹다	-10.6441
▁어이없음	-10.6447
봣어요	-10.6449
▁숨은	-10.645
▁웃겼다	-10.6457
▁마지막회	-10.6462
▁좋아하지만	-10.6467
▁모르겠네요	-10.6468
재밋엇	-10.6471
▁뭐라고	-10.6477
능력	-10.6489
▁넣어	-10.6496
▁무섭게	-10.6497
사실	-10.6503
▁벗어나	-10.6504
▁좋지	-10.6511
▁엉성하	-10.6513
ro	-10.6529
▁캐리	-10.653
▁만화영화	-10.6531
볼까	-10.6536
▁의사	-10.6538
좀비	-10.6549
둥	-10.655
대전	-10.6552
▁여신	-10.656
▁필요한가	-10.6568
▁만들어졌	-10.6585
▁이만한	-10.6593
▁잘생겼	-10.6598
법한	-10.66
▁미소가	-10.6603
▁나무	-10.6607
▁2.22	-10.6612
▁둘째치고	-10.6612
▁오그라드는	-10.6612
릇	-10.6612
몫	-10.6612
쉴	-10.6612
▁쓸데없는	-10.6612
▁아기자기	-10.6612
퉤	-10.6612
▁이병헌	-10.6612
▁임창정	-10.6612
▁어두운	-10.6612
▁무거운	-10.6612
▁닥치고	-10.6612
▁삭제	-10.6612
▁기발한	-10.6612
▁격투	-10.6613
▁킬러	-10.6613
▁상큼	-10.6614
▁끌고	-10.6615
▁로맨틱코미디	-10.6615
쩝	-10.6617
코메디	-10.6619
뭘	-10.6619
▁앉아	-10.6619
▁좋으나	-10.662
명성에	-10.6623
▁감동적입니다	-10.6623
▁충분하다	-10.6626
▁떨어져	-10.6629
▁개꿀잼	-10.663
월드	-10.6632
▁거지같은	-10.6636
▁흥분	-10.6636
보지마라	-10.6647
브리	-10.6651
▁보고싶은데	-10.6651
▁낮은지	-10.6655
▁역사상	-10.6656
였구나	-10.6656
▁유발	-10.6658
▁독특하고	-10.6659
점주기도	-10.6661
▁연기잘하	-10.6661
드립	-10.6664
▁만들어라	-10.6679
▁삶과	-10.6682
▁빠져서	-10.6682
▁반영	-10.6688
ost	-10.6692
있네요	-10.6694
▁이거보단	-10.6697
▁뛰어넘는	-10.6707
만드나	-10.6709
▁최고최고	-10.6716
해줘서	-10.6725
아니면	-10.6726
▁아니잖아	-10.6726
▁잘한다	-10.6728
났음	-10.6736
▁짜증나게	-10.6737
▁마시	-10.6741
▁상대	-10.6741
▁별로였다	-10.6749
▁대사들	-10.675
겠어	-10.6759
되길	-10.6765
▁달려	-10.6777
▁상어	-10.6779
거에요	-10.6783
▁의지	-10.6786
▁대박이다	-10.6796
▁김정	-10.68
▁도시	-10.6816
앉	-10.6822
덴	-10.6829
빗	-10.6829
▁점수준것들	-10.6829
▁컴퓨터	-10.6829
둠	-10.6829
옳	-10.6829
▁미스캐스팅	-10.6829
▁시간때우기	-10.6829
곽	-10.6829
룰	-10.6829
캡	-10.6829
▁김혜수	-10.6829
어울림	-10.683
점준것중	-10.683
▁is	-10.683
마누라	-10.683
▁상관없	-10.683
▁ᄌᄂ	-10.6831
▁혁명	-10.6831
▁위험	-10.6834
흑흑	-10.6834
▁빛나는	-10.6834
▁제외하	-10.6835
un	-10.6836
▁진지한	-10.6837
▁부탁	-10.6838
▁극복	-10.6838
▁재앙	-10.6839
▁중학생	-10.6842
▁태국	-10.6843
지겨워	-10.6844
동시에	-10.6848
▁귀여웠	-10.6848
▁한심하다	-10.6852
▁속았다	-10.6853
▁괜찮았던	-10.6854
▁이번에	-10.6867
므로	-10.6871
▁최고에요	-10.6878
▁완벽하다	-10.6879
▁미녀	-10.688
특집	-10.6889
▁잃었	-10.6895
좋은데	-10.6902
▁괜찮네요	-10.6902
▁잊고	-10.6902
▁마음속	-10.6908
지않게	-10.6916
었구나	-10.6925
▁배경으로	-10.6928
하겠습니다	-10.6931
▁때리	-10.6931
신분들	-10.6945
편집	-10.6946
▁어쩌다	-10.6955
->	-10.6961
멋잇	-10.6961
삼류	-10.6961
▁나와야	-10.6965
▁피해	-10.6969
▁처음이네	-10.6975
▁웃겼	-10.6978
▁새벽	-10.6991
▁낚인	-10.6993
▁후하게	-10.6995
▁의상	-10.6995
▁부정	-10.6997
곳이	-10.6999
망작	-10.701
▁들어간	-10.7015
돌려	-10.7022
▁전문	-10.7038
맞음	-10.7041
당신	-10.7044
퀸	-10.7051
뜸	-10.7051
▁인터넷	-10.7051
듦	-10.7051
킴	-10.7051
됫	-10.7051
밉	-10.7051
▁여러모로	-10.7051
▁섬세한	-10.7051
▁칭찬	-10.7052
드려요	-10.7052
▁완젼	-10.7052
▁2012	-10.7055
페이스	-10.7058
▁서양	-10.7059
▁엄청나게	-10.7059
▁동영상	-10.706
▁상징	-10.7061
▁라스트	-10.7061
▁이도저도	-10.7063
▁짱이다	-10.7063
▁드림	-10.7066
▁되는데	-10.7071
▁답답함	-10.7072
낭비	-10.7074
▁초반부	-10.7079
로맨스	-10.7081
학년때	-10.7083
립니다	-10.7086
▁강추합니다	-10.7086
▁충격적인	-10.7087
경찰	-10.7091
▁부족함	-10.7092
▁멋져	-10.7093
▁무엇이	-10.7093
il	-10.7095
▁산만하고	-10.7097
▁인디	-10.7109
각본	-10.7115
하는구나	-10.7121
답다	-10.7131
▁밋밋한	-10.7135
▁아이유	-10.7137
▁여인	-10.7139
▁한번더	-10.7144
▁선사	-10.7152
▁있긴	-10.716
▁불안	-10.7166
믿고	-10.7173
▁형편없는	-10.7176
▁빠졌	-10.7177
▁절로	-10.718
하고싶다	-10.7186
▁하드	-10.7187
극히	-10.7187
▁자극적인	-10.7189
▁이것보다	-10.7196
▁전설이	-10.7197
중국	-10.7198
구먼	-10.7216
▁옆에	-10.7216
것같아	-10.7218
▁사용	-10.7223
▁가야	-10.7227
av	-10.723
▁흉내	-10.725
▁비쥬얼	-10.7279
▁시종일관	-10.7279
▁어정쩡	-10.7279
덮	-10.7279
렴	-10.7279
쏴	-10.7279
엮	-10.7279
캠	-10.7279
핫	-10.7279
▁짬뽕	-10.7279
셜	-10.7279
▁되돌아	-10.7279
▁리얼리티	-10.7279
▁김수현	-10.7279
▁섬뜩	-10.7279
▁아쉬울	-10.7279
▁두고두고	-10.7279
▁바탕으로	-10.7279
▁도둑	-10.7282
▁레옹	-10.7282
▁역량	-10.7282
▁풀어낸	-10.7282
틀리	-10.7283
▁방황	-10.7284
▁묘한	-10.7289
▁좋겠습니다	-10.7291
▁전체적인	-10.7293
▁심심하	-10.7294
▁느껴지지	-10.7294
▁옛날영화	-10.7294
합시다	-10.7297
▁역작	-10.7302
▁놀란	-10.7303
▁보고있는데	-10.731
▁다운받아서	-10.7312
잭	-10.7316
개인적으로	-10.7317
초딩	-10.7322
▁주온	-10.7323
▁보라고	-10.7326
▁평소	-10.7327
예술	-10.733
▁사랑스럽고	-10.7331
▁공유	-10.7332
▁부산	-10.7332
하자면	-10.7333
▁멋지게	-10.7334
▁십점	-10.7336
결국	-10.7341
▁원하는	-10.7343
겠는가	-10.7344
▁드네요	-10.7349
아닌데	-10.7353
아무리	-10.7356
구역	-10.7364
▁건질	-10.7368
▁스릴러물	-10.7371
이후로	-10.7376
▁결론은	-10.7379
▁티비로	-10.7384
▁욕먹	-10.7385
▁머야	-10.7394
▁여배우들	-10.7396
안된다	-10.7396
복수	-10.7398
▁팬들	-10.7406
밖	-10.7413
외에는	-10.7418
그저	-10.7431
효과	-10.7434
하거나	-10.7438
▁싫어하는	-10.744
▁기대했	-10.7452
▁가시	-10.7456
▁이딴거	-10.7457
▁믿어	-10.747
▁정신병	-10.7474
▁뻔하다	-10.7483
한국영화	-10.7501
차별	-10.7505
▁개봉당시	-10.7509
▁애니매이션	-10.7511
렛	-10.7511
▁디카프리오	-10.7511
겻	-10.7511
▁컨셉	-10.7511
뻑	-10.7511
▁원숭이	-10.7511
▁원피스	-10.7511
▁비호감	-10.7511
▁드니로	-10.7511
▁몽환적	-10.7512
▁수면제	-10.7512
싶은데	-10.7512
▁에라이	-10.7515
▁고뇌	-10.7515
▁케미	-10.7516
▁잃은	-10.7518
▁알려주는	-10.7518
▁재탕	-10.7519
습니까	-10.7531
▁단순히	-10.7533
▁모욕	-10.7534
▁진지하게	-10.7535
▁최후	-10.7536
▁싶었던	-10.7544
프로그램	-10.756
오랜만에	-10.7561
▁-_-;;	-10.7566
병맛	-10.7568
▁빠져들게	-10.7571
▁않아요	-10.7572
▁준비	-10.7574
▁한시간	-10.7582
재밋어요	-10.7585
▁소유	-10.7586
▁아까워서	-10.759
속으로	-10.7594
▁그리워	-10.7598
▁군인	-10.7603
▁화끈한	-10.7605
se	-10.7605
멋진	-10.7611
물론	-10.7618
▁낮네요	-10.7626
다시보고싶	-10.7627
▁가히	-10.7627
좋겠다	-10.7663
▁심하다	-10.7667
▁감동입니다	-10.7674
▁구분	-10.7675
▁이상하다	-10.7681
▁액션물	-10.7682
졌음	-10.7682
▁좋더라	-10.7709
▁다시보기	-10.7716
▁정체	-10.7729
▁중년	-10.7733
밋	-10.7743
딜	-10.7744
하실	-10.7745
뎀	-10.7749
▁킬링	-10.7749
뿜	-10.7749
▁가볍지	-10.7749
▁밝혀	-10.7749
▁테이큰	-10.7749
뚫	-10.7749
렘	-10.7749
뤄	-10.7749
옮	-10.7749
좆	-10.7749
튜	-10.7749
홈	-10.7749
훼	-10.7749
▁그냥저냥	-10.7749
▁잊지못할	-10.7749
▁클래식	-10.7749
▁감성팔이	-10.7749
▁묵직	-10.7749
▁피아노	-10.7749
▁비행기	-10.775
▁컬트	-10.775
▁거부감	-10.775
▁환장	-10.7752
▁말이필요없다	-10.7754
▁공룡	-10.7754
▁잔잔함	-10.7754
▁난해한	-10.7754
▁자연스러운	-10.7755
▁멋짐	-10.7756
▁내취향	-10.7759
▁아쉬워요	-10.7759
▁실사	-10.7764
▁반갑	-10.7765
▁못하겠다	-10.7767
▁또라이	-10.7768
▁멋져요	-10.7769
▁감동적임	-10.7772
분짜리	-10.7773
▁우왕	-10.7774
▁마법	-10.7777
▁가짜	-10.7779
▁말인가	-10.778
▁흉내내	-10.778
▁아이들에게	-10.7786
▁망쳐놓	-10.7789
▁책임	-10.7794
▁한동안	-10.7796
▁화질	-10.7803
주었다	-10.7805
샘	-10.7808
덕분에	-10.7809
칼	-10.781
킬링타임	-10.781
나오는거	-10.7811
댓글	-10.7812
▁꼭봐야	-10.7813
범죄	-10.7814
▁조잡한	-10.7816
▁웃겨서	-10.7817
그럼	-10.7821
▁지금보면	-10.7824
할수없는	-10.7834
▁되야	-10.7836
지못한	-10.7845
▁머냐	-10.7845
까봐	-10.7851
ᄒᄒᄒᄒᄒ	-10.7851
▁매주	-10.7851
▁기대했던	-10.7854
좋아하는데	-10.7856
여주인공	-10.7857
▁나한테	-10.7866
▁천사	-10.7868
▁있었음	-10.7871
▁만들려	-10.7877
실화	-10.7881
해놓고	-10.7885
▁다시봤는데	-10.7886
교회	-10.7905
역할	-10.7909
높아	-10.7933
▁끝날	-10.7949
▁공감되	-10.7951
▁무협영화	-10.7958
▁살아야	-10.7972
먹었	-10.7984
▁일깨워	-10.7991
▁허허	-10.7991
켓	-10.7993
펜	-10.7993
▁뒤늦게	-10.7993
▁뒤죽박죽	-10.7993
▁송승헌	-10.7993
▁안타까움	-10.7993
▁영웅본색	-10.7993
꽁	-10.7993
뺏	-10.7993
썬	-10.7993
썸	-10.7993
왈	-10.7993
팩	-10.7993
▁엄정화	-10.7993
늬	-10.7993
▁김희선	-10.7993
▁왕가위	-10.7993
▁no	-10.7994
▁자연스럽게	-10.7995
▁치밀하	-10.7996
▁크리스찬	-10.7996
▁전성기	-10.7996
><	-10.7997
▁극단적	-10.7997
▁슈퍼맨	-10.7997
▁돌아보게	-10.7998
-.-	-10.8001
▁살리지	-10.8002
남긴다	-10.8003
▁만약	-10.8003
▁혼란	-10.8005
▁같았다	-10.8008
▁늙어	-10.8011
▁동화같은	-10.8014
▁기억난다	-10.8019
▁나올까	-10.8024
▁재밌었습니다	-10.8026
▁미스터리	-10.8026
▁않았던	-10.8056
끝내	-10.8061
멀	-10.8066
시청률	-10.8066
더럽게	-10.8068
▁만났	-10.8071
cg	-10.8077
▁좋구	-10.8078
▁불쌍하	-10.808
보지마세요	-10.8081
:)	-10.8088
▁잔인함	-10.8093
버그	-10.8094
부르	-10.8095
ter	-10.8099
보고나서	-10.8114
▁최고인듯	-10.8119
▁세상에서	-10.8138
하길래	-10.8142
▁당황	-10.8151
재미있음	-10.8157
▁베일	-10.8159
순수	-10.8186
▁알게되	-10.8197
▁야하지도	-10.8205
챙	-10.8241
혐	-10.8241
믄	-10.8243
▁고등학생	-10.8243
▁포켓몬	-10.8243
덧	-10.8243
▁움직이	-10.8243
톡	-10.8243
▁설경구	-10.8243
▁머릿속	-10.8243
▁가슴아프	-10.8243
▁드래곤볼	-10.8243
▁데뷔작	-10.8243
예뻐서	-10.8243
▁흠잡을	-10.8243
▁봐줄만	-10.8244
▁후속편	-10.8244
▁엠마	-10.8244
▁걱정	-10.8244
▁러셀	-10.8244
▁무간도	-10.8244
▁귀찮	-10.8245
▁그럴싸	-10.8245
▁호흡	-10.8248
▁섬세하	-10.8248
▁각색	-10.825
▁거기다	-10.825
▁억지스런	-10.825
▁개그맨	-10.8251
▁권력	-10.8251
▁닮았	-10.8253
▁욕나온다	-10.8254
▁보여줄	-10.8258
▁시간아까워	-10.826
웃겼음	-10.8264
▁무슨말이	-10.8267
▁감동적이었다	-10.827
▁흥미롭지	-10.8271
▁만드냐	-10.8273
▁단점	-10.8275
날때	-10.8276
▁다시보게	-10.8277
▁귀여워서	-10.8279
▁의미있는	-10.8279
▁마블	-10.8279
▁웃다가	-10.8284
▁불쌍해서	-10.8284
▁보고싶네요	-10.8291
▁제대로된	-10.8304
▁강간	-10.8306
ie	-10.8314
죽이고	-10.8327
무서운	-10.833
옛날	-10.8331
▁훈훈하고	-10.8331
그나마	-10.8331
무서워	-10.8331
년간	-10.8336
▁맛있	-10.8337
▁브레	-10.8343
▁토니	-10.8352
▁쩌네	-10.8354
웃긴	-10.8365
영활	-10.8369
el	-10.8376
큼	-10.8383
같애	-10.8384
very	-10.8386
원주고	-10.8389
그대로	-10.8389
▁알게된	-10.839
▁뛰어넘	-10.8391
▁소개	-10.8392
나왔음	-10.8393
있었는데	-10.8416
충격	-10.8419
해야하나	-10.8422
실력	-10.8429
▁없을까	-10.8436
▁OOOO	-10.8438
▁본듯한	-10.8449
자꾸	-10.8449
▁막판	-10.8476
18	-10.849
어설프	-10.8494
▁캐릭	-10.8499
▁엔딩크레딧	-10.85
▁호불호가	-10.85
셧	-10.85
▁아마추어	-10.85
▁한석규	-10.85
짙	-10.85
▁김민종	-10.85
▁팝콘	-10.85
▁고마워	-10.85
▁최민수	-10.85
▁다니엘	-10.85
▁흥미롭게	-10.8501
▁택시	-10.8501
중에서도	-10.8501
땜시	-10.8503
▁늙은	-10.8503
▁승부	-10.8503
▁절묘	-10.8503
▁파격적	-10.8504
2005	-10.8506
▁직업	-10.8506
밴드	-10.8506
▁낮추	-10.8507
▁과학	-10.8511
▁모자라	-10.8517
▁봐야한다	-10.8518
▁존잼	-10.8523
▁아깝습니다	-10.8525
▁보는동안	-10.8534
나봐요	-10.8535
▁대결	-10.8538
▁알바생	-10.8541
▁상당	-10.8542
▁비록	-10.8544
▁있어보이	-10.8544
▁찍으	-10.8549
▁레오	-10.8552
할정도로	-10.8552
흥미롭	-10.8553
▁이은주	-10.8553
▁공연	-10.8555
▁대역	-10.8555
▁있으나	-10.856
▁모방	-10.8564
엇어요	-10.8566
느냐	-10.8567
▁채워	-10.8568
▁사람에게	-10.8579
▁당장	-10.8581
▁편하게	-10.8585
▁봐주	-10.8598
귀여워	-10.8599
잘봤습니다	-10.86
아름다운	-10.8601
▁언어	-10.8602
궁금	-10.8604
철학	-10.8611
폭력	-10.8613
▁명작이네요	-10.8616
검사	-10.8618
▁논리	-10.8629
▁커버	-10.8633
▁불쌍해	-10.8651
▁만세	-10.8657
▁만들었으면	-10.8666
▁넘어서	-10.8679
드릴	-10.8688
알바들	-10.8708
la	-10.8713
▁조연들	-10.8718
것같음	-10.8722
▁잊혀	-10.8759
랍니다	-10.8763
뎁	-10.8763
ᄊ	-10.8763
▁군더더기	-10.8763
▁박찬욱	-10.8763
▁에드워드	-10.8763
▁오그라들	-10.8763
▁즐거움	-10.8763
▁흘렸	-10.8763
뜯	-10.8763
숲	-10.8763
턱	-10.8763
혔	-10.8763
▁키아누	-10.8763
팝	-10.8763
밨	-10.8763
▁스페인	-10.8763
▁지저분	-10.8763
▁나머진	-10.8763
▁손색이	-10.8763
▁완죤	-10.8763
▁총체적	-10.8764
▁어설프게	-10.8764
▁새삼	-10.8768
창있네	-10.8769
▁안성기	-10.8769
vs	-10.877
▁국산	-10.8772
깐	-10.8778
▁지루했음	-10.8779
▁흘러가는	-10.8779
▁환상적인	-10.878
▁불법	-10.8781
▁세계관	-10.8782
▁초반엔	-10.8784
▁말씀	-10.8784
▁에로물	-10.8785
▁재미나게	-10.8786
▁처음본다	-10.8791
▁채우	-10.8792
줄알고	-10.8794
▁향한	-10.8799
▁소통	-10.8799
▁매번	-10.8801
▁작화	-10.8808
▁재방	-10.8811
▁잼나요	-10.8812
▁인류	-10.8815
▁학생들	-10.8816
많은것을	-10.8816
▁분장	-10.8827
▁또봐도	-10.8827
▁정석	-10.883
보니깐	-10.883
▁커서	-10.8832
▁우린	-10.8838
▁말았다	-10.884
▁제작자	-10.8857
id	-10.8874
첫	-10.8878
애니메이션	-10.8879
얼마나	-10.8879
▁재수없	-10.8884
▁나왔던	-10.8885
tv	-10.8888
▁벌어	-10.8892
저런	-10.8898
▁기억남	-10.891
올린	-10.8912
걸린	-10.8913
좋겠	-10.8917
▁가능성	-10.8918
▁go	-10.8924
▁각자	-10.8925
ᄃᄃᄃᄃ	-10.893
ᄍᄍᄍ	-10.8967
▁미안해	-10.8974
▁범죄자	-10.8998
점만점	-10.9015
야말로	-10.9019
뗄	-10.9027
둑	-10.903
킥	-10.9033
▁니콜라스	-10.9033
밍	-10.9033
▁겨울왕국	-10.9033
^_^	-10.9033
ᄐ	-10.9033
▁소피마르소	-10.9033
▁크레딧	-10.9033
랏	-10.9033
얀	-10.9033
▁어설퍼	-10.9033
삘	-10.9033
▁권상우	-10.9033
▁데이빗	-10.9033
습니당	-10.9033
▁마찬가지	-10.9033
▁최민식	-10.9033
▁박평식	-10.9033
▁떡밥	-10.9033
▁어딘가	-10.9033
▁농담	-10.9033
▁클라스	-10.9033
생겨서	-10.9034
▁워낙	-10.9034
▁흑역사	-10.9034
밖엔	-10.9037
할게요	-10.9042
▁꺼져	-10.9045
▁시험	-10.9047
▁실패작	-10.9049
▁영광	-10.9052
▁유령	-10.9054
▁모독	-10.9055
▁잔잔하지만	-10.9056
▁빠질	-10.9057
▁던져	-10.9067
▁재미없었음	-10.9067
▁식상하다	-10.9068
질질끄	-10.9068
▁우승	-10.9076
▁나오다니	-10.9076
▁필요없음	-10.9079
▁울림	-10.9082
▁어쩌면	-10.9086
▁있기	-10.9087
▁인연	-10.909
▁만든건지	-10.9092
회부터	-10.9093
▁네이버평점	-10.9096
▁받아야	-10.9109
▁않습니다	-10.9109
▁안가는	-10.9111
있었던	-10.9133
▁정체성	-10.9136
셨으면	-10.9137
▁엘리	-10.9144
투성이	-10.9147
com	-10.9162
썩	-10.9163
판타지	-10.9166
고싶었	-10.9174
나와라	-10.9199
엉성	-10.9216
즐겁고	-10.9229
▁극중	-10.9229
올려	-10.924
▁빠르	-10.9293
▁미스터	-10.9294
▁굳굳	-10.9308
훌	-10.9311
▁도라에몽	-10.9311
▁과대평가	-10.9311
▁스필버그	-10.9311
▁슬펐다	-10.9311
▁시끄럽	-10.9311
▁엑스맨	-10.9311
궈	-10.9311
륵	-10.9311
칫	-10.9311
팽	-10.9311
****	-10.9311
▁구혜선	-10.9311
▁차태현	-10.9311
끓	-10.9311
▁객관적	-10.9311
▁손예진	-10.9311
헨	-10.9311
▁한쿡영화	-10.9311
▁멈추	-10.9311
▁히어로물	-10.9312
▁온갖	-10.9312
파이팅	-10.9313
▁슬퍼요	-10.9313
징그러	-10.9315
▁첫번째	-10.9315
보기엔	-10.9316
▁분량	-10.9317
▁돈낭비	-10.9317
▁람보	-10.9317
▁재방송	-10.9321
▁여태까지	-10.9323
▁사이코	-10.9323
▁발랄	-10.9323
▁오글거려서	-10.9324
▁시골	-10.9325
▁간직	-10.9326
▁피곤	-10.9326
▁독립	-10.933
▁재밌기만	-10.9332
▁고증	-10.9335
▁아쉬웠지만	-10.9339
▁못따라	-10.934
▁경계	-10.9346
▁모양	-10.9351
누구	-10.9359
▁없애	-10.9359
▁성형	-10.936
▁어디까지	-10.9366
▁기대된다	-10.9366
▁미학	-10.9372
▁해외	-10.9392
▁변신	-10.9417
ss	-10.942
-_	-10.9441
달라고	-10.9457
쫌	-10.9457
짧	-10.9457
왜이래	-10.9457
촬영	-10.9459
마무리	-10.9459
암튼	-10.9462
모르겠다	-10.948
성룡	-10.948
평생	-10.9491
노출	-10.9495
▁어울리	-10.9528
▁알아야	-10.9535
것인지	-10.9554
▁깨닫	-10.9566
♡♡	-10.9581
▁중학교	-10.9581
▁오랜	-10.9582
냄	-10.9595
삽	-10.9596
▁best	-10.9597
▁러브라인	-10.9597
앜	-10.9597
잣	-10.9597
▁미스테리	-10.9597
▁세련된	-10.9597
▁심리묘사	-10.9597
▁이탈리아	-10.9597
☆	-10.9597
겄	-10.9597
봤을땐	-10.9597
뼈	-10.9597
쌓	-10.9597
졋	-10.9597
▁김태희	-10.9597
탁월한	-10.9597
▁레이첼	-10.9597
▁깜놀	-10.9597
▁엽문	-10.9597
▁아바타	-10.9597
▁페이크	-10.9597
▁외로움	-10.9597
▁의외의	-10.9597
▁젊음	-10.9597
▁7.5	-10.9598
▁민족	-10.96
▁죽기전에	-10.9601
▁짱짱맨	-10.9602
▁과장된	-10.9606
▁철저	-10.9608
▁복수극	-10.9609
♡♡♡	-10.961
▁중반부터	-10.9611
점도아깝다	-10.9616
될까	-10.9618
▁경악	-10.9618
▁어렸을적	-10.9622
▁백배	-10.9623
▁돈아깝다	-10.9623
▁적극	-10.9625
▁모순	-10.9625
▁카피	-10.9626
▁힘들었다	-10.9626
▁미술	-10.9628
▁되었습니다	-10.963
▁지옥	-10.9634
사람마다	-10.9645
심각	-10.9668
낚였	-10.9683
▁다시보고싶은	-10.9684
보여서	-10.9686
작렬	-10.969
▁형식	-10.9711
▁풀어내	-10.9722
123	-10.9738
특유의	-10.9761
했었다	-10.9761
우리나라	-10.9765
네이버	-10.9766
하지않고	-10.977
다시봐도	-10.9776
영웅	-10.9781
않았다	-10.979
남매	-10.9801
▁산만하	-10.9804
▁소름끼치	-10.981
▁없으니	-10.9864
룬	-10.9872
댓	-10.9889
봇	-10.9889
Y	-10.9891
윽	-10.9891
▁굉장한	-10.9891
▁드림웍스	-10.9891
▁러브스토리	-10.9891
▁어쨌든	-10.9891
▁엉터리	-10.9891
▁트랜스포머	-10.9891
욬	-10.9891
▁이것저것	-10.9891
쉣	-10.9891
푼	-10.9891
▁사무라이	-10.9891
▁황정민	-10.9891
▁나루토	-10.9891
▁윌리스	-10.9891
▁정주행	-10.9891
▁장동건	-10.9891
▁펼쳐	-10.9891
▁다세포소녀	-10.9891
▁2004	-10.9891
뜨거운	-10.9891
▁2003	-10.9891
▁틀림없	-10.9891
▁콜린	-10.9891
▁스킵	-10.9892
▁거기서	-10.9892
▁쏘우	-10.9892
ᄂᄂ	-10.9894
▁말아먹은	-10.9895
어지럽	-10.9896
▁퇴보	-10.99
▁서극	-10.9903
▁커피	-10.9905
십니다	-10.9905
▁공허	-10.9905
▁소품	-10.9911
▁노튼	-10.9913
▁복선	-10.9916
▁적당하다	-10.9922
▁더욱더	-10.9923
▁드물	-10.9929
▁회상	-10.9929
▁나은듯	-10.993
▁향기	-10.9951
▁로마	-10.9951
▁잼없음	-10.9952
▁짜증났	-10.9972
오직	-11.0012
▁스릴감	-11.0038
팬이라	-11.0065
취향	-11.0066
그래픽	-11.0074
때메	-11.0075
결혼	-11.0078
▁낚였네	-11.0082
보고싶은	-11.0082
힘든	-11.0082
어떤	-11.0085
중딩	-11.0085
만들엇	-11.0087
유쾌	-11.009
▁망쳐	-11.0144
▁시간아깝	-11.0151
재미잇	-11.0163
▁다음편	-11.0183
흉	-11.0193
풋	-11.0193
드래곤	-11.0194
뚜	-11.0194
뱅	-11.0194
썰	-11.0194
탠	-11.0194
↓	-11.0194
▁런닝타임	-11.0194
▁신데렐라	-11.0194
▁윌리엄	-11.0194
▁인상깊게	-11.0194
녁	-11.0194
릉	-11.0194
펠	-11.0194
훗	-11.0194
▁엉망진창	-11.0194
▁원주율	-11.0194
▁국어책	-11.0194
▁다이하드	-11.0194
▁웬만하면	-11.0194
▁더더욱	-11.0194
▁어차피	-11.0194
▁오우삼	-11.0194
떄문에	-11.0194
찜찜	-11.0194
스러울	-11.0194
▁불후의	-11.0194
▁납치	-11.0194
▁전지현	-11.0194
▁심오한	-11.0195
▁미친듯이	-11.0195
▁사기꾼	-11.0195
▁8.5	-11.0195
▁거듭	-11.0196
▁증명	-11.0196
고싶지	-11.0197
▁2015	-11.0197
▁색채	-11.0197
▁담담하	-11.0201
▁생존	-11.0204
▁웃으며	-11.0204
▁197	-11.0204
▁지브리	-11.0207
▁허탈	-11.0211
▁볼만해요	-11.0211
▁운동	-11.0212
▁마틴	-11.0215
▁울었습니다	-11.0226
▁볼만했는데	-11.0232
▁소소하	-11.0236
▁훈훈하	-11.0242
▁뒤집	-11.0243
싶을때	-11.026
▁다가오	-11.0283
바탕	-11.0288
지않을	-11.0318
넘치는	-11.0365
옷	-11.0393
깎	-11.0394
선생님	-11.0394
▁따뜻함	-11.0397
ᄉᄇ	-11.04
배틀	-11.0414
몇번	-11.0437
봣습니다	-11.0492
뜩	-11.0505
▁ebs	-11.0506
▁톰크루즈	-11.0506
웰	-11.0506
▁아이언맨	-11.0506
▁파워레인저	-11.0506
▁펭귄	-11.0506
▁학창시절	-11.0506
꺄	-11.0506
넷	-11.0506
줫	-11.0506
▁양동근	-11.0506
▁가슴아픈	-11.0506
▁불면증	-11.0506
▁아프리카	-11.0506
▁색다르	-11.0506
▁어떠한	-11.0506
▁픽션	-11.0506
▁오페라	-11.0506
▁임청하	-11.0506
▁ᄇᄉ	-11.0506
▁뉴욕	-11.0506
▁엉엉	-11.0507
▁보낸다	-11.0507
것같습니다	-11.0507
▁모자란	-11.0507
▁솔까	-11.0507
▁감수성	-11.0507
기승전	-11.0507
▁끊임없	-11.0507
짱짱짱	-11.0508
▁전도연	-11.0508
귀요미	-11.0508
▁사라져	-11.0508
▁돋보인다	-11.0508
▁증말	-11.0509
▁보여줌	-11.0509
배속으로	-11.051
왜이럼	-11.0514
▁이민기	-11.0514
▁초등학교때	-11.0516
▁패션	-11.0516
▁태양	-11.0519
▁지루했어요	-11.0519
▁제정신	-11.052
▁반응	-11.0522
▁드문	-11.0522
▁출발	-11.0524
▁중간부터	-11.0525
▁음향	-11.0527
▁원표	-11.053
▁대실망	-11.0531
▁남자라면	-11.0532
▁느껴질	-11.0534
▁터지는	-11.0545
▁도통	-11.0551
▁터져	-11.0554
CGV	-11.0577
▁질리지않	-11.0597
▁데려다	-11.0634
었을텐데	-11.0679
▁재미있었던	-11.069
▁환상적이	-11.0723
톰	-11.0727
시간낭비	-11.0734
볼때마다	-11.0741
흥미를	-11.0752
필요없	-11.0752
▁역겹	-11.0768
대단히	-11.0786
▁태어나	-11.0811
믹	-11.0825
영환줄	-11.0826
낌	-11.0827
긍	-11.0829
넼	-11.0829
릅	-11.0829
▁카메론	-11.0829
▁말았어야	-11.0829
▁미야자키	-11.0829
▁일베충	-11.0829
▁흐지부지	-11.0829
뎌	-11.0829
룸	-11.0829
▁재발견	-11.0829
텅	-11.0829
▁간간히	-11.0829
▁깨달음	-11.0829
▁고마운	-11.0829
▁김명민	-11.0829
▁납득	-11.0829
▁여기저기	-11.0829
▁조승우	-11.0829
▁하이킥	-11.0829
▁찬사를	-11.0829
▁큐브	-11.0829
▁작위적이	-11.0829
▁성유리	-11.0829
▁거슬리	-11.0829
▁일어날	-11.083
▁더럽다	-11.083
▁잃어버린	-11.0831
깁니다	-11.0831
▁일깨워주는	-11.0832
▁강아지	-11.0832
▁눈요기	-11.0832
▁사라진	-11.0833
안쓰는데	-11.0833
▁가끔씩	-11.0833
▁담백하	-11.0834
▁그지같은	-11.0835
▁감동적이었습니다	-11.0835
▁모르겟다	-11.0836
▁잃어	-11.0839
▁존경합니다	-11.0839
▁에릭	-11.0841
였으나	-11.0842
▁좋아하시는	-11.0842
▁절실	-11.0842
▁고인의	-11.0843
▁있겠지만	-11.0843
▁요약	-11.0844
▁좋아한다면	-11.0844
▁치료	-11.0845
▁번역	-11.0846
▁총알	-11.0849
▁뭐랄까	-11.0849
▁알려준	-11.0852
영화관에서	-11.0852
이건뭐	-11.0861
▁중학교때	-11.0863
▁고문	-11.087
▁늙었	-11.0872
▁머리속	-11.0889
볼걸	-11.0898
역활	-11.0901
▁볼거없	-11.0906
삶은	-11.0945
▁만날	-11.0947
ever	-11.0974
▁초중반	-11.0977
재밋게봣	-11.1007
페이지	-11.1046
▁198	-11.1049
느와르	-11.1074
좋았음	-11.1074
한마디로	-11.1074
완벽	-11.1078
아이돌	-11.1084
이쁘다	-11.1084
▁wa	-11.1125
알수있	-11.1139
즌	-11.1146
첩	-11.116
쯧	-11.1162
옵	-11.1162
▁ocn	-11.1162
핳	-11.1162
▁임권택	-11.1162
▁팀버튼	-11.1162
▁프레디	-11.1162
人	-11.1162
갇	-11.1162
긔	-11.1162
뉘	-11.1162
딕	-11.1162
썻	-11.1162
웩	-11.1162
잎	-11.1162
재밌게봤습니다	-11.1162
ᅦ	-11.1162
▁끝판왕	-11.1162
▁다크나이트	-11.1162
▁서프라이즈	-11.1162
겸	-11.1162
엌	-11.1162
▁송지효	-11.1162
▁스티브	-11.1162
▁싸이코패스	-11.1162
▁주상욱	-11.1162
▁달콤한	-11.1162
▁신세경	-11.1162
▁인디아나	-11.1162
▁평점조절	-11.1162
▁잘만들어진	-11.1162
▁아이러니	-11.1162
▁이연희	-11.1163
▁구역질	-11.1163
▁엑소	-11.1163
내놔	-11.1163
▁플레이	-11.1163
▁아까웠던	-11.1163
^.^	-11.1163
▁가까이	-11.1163
▁록키	-11.1164
▁압도적	-11.1165
▁경의를	-11.1166
▁어딜	-11.1169
▁잔인하기만	-11.117
▁지나친	-11.1171
▁역쉬	-11.1172
마인드	-11.1173
▁이나영	-11.1174
▁산만한	-11.1174
▁대표작	-11.1174
▁말이필요없는	-11.1176
▁몰락	-11.1178
▁케이지	-11.1181
▁신세계	-11.1182
▁신나게	-11.1183
헤헤	-11.1185
▁돌려줘	-11.1189
분들께	-11.1189
▁억지설정	-11.1205
▁사랑스럽	-11.1206
▁어린아이	-11.1219
영화자체는	-11.1237
재미가없	-11.1398
좋았어요	-11.1431
왜이리	-11.1436
이쁘고	-11.1437
낮아서	-11.144
중반부	-11.1478
뿔	-11.1498
펑	-11.1507
뷔	-11.1507
쿡	-11.1507
펼	-11.1507
셉	-11.1507
짬	-11.1507
▁송혜교	-11.1507
▁오그라든다	-11.1507
됴	-11.1507
Z	-11.1507
▁MBC	-11.1507
▁내러티브	-11.1507
▁매트릭스	-11.1507
▁묻어나는	-11.1507
▁스칼렛	-11.1507
곁	-11.1507
둬	-11.1507
벙	-11.1507
쏙	-11.1507
켈	-11.1507
▁클린트	-11.1507
▁환타지	-11.1507
헝	-11.1507
▁어둡고	-11.1507
▁애국심	-11.1507
▁2013	-11.1507
그나저나	-11.1507
▁조용히	-11.1507
▁영향을	-11.1507
▁함부로	-11.1507
▁ᄅᄋ	-11.1507
▁임수정	-11.1507
▁비정상	-11.1507
▁No	-11.1507
▁서부영화	-11.1508
▁일요일	-11.1508
▁그들만의	-11.1508
▁이범수	-11.1508
▁2001	-11.1508
▁다운로드	-11.1508
▁어울려	-11.1508
낙	-11.1799
깁	-11.1862
맷	-11.1864
샀	-11.1864
쏠	-11.1864
톨	-11.1864
펄	-11.1864
횽	-11.1864
훔	-11.1864
껍	-11.1864
됌	-11.1864
럿	-11.1864
펀	-11.1864
q	-11.1864
쇠	-11.1864
싫	-11.1933
쎄	-11.2233
끗	-11.2234
둡	-11.2234
쌩	-11.2234
빤	-11.2235
띵	-11.2235
밸	-11.2235
숫	-11.2235
콕	-11.2235
펴	-11.2235
#	-11.2235
샹	-11.2235
쵝	-11.2619
깡	-11.2619
ᄑ	-11.2619
흰	-11.2619
꿨	-11.2619
댐	-11.2619
묶	-11.2619
쉰	-11.2619
。	-11.2619
꽝	-11.3002
듀	-11.3019
꾹	-11.3019
댕	-11.3019
쫙	-11.3019
췄	-11.3019
흙	-11.3019
멕	-11.3019
핏	-11.3019
뱉	-11.3019
맙	-11.3436
W	-11.3436
ᅭ	-11.3436
뇨	-11.3436
륙	-11.3436
뺀	-11.3436
욜	-11.3436
칩	-11.3436
텀	-11.3436
햄	-11.3436
쑤	-11.3436
캬	-11.3436
낳	-11.3436
죤	-11.387
○	-11.3871
뻘	-11.3871
쌈	-11.3871
쌤	-11.3871
젓	-11.3871
댈	-11.3871
엎	-11.3871
욧	-11.3871
팡	-11.3871
룹	-11.3871
솟	-11.3871
쌔	-11.3871
캅	-11.3871
힛	-11.3871
넌	-11.389
꽤	-11.3893
밴	-11.4313
뀌	-11.4321
엣	-11.4325
탭	-11.4325
샬	-11.4325
췌	-11.4325
햐	-11.4325
ᆞ	-11.4325
탔	-11.4325
웬	-11.4367
률	-11.4801
괘	-11.4801
엥	-11.4801
눠	-11.4801
\	-11.4801
’	-11.4801
닦	-11.4801
쌀	-11.4801
썅	-11.4801
쨩	-11.4801
쪄	-11.4801
킷	-11.4801
[	-11.4867
짠	-11.4868
뭇	-11.53
떳	-11.5301
깬	-11.5301
밭	-11.5301
셸	-11.5301
·	-11.5301
깽	-11.5301
냅	-11.5301
뒀	-11.5301
썽	-11.5301
씌	-11.5301
앳	-11.5301
얕	-11.5301
얹	-11.5301
웁	-11.5301
퍽	-11.5301
ᅣ	-11.5301
끊	-11.5394
쩡	-11.5827
뭥	-11.5827
힝	-11.5828
얌	-11.5828
갤	-11.5828
굼	-11.5828
꺅	-11.5828
꽂	-11.5828
늠	-11.5828
뛴	-11.5828
롬	-11.5828
샷	-11.5828
젬	-11.5828
즉	-11.5828
켠	-11.5828
툰	-11.5828
낱	-11.5828
됀	-11.5828
싯	-11.5828
낄	-11.6382
륭	-11.6383
돠	-11.6383
욯	-11.6383
뎈	-11.6383
촉	-11.6383
꾀	-11.6383
몹	-11.6383
윙	-11.6383
쟝	-11.6383
짖	-11.6383
푹	-11.6538
훅	-11.6971
겜	-11.6971
꿋	-11.6971
쵸	-11.6971
乃	-11.6971
딥	-11.6971
땟	-11.6971
떴	-11.6971
붐	-11.6971
붓	-11.6971
씽	-11.6971
웡	-11.6971
뺴	-11.6971
얔	-11.6971
짭	-11.6971
헬	-11.7161
녹	-11.7161
훨	-11.7161
찜	-11.7596
ᅧ	-11.7596
뤽	-11.7596
뮬	-11.7596
뺐	-11.7596
샴	-11.7596
팜	-11.7596
갸	-11.7596
곸	-11.7596
댔	-11.7596
덥	-11.7596
룻	-11.7596
읎	-11.7596
좁	-11.7596
쿤	-11.7596
퀘	-11.7596
퀼	-11.7596
큘	-11.7596
핡	-11.7596
뭍	-11.7596
쁠	-11.7596
섰	-11.7596
댜	-11.7596
떤	-11.8235
캔	-11.8262
첼	-11.8263
셰	-11.8263
쉘	-11.8263
젝	-11.8263
힙	-11.8263
꿉	-11.8263
쑈	-11.8263
좃	-11.8263
챔	-11.8263
킁	-11.8263
Q	-11.8263
♬	-11.8263
겅	-11.8263
맡	-11.8543
듭	-11.897
걱	-11.8976
텍	-11.8977
無	-11.8977
쾅	-11.8977
“	-11.8977
뤘	-11.8977
믓	-11.8977
욘	-11.8977
”	-11.8977
뜰	-11.8977
밈	-11.8977
빔	-11.8977
빽	-11.8977
짚	-11.8977
캣	-11.8977
겔	-11.8977
슥	-11.8977
얻	-11.9313
헷	-11.9747
넝	-11.9747
얍	-11.9747
甲	-11.9747
걔	-11.9747
넥	-11.9747
맬	-11.9747
뱃	-11.9747
윗	-11.9747
훤	-11.9747
됏	-11.9747
뵈	-11.9747
잰	-11.9747
쪙	-11.9747
춥	-11.9747
휼	-11.9747
헛	-12.0146
쩐	-12.0515
촬	-12.0575
늑	-12.0578
|	-12.058
캄	-12.058
횡	-12.058
→	-12.058
꼐	-12.058
눅	-12.058
뵙	-12.058
숴	-12.058
욥	-12.058
홉	-12.058
융	-12.058
졷	-12.058
죵	-12.058
쨔	-12.058
찼	-12.058
쳇	-12.058
칵	-12.058
퉷	-12.058
퐁	-12.058
풉	-12.058
흣	-12.058
뤠	-12.058
벡	-12.058
텨	-12.058
꿰	-12.058
곀	-12.1489
끽	-12.1489
넉	-12.1489
슐	-12.1489
팰	-12.1489
굽	-12.1489
돔	-12.1489
뿅	-12.1489
잌	-12.1489
콥	-12.1489
헿	-12.1489
괄	-12.1489
냔	-12.1489
뎃	-12.1489
뷁	-12.1489
쏜	-12.1489
첸	-12.1489
뒷	-12.2056
땜	-12.2384
샵	-12.2489
ᄈ	-12.2489
死	-12.2489
깟	-12.2489
넴	-12.2489
닛	-12.2489
렜	-12.2489
멧	-12.2489
멱	-12.2489
볶	-12.2489
뿍	-12.2489
썹	-12.2489
쒯	-12.2489
쒸	-12.2489
쥑	-12.2489
콱	-12.2489
펭	-12.2489
헴	-12.2489
괸	-12.2489
뒈	-12.2489
쫘	-12.2489
쮸	-12.36
뻗	-12.36
}	-12.36
컵	-12.36
갘	-12.36
륨	-12.36
뿡	-12.36
컹	-12.36
큭	-12.36
{	-12.36
⌒	-12.36
꽈	-12.36
뇬	-12.36
읭	-12.36
쳣	-12.36
햅	-12.36
♪	-12.36
댁	-12.36
밓	-12.36
갚	-12.36
女	-12.36
킵	-12.4846
봅	-12.4847
컥	-12.4847
ン	-12.485
캘	-12.485
떙	-12.485
떵	-12.485
넛	-12.485
웹	-12.485
팟	-12.485
$	-12.485
ᆪ	-12.485
作	-12.485
넨	-12.485
뒹	-12.485
뭄	-12.485
믈	-12.485
벳	-12.485
섀	-12.485
쨰	-12.485
챦	-12.485
쿼	-12.485
딛	-12.485
줏	-12.485
쥰	-12.485
헥	-12.485
쎈	-12.485
냠	-12.485
낍	-12.485
쭝	-12.6279
팥	-12.6279
앰	-12.6279
갯	-12.6279
랖	-12.6279
뫼	-12.6279
챈	-12.6279
촤	-12.6279
캉	-12.6279
놧	-12.6279
롸	-12.6279
뤼	-12.6279
뮈	-12.6279
뺑	-12.6279
뽐	-12.6279
왁	-12.6279
읏	-12.6279
졉	-12.6279
찟	-12.6279
盧	-12.6279
궤	-12.6279
놉	-12.6279
벵	-12.6279
뺄	-12.6279
촐	-12.6279
팁	-12.6279
휙	-12.6279
녜	-12.6279
앟	-12.6279
홬	-12.6279
랔	-12.6279
옛	-12.7509
し	-12.7945
멌	-12.7945
샨	-12.7945
─	-12.7945
됄	-12.7945
룽	-12.7945
삥	-12.7945
슝	-12.7945
쌌	-12.7945
쎼	-12.7945
ᄄ	-12.7945
끙	-12.7945
몃	-12.7945
뽄	-12.7945
셩	-12.7945
옌	-12.7945
옼	-12.7945
찹	-12.7945
끅	-12.7945
숏	-12.7945
옄	-12.7945
웜	-12.7945
띨	-12.7945
잦	-12.7945
곘	-12.7945
빴	-12.7945
넙	-12.7945
먀	-12.7945
읊	-13.5626
뛸	-13.5627
덟	-13.5628
궂	-13.5629
굶	-13.563
̄	-13.5631
츈	-13.5632
촛	-13.5633
챤	-13.5634
쫀	-13.5635
짰	-13.5636
옅	-13.5637
벚	-13.5638
껌	-13.5639
훠	-13.564
햌	-13.5641
짘	-13.5642
죨	-13.5643
좔	-13.5644
윅	-13.5645
왘	-13.5646
썪	-13.5647
땔	-13.5648
뉜	-13.5649
냨	-13.565
꺠	-13.5651
故	-13.5652
쌉	-13.5653
숟	-13.5654
뀜	-13.5655
깼	-13.5656
괭	-13.5657
훑	-13.5658
툴	-13.5659
잴	-13.566
앍	-13.5661
샛	-13.5662
덱	-13.5663
껑	-13.5664
휠	-13.5665
홥	-13.5666
헠	-13.5667
츤	-13.5668
촘	-13.5669
쫑	-13.567
쁩	-13.5671
닠	-13.5672
뀔	-13.5673
휩	-13.5674
핥	-13.5675
폄	-13.5676
릎	-13.5677
꺾	-13.5678
긁	-13.5679
큽	-13.568
딪	-13.5681
괞	-13.5682
횟	-13.5683
쟤	-13.5684
옜	-13.5685
샐	-13.5686
뚤	-13.5687
쥔	-13.5688
멎	-13.5689
꺽	-13.569
굵	-13.5691
녔	-13.5692
낰	-13.5693
꼼	-13.5694
핍	-13.5695
슌	-13.5696
낡	-13.5697
펏	-13.5698
씻	-13.5699
‘	-13.57
돕	-13.5701
꽥	-13.5702
쫒	-13.5703
왼	-13.5704
닳	-13.5705
귓	-13.5706
쬐	-13.5707
뺨	-13.5708
픕	-13.5709
넓	-13.571
쿄	-13.5711
얽	-13.5712
쨋	-13.5713
딨	-13.5714
빚	-13.5715
넋	-13.5716
꼇	-13.5717
뀐	-13.5718
뭡	-13.5719
앓	-13.572
밟	-13.5721
멤	-13.5722
붉	-13.5723
꽉	-13.5724
솜	-13.5725
땠	-13.5726
홧	-13.5727
웍	-13.5728
귄	-13.5729
쭈	-13.573
핸	-13.5731
틋	-13.5732
컸	-13.5733
뻣	-13.5734
맺	-13.5735
맑	-13.5736
빕	-13.5737
찔	-13.5738
찢	-13.5739
겪	-13.574
쨌	-13.5741
팠	-13.5742
쫄	-13.5743
띄	-13.5744
틸	-13.5745
텝	-13.5746
닙	-13.5747
콧	-13.5748
껐	-13.5749
쏟	-13.575
딧	-13.5751
왤	-13.5752
뻤	-13.5753
꿔	-13.5754
튀	-13.5755
섞	-13.5756
펐	-13.5757
획	-13.5758
겉	-13.5759
밝	-13.576
줍	-13.5761
됩	-13.5762
쁨	-13.5763
늦	-13.5764
볍	-13.5765
찝	-13.5766
묻	-13.5767
굉	-13.5768
똑	-13.5769
읽	-13.577
랐	-13.5771
떻	-13.5772
깊	-13.5773
렸	-13.5774
렇	-13.5775
"	-13.5776
았	-13.5777
밌	-13.5778
퀀	-13.5779
봤	-13.5779
탤	-13.5779
