,	-2.97806
<s>	0
</s>	0
<unk>	0
.,	-3.14299
0	-3.41137
▁	-3.78049
.,1	-3.82332
.,2	-4.02587
요	-4.44109
을	-4.50673
?,	-4.53928
가	-4.56079
도	-4.72598
이	-4.93888
는	-4.96913
게	-5.02711
▁거예요	-5.03337
은	-5.07532
고	-5.16697
를	-5.19406
지	-5.27435
▁수	-5.42512
보세요	-5.45288
의	-5.46256
세요	-5.46607
네요	-5.48711
▁너무	-5.61717
.	-5.6685
▁좋아하는	-5.68703
▁거	-5.69223
서	-5.75854
▁것	-5.78535
한	-5.79742
▁사람	-5.80849
▁더	-5.83653
▁안	-5.83764
▁나	-5.8593
에	-5.91762
면	-5.9453
죠	-6.01775
봐요	-6.04909
▁잘	-6.07179
히	-6.10256
만	-6.12901
▁같아요	-6.15124
해보세요	-6.16174
▁사람이	-6.17724
랑	-6.19401
▁있어요	-6.20266
▁싶어	-6.21242
▁있을	-6.21669
▁게	-6.21917
으로	-6.24066
▁좀	-6.25466
로	-6.26971
나	-6.27343
▁없어	-6.27382
▁때	-6.30553
▁같아	-6.3309
▁많이	-6.37751
▁이별	-6.39038
▁썸	-6.39839
▁사랑	-6.40556
▁내	-6.4116
!,	-6.42993
하고	-6.44661
길	-6.4615
▁마세요	-6.46904
▁건	-6.49111
다	-6.49264
할	-6.53069
▁말	-6.53813
▁생각	-6.54218
네	-6.54655
▁다	-6.56329
▁있는	-6.60959
에서	-6.64293
▁마음	-6.64797
▁내가	-6.64914
▁해보세요	-6.6539
▁왜	-6.66883
좋은	-6.68323
▁있	-6.69215
일	-6.6956
▁좋은	-6.69596
이에요	-6.7273
▁남자친구	-6.73003
▁오늘	-6.73767
▁싶다	-6.74051
▁어떻게	-6.74676
▁그	-6.75868
그	-6.7968
잘	-6.81636
▁여자친구	-6.81831
어	-6.83759
▁있어	-6.84132
▁좋을	-6.85583
▁가	-6.86009
▁않아	-6.86095
▁수도	-6.86787
▁걸	-6.87045
하는	-6.87911
▁하는	-6.87925
겠어요	-6.88938
니다	-6.90251
▁연애	-6.90553
▁연락	-6.90659
▁뭐	-6.91167
▁해	-6.91458
▁다시	-6.93831
야	-6.94529
에요	-6.95383
▁여자	-6.96016
▁좋아	-6.96192
는데	-6.97618
▁이제	-6.97866
▁또	-6.98421
▁될	-6.98622
▁것도	-6.99455
으면	-6.99654
▁일	-6.99716
▁못	-7.00524
▁시간이	-7.00817
▁하고	-7.01411
▁친구	-7.01939
어요	-7.02282
기	-7.02512
하세요	-7.05273
▁자꾸	-7.06765
많이	-7.07266
▁할	-7.08223
인데	-7.09003
▁일이	-7.09558
사랑	-7.09575
▁바	-7.09725
년	-7.09924
▁정말	-7.10104
가봐요	-7.1204
▁바랄게요	-7.126
든	-7.12942
▁한	-7.13389
과	-7.13938
▁마음이	-7.14354
해	-7.15198
▁돼요	-7.15592
저	-7.15621
▁헤어진지	-7.16903
저도	-7.18689
는게	-7.19864
▁있을까	-7.20668
인	-7.21252
한테	-7.21785
▁만나	-7.21895
하지	-7.21967
▁아니	-7.223
거	-7.22554
▁없는	-7.22816
▁다른	-7.2364
하게	-7.2371
▁진짜	-7.24598
더	-7.25024
거예요	-7.25109
▁선물	-7.26465
▁이	-7.26738
▁될까	-7.27008
보다	-7.29451
▁좋아요	-7.29531
라	-7.3009
랍	-7.30134
▁힘들	-7.31079
▁짝녀	-7.31153
▁시간	-7.31963
▁살	-7.33269
▁남자	-7.33381
주세요	-7.33725
▁방법	-7.34504
▁없	-7.34977
▁좋죠	-7.35146
라고	-7.35455
▁드세요	-7.35549
니까	-7.35915
▁하나	-7.36035
데	-7.36339
▁먹고	-7.36887
하면	-7.37371
▁같이	-7.37705
운	-7.3775
▁하세요	-7.38915
제가	-7.39585
마음이	-7.40774
씩	-7.40824
던	-7.41115
▁조금	-7.41186
지금	-7.41307
▁사	-7.4136
마음	-7.42446
▁날	-7.43123
상	-7.43634
2	-7.43638
▁계속	-7.44029
▁하지	-7.44352
▁참	-7.44501
▁몰라	-7.4517
▁힘들어	-7.46297
니	-7.46308
▁혼자	-7.47128
당신	-7.47475
다고	-7.48265
그런	-7.48412
▁이야기	-7.48782
다른	-7.49222
▁중	-7.49245
나봐	-7.49386
▁생각해요	-7.49592
▁사랑이	-7.49663
▁전	-7.49728
▁준비	-7.49959
▁애	-7.52285
▁데이트	-7.52402
▁해요	-7.53145
▁생각해	-7.54165
자신	-7.54268
이제	-7.55521
▁있나	-7.5561
▁짝남이	-7.55614
▁줄	-7.55673
까	-7.55713
까지	-7.56819
해도	-7.56924
▁할까	-7.57275
지도	-7.58507
▁먼저	-7.58525
▁짝사랑	-7.59046
▁보세요	-7.59425
나를	-7.60183
봅니다	-7.60523
▁힘든	-7.60633
에게	-7.60706
▁들어	-7.61073
▁말해보세요	-7.61453
▁힘드네	-7.61471
▁술	-7.6157
▁보고	-7.626
대로	-7.63052
래	-7.63422
와	-7.64092
▁결혼	-7.64111
입니다	-7.65307
▁좋겠	-7.65573
지만	-7.6574
▁이렇게	-7.65904
▁짝남	-7.66075
▁너	-7.66349
▁싫어	-7.66403
예요	-7.66685
▁어떨까요	-7.67999
▁나만	-7.68164
해주세요	-7.6894
▁하	-7.69068
▁있는데	-7.69891
▁하면	-7.69928
서로	-7.7019
해요	-7.70409
▁듯	-7.70625
너무	-7.70814
▁좋겠어	-7.70886
▁3	-7.70941
▁그냥	-7.7128
▁후	-7.72215
대	-7.72285
심	-7.73169
했어	-7.73478
천	-7.73577
▁타는	-7.73907
▁돼	-7.74258
▁카톡	-7.74773
▁1	-7.74802
▁안돼	-7.75051
겠죠	-7.75649
진	-7.75719
▁눈	-7.75941
혼자	-7.7662
수	-7.76678
합니다	-7.76708
▁사람은	-7.77006
▁말고	-7.77435
▁헤어진	-7.77823
▁자신	-7.77825
▁주세요	-7.78089
▁2	-7.78921
항	-7.79088
▁아	-7.79219
생각	-7.79224
▁아무	-7.79768
자	-7.80191
▁하루	-7.80315
▁관심	-7.8096
▁싶은	-7.81062
▁해도	-7.81245
▁많아	-7.8199
사람	-7.82354
좋겠어요	-7.82741
질	-7.82986
른	-7.8323
▁만큼	-7.83397
▁따라	-7.83479
▁않는	-7.8354
▁같은데	-7.84013
▁곳	-7.84731
▁머리	-7.84939
▁많은	-7.84956
▁시작	-7.85317
▁올	-7.8547
▁저	-7.85483
긴	-7.8549
부터	-7.85685
▁감정	-7.85794
▁좋겠다	-7.86108
▁그럴	-7.86893
▁연락이	-7.87135
▁않	-7.87446
▁나한테	-7.87451
▁모르겠어	-7.87664
▁돈	-7.87757
▁알	-7.8789
할까	-7.87973
▁오래	-7.88276
▁친구가	-7.88317
▁가고	-7.88356
▁해야	-7.8846
▁사랑하는	-7.88806
▁바라요	-7.88945
▁찾아	-7.89496
▁만날	-7.89703
같이	-7.90545
▁쉬	-7.90581
▁보	-7.90694
▁도움	-7.90974
자고	-7.91127
▁않을	-7.91548
점	-7.91598
려	-7.91599
아	-7.92
▁그녀	-7.92512
금	-7.92738
▁반	-7.92926
▁이유	-7.93557
▁고민	-7.93933
▁함께	-7.93997
인지	-7.94414
조금	-7.94519
거라	-7.94545
?	-7.94555
건	-7.94891
▁지금	-7.94968
이죠	-7.9524
해서	-7.95404
▁여행	-7.95846
▁대화	-7.96303
충분	-7.96621
자기	-7.97345
▁무슨	-7.97924
주	-7.98357
▁생각이	-7.98549
거나	-7.98675
▁정리	-7.9924
좀	-7.99964
리	-8.00371
습니다	-8.00432
▁끝	-8.00685
제	-8.00705
그래	-8.00833
▁언제	-8.0167
▁고백	-8.02054
▁집	-8.0236
▁문제	-8.02695
이별	-8.03391
장	-8.0352
▁내일	-8.0354
▁되는	-8.03693
▁만들어	-8.04024
▁없네	-8.04039
면서	-8.04255
▁나는	-8.04374
▁알아	-8.04752
아직	-8.04875
▁좋을까	-8.05957
▁않은	-8.06008
▁있죠	-8.06048
정	-8.06157
그럴	-8.06179
아무	-8.0621
때	-8.06475
▁필요해	-8.067
▁공부	-8.06976
▁자	-8.07083
걸	-8.07161
▁와	-8.07699
안	-8.08184
▁결국	-8.08308
▁기억	-8.08818
▁전화	-8.08849
▁남	-8.09084
▁싶은데	-8.09179
다면	-8.0948
것도	-8.09556
▁당신	-8.09908
▁스트레스	-8.09975
▁그런	-8.10116
▁어디	-8.10242
▁가는	-8.10419
▁볼	-8.10898
만큼	-8.10963
▁때문에	-8.11078
간	-8.11454
▁꿈	-8.11658
기도	-8.11875
▁같은	-8.11922
대한	-8.11954
▁아니라	-8.12203
시간이	-8.12463
▁거라	-8.12513
적인	-8.12866
▁한달	-8.12914
▁되	-8.13054
▁우리	-8.13175
수록	-8.13381
▁아파	-8.13939
▁아직	-8.14183
▁믿어	-8.14303
려고	-8.14651
▁늦	-8.14837
함	-8.15125
▁어제	-8.15445
처럼	-8.1565
▁마	-8.15938
▁중요해	-8.15949
▁어때	-8.16026
▁비	-8.16359
▁어떤	-8.16489
군요	-8.16889
먼저	-8.17134
겠네	-8.1715
이라	-8.17151
오늘	-8.17173
▁점	-8.17539
▁집에	-8.17649
직접	-8.17783
이야	-8.179
제일	-8.18232
적	-8.18233
방	-8.18274
▁괜찮아요	-8.18608
정말	-8.18682
▁해볼까	-8.18697
▁남자애	-8.18783
▁그렇	-8.18869
▁열	-8.18991
들	-8.19233
▁여친	-8.19627
까요	-8.2002
▁변화	-8.20325
내	-8.20461
▁쉽지	-8.20838
▁오세요	-8.20892
▁기분	-8.21349
▁같애	-8.21663
▁물어보	-8.21684
▁남자가	-8.22196
음	-8.22285
개월	-8.22568
▁좋아해	-8.22961
▁오	-8.23089
▁아직도	-8.23371
차	-8.23465
▁마지막	-8.23542
겠지	-8.23868
▁가지	-8.24245
▁살고	-8.25471
▁이젠	-8.2618
▁난	-8.26308
▁알았는데	-8.26495
▁뭘까	-8.26542
시간	-8.26943
▁왔어	-8.27667
▁썸남	-8.28639
▁되나	-8.2865
▁연락을	-8.28706
▁했는데	-8.28788
여	-8.28943
▁기다려	-8.28983
야지	-8.29097
▁번	-8.29123
▁보내	-8.29136
러	-8.29495
▁갑	-8.29718
좋아하는	-8.29836
▁노래	-8.29865
▁맘	-8.30042
▁제	-8.30061
▁필요	-8.30098
▁타	-8.30384
▁남친	-8.30769
에는	-8.30957
▁어떡해	-8.31342
하는데	-8.31413
▁짝남한테	-8.3155
▁핸드폰	-8.31729
▁사진	-8.31942
새로운	-8.32026
져	-8.32274
시	-8.32368
▁차	-8.32418
▁피	-8.32795
▁꼭	-8.33156
▁헤어지고	-8.33158
이랑	-8.33387
▁합니다	-8.33388
▁없다	-8.33506
▁마음에	-8.33823
▁만나는	-8.34026
▁기대	-8.34249
▁받아	-8.34327
하네	-8.34485
▁잠	-8.34493
▁완전	-8.34727
▁사람한테	-8.3488
▁이런	-8.35151
▁이별을	-8.35167
▁말아	-8.35218
하기	-8.35382
▁얼마	-8.35771
▁보는	-8.35793
아요	-8.36087
▁없을	-8.36336
했던	-8.36531
▁큰	-8.36552
▁놀	-8.3657
▁많았	-8.36587
▁있다면	-8.36773
▁5	-8.37014
▁재회	-8.37119
하	-8.37133
마다	-8.37437
▁사는	-8.37655
▁된	-8.37662
구	-8.37683
▁들	-8.37789
된	-8.37851
▁상처	-8.3822
▁모르겠어요	-8.38456
하죠	-8.38504
임	-8.39099
▁밥	-8.39213
.",	-8.39371
▁연락해	-8.39383
▁중요한	-8.39394
▁후회	-8.39531
▁관계	-8.39686
▁예의	-8.39781
돈	-8.39891
▁말이	-8.39997
▁"	-8.40024
맛있	-8.40144
어떤	-8.40397
▁앞에	-8.40435
살	-8.40568
▁새로운	-8.40936
드	-8.4097
▁선택	-8.41104
하면서	-8.41267
이나	-8.41581
마세요	-8.41698
▁사람들이	-8.41729
신	-8.41736
줄	-8.41855
▁가져	-8.41872
▁오늘도	-8.41875
▁모르는	-8.4193
친구가	-8.42061
소	-8.42277
▁잔	-8.42361
▁모습	-8.42557
▁날이	-8.42611
▁아침	-8.43029
실	-8.43112
▁헤어짐	-8.43171
달	-8.43188
▁정도	-8.43448
▁시간을	-8.43751
▁기	-8.4417
치	-8.44458
▁나와	-8.44665
▁걱정	-8.44722
▁않았	-8.44862
▁걸까	-8.44876
▁6	-8.45008
▁엄청	-8.45147
▁자주	-8.45489
게요	-8.45779
또	-8.46132
힘든	-8.46251
1	-8.4652
▁싶어요	-8.46604
▁좋아할	-8.46689
더니	-8.46964
▁만나고	-8.47067
▁덜	-8.47114
▁요즘	-8.47169
▁맞는	-8.47272
▁제가	-8.47992
▁사이	-8.48041
▁그만	-8.4808
▁서로	-8.48171
달라고	-8.48257
▁추천	-8.48369
▁두	-8.48425
전	-8.49018
▁누구	-8.49039
▁결정	-8.49316
무슨	-8.49408
그렇	-8.4941
찍	-8.49598
▁갈	-8.49851
▁정리가	-8.49991
▁연습	-8.50051
▁사세요	-8.50121
▁있었나	-8.50128
▁운동	-8.50159
▁느낌	-8.50864
▁만들	-8.50957
▁귀	-8.51265
▁줘	-8.51279
▁빨리	-8.513
날	-8.51492
▁엄마	-8.51556
▁길	-8.51698
▁4	-8.51945
▁이해	-8.51962
▁나이	-8.52005
▁아닌	-8.52099
▁새	-8.52151
▁생각나	-8.52512
▁가장	-8.52865
▁잘하는	-8.53019
▁몇	-8.53039
▁하는데	-8.533
▁먹	-8.53324
하나	-8.53495
▁되지	-8.53793
▁다가가	-8.53964
▁아닌데	-8.53988
▁하죠	-8.54076
마음의	-8.54116
지는	-8.54224
▁이상	-8.54287
▁끝나	-8.54409
▁물	-8.54452
▁되길	-8.54771
▁충분	-8.54783
만에	-8.54877
▁인생	-8.54982
발	-8.55265
▁힘들다	-8.55529
릴	-8.55559
▁자기	-8.55725
▁딱	-8.55867
다시	-8.55871
▁넘	-8.56088
▁갖	-8.56167
▁물어	-8.56895
▁어려워	-8.57151
▁여친이	-8.57275
▁벌써	-8.57679
▁소개팅	-8.57687
상대방	-8.577
일째	-8.57737
▁않죠	-8.57902
▁좋	-8.5796
말	-8.57996
▁궁금해	-8.58002
졌어	-8.58027
▁기다리	-8.58308
▁날씨	-8.5854
었어	-8.58614
▁입	-8.58789
트	-8.58894
사	-8.59015
▁사람들	-8.5916
▁뭘	-8.59313
많은	-8.59376
▁것이	-8.5938
▁나서	-8.59545
▁몸	-8.59586
▁아픈	-8.59605
얼	-8.5961
▁미련	-8.5965
▁만난	-8.59655
누구	-8.59676
▁정	-8.59687
인가	-8.59865
보	-8.59995
남	-8.60067
일까	-8.60336
▁받고	-8.60368
▁주무	-8.60463
▁전에	-8.60531
디	-8.60655
▁남편이	-8.60888
▁영화	-8.61357
▁의미	-8.61586
▁같	-8.61602
같은	-8.61625
▁보면	-8.61763
릴게요	-8.62071
▁커피	-8.62078
눈	-8.6214
▁모두	-8.62211
연락	-8.62258
▁말씀	-8.62279
▁아는	-8.62818
▁여자애	-8.63073
▁행복	-8.631
▁됐어	-8.63248
▁위해	-8.63833
없이	-8.63945
▁자체	-8.64043
▁많	-8.6422
▁못하겠어	-8.64223
▁안해	-8.64234
▁기분이	-8.643
▁뭐야	-8.64403
▁연락하고	-8.64692
▁힘이	-8.6479
것	-8.64805
▁예뻐	-8.64915
번	-8.6493
▁썸남이	-8.65044
듯	-8.65236
▁거죠	-8.66125
볼까	-8.66453
집	-8.66455
▁얼굴	-8.6646
▁힘들게	-8.66488
사람을	-8.66672
▁조심하세요	-8.66734
봐	-8.66796
통	-8.66859
▁대	-8.6706
답	-8.67213
▁먹어야지	-8.67591
▁괜찮을까	-8.67621
미리	-8.67649
▁알바	-8.67673
운동	-8.67683
▁매일	-8.67887
용	-8.67992
▁가능	-8.68123
▁일어나	-8.68141
▁막	-8.6828
▁얼	-8.68596
▁지	-8.68723
후회	-8.68737
▁부	-8.68738
▁같네	-8.6879
인연이	-8.69012
보고	-8.69036
당신이	-8.69248
언젠	-8.69317
▁맞	-8.69762
▁무	-8.69827
단	-8.70471
잠시	-8.70565
",	-8.70639
▁힘들지	-8.71088
▁티	-8.71144
▁만났어	-8.71305
▁귀찮아	-8.71384
▁차이	-8.71535
▁모든	-8.71555
썸	-8.71639
▁말해	-8.71792
▁그녀를	-8.72297
▁꽃	-8.7261
▁현실	-8.72654
▁좋아하게	-8.72672
▁물어보는	-8.7268
▁부모님	-8.72768
▁중에	-8.72954
▁못하는	-8.73135
▁사귀는	-8.73209
▁화장	-8.73476
▁괜찮은	-8.73543
▁감	-8.73828
해야	-8.73859
▁법	-8.73916
매일	-8.73935
▁많아요	-8.73994
마음에	-8.74371
냐	-8.74468
작은	-8.74609
▁손	-8.74725
했나봐	-8.74905
잠깐	-8.74936
▁재미	-8.74959
힘들	-8.75116
▁회사	-8.75259
▁중요하지	-8.75309
▁짝녀한테	-8.75317
▁동	-8.75336
▁만	-8.76311
▁먹으면	-8.76369
▁했어	-8.76372
다가	-8.76433
▁없이	-8.76451
▁다를	-8.76488
럽	-8.76556
▁소리	-8.76593
▁챙겨	-8.76648
▁싫다	-8.76671
▁적	-8.76694
▁대해	-8.76789
▁받을	-8.76838
어서	-8.76846
▁생각할	-8.76883
▁화	-8.76945
인가봐	-8.7707
▁선	-8.77201
▁주는	-8.77221
▁간다	-8.77425
▁사귀고	-8.77555
있는	-8.7773
▁봐	-8.77778
▁어느	-8.77885
▁편이	-8.77982
친구	-8.7807
▁이별후	-8.78476
,1	-8.78533
▁헤어지	-8.78848
했어요	-8.78857
▁필요한	-8.7892
▁드는	-8.78941
▁학교	-8.79065
▁떠나	-8.79126
▁생길	-8.79138
▁고민이야	-8.79178
▁시험	-8.79181
▁헤어졌습니다	-8.79236
▁게임	-8.79284
갈	-8.79336
▁바람	-8.7938
보면	-8.79512
▁표현	-8.79706
공부	-8.79775
울	-8.79852
▁곳이	-8.79922
들이	-8.79985
비	-8.80097
피	-8.80148
▁자신이	-8.80486
▁알게	-8.80582
!!,	-8.80978
▁건지	-8.81308
그분	-8.81677
▁좋아하	-8.81791
사랑에	-8.82267
맘	-8.82385
▁뿐이	-8.82557
▁예쁘	-8.82559
▁되네	-8.82578
▁전여친	-8.82805
란	-8.82811
▁놀아	-8.82882
대화	-8.83103
내일	-8.83197
▁알려줘	-8.83198
고생	-8.8327
▁같습니다	-8.83275
감기	-8.83418
▁해주세요	-8.83458
며	-8.83642
라면	-8.83647
▁옷	-8.83784
▁맨날	-8.83904
▁아닌지	-8.83907
▁행복해	-8.83961
▁생겼	-8.84282
▁타고	-8.8434
▁그래요	-8.84455
약	-8.84764
중	-8.8509
▁신경쓰지	-8.85159
다음에	-8.85195
▁않고	-8.85678
▁상대	-8.86031
▁첫사랑	-8.86069
린	-8.86131
▁드	-8.86243
▁되어	-8.86279
▁사귀	-8.86283
▁가끔	-8.86323
술	-8.86503
▁약속	-8.86583
텐데	-8.86693
▁용기	-8.8692
▁좋다	-8.87057
가서	-8.87285
▁사랑할	-8.87322
▁추억	-8.87391
림	-8.87395
▁있지	-8.87473
이젠	-8.87616
▁위	-8.87705
▁뭔지	-8.87726
▁뿐	-8.87747
했는데	-8.87792
▁나쁜	-8.87799
덧	-8.87859
▁기회	-8.87916
겠지만	-8.87939
▁받아들이는	-8.88184
▁좋은데	-8.88213
▁죽을	-8.88271
▁데	-8.88315
▁싶	-8.88455
▁좋겠죠	-8.88486
▁삶	-8.88606
▁남친이	-8.88643
▁여자애가	-8.88873
▁주	-8.88891
▁코	-8.89002
▁확인해	-8.89188
▁쉬운	-8.89213
▁이별이	-8.89223
▁가기	-8.89281
▁찾아보	-8.89417
거야	-8.89475
▁먹을	-8.89564
▁아픔	-8.89626
줘	-8.89653
▁꿈에	-8.89661
▁설레	-8.8975
싶네요	-8.8996
▁실수	-8.89965
▁상관	-8.90252
▁가야	-8.90339
이별을	-8.90438
▁좋지	-8.90446
▁안되는	-8.90762
바	-8.90923
▁후폭풍	-8.90925
▁좋아하는데	-8.91077
당	-8.91237
▁지켜	-8.91259
▁만남	-8.91363
▁일을	-8.9144
▁그래	-8.91571
▁해봐요	-8.91577
▁사랑하고	-8.91586
▁한번	-8.91604
▁알고	-8.91761
맛	-8.91873
▁잘할	-8.91894
▁개	-8.9195
▁약	-8.91991
엔	-8.91995
자책하지	-8.92114
▁떨려	-8.9212
▁호감	-8.92164
▁않는다면	-8.92214
겠어	-8.92262
▁드디어	-8.92276
나요	-8.92345
나쁜	-8.92374
▁처음	-8.92416
▁아닐까요	-8.92467
▁비싸	-8.92624
▁잘하고	-8.92782
▁사랑해	-8.93113
리는	-8.93155
회사	-8.93365
이라면	-8.93432
한번	-8.93486
▁확신	-8.93697
▁첫	-8.93765
▁목	-8.93787
!	-8.93985
그러면	-8.94337
바쁘	-8.94635
▁잘못	-8.94814
▁모	-8.94901
하다	-8.95203
▁남자들	-8.95884
▁스스로	-8.95975
▁괜찮아	-8.95996
▁하기	-8.96093
함께	-8.96153
▁가세요	-8.9616
▁방법이	-8.96311
▁힘들었	-8.96707
▁비밀	-8.96813
열	-8.96852
▁무서워	-8.96854
▁위로	-8.96888
계속	-8.96927
▁못해	-8.96969
▁배	-8.97073
▁밤	-8.97079
선	-8.97081
▁탈	-8.97107
고민	-8.97143
▁써	-8.97206
▁진심	-8.97224
▁돈이	-8.97291
나중에	-8.97344
슬픈	-8.974
▁문자	-8.97474
▁책	-8.97554
▁분	-8.97756
▁좋아하면	-8.98017
▁편	-8.98026
▁별로	-8.98222
,"	-8.98229
▁있습니다	-8.9832
감	-8.98574
▁괜찮	-8.98608
잘할	-8.9867
▁되겠	-8.98945
▁편지	-8.99044
을까	-8.997
난	-8.99743
▁답	-8.99751
▁두달	-9.00326
용기	-9.00397
▁구	-9.00433
건강	-9.00554
▁소중	-9.006
▁이해해	-9.00682
▁보지	-9.00831
꾸준	-9.01198
화	-9.01331
▁쓰	-9.01453
▁프사	-9.01535
더라	-9.01537
연애	-9.01629
▁아프네	-9.01669
▁되고	-9.01803
▁어려운	-9.01857
▁있잖아	-9.01888
▁헤어졌어	-9.01904
▁경우	-9.01928
▁싸	-9.0199
▁않았으면	-9.02021
▁물어봐	-9.02029
▁아프	-9.0212
가슴이	-9.02171
몸	-9.02369
오래	-9.02451
더라고요	-9.02584
스스로	-9.02586
확신	-9.02693
▁생기	-9.02703
요즘	-9.02737
즐거	-9.02839
▁시기	-9.02896
▁그리고	-9.02899
▁전남친	-9.02985
▁썸녀	-9.03106
▁시켜	-9.03215
▁글	-9.03321
▁매	-9.034
▁것보다	-9.03417
▁보통	-9.03431
▁봅니다	-9.03737
가면	-9.03773
▁복	-9.03833
▁볼까	-9.0393
▁친구한테	-9.0413
▁필요하겠	-9.04376
▁친구들이	-9.0481
짝	-9.04988
▁힘내세요	-9.05096
했으면	-9.0521
마	-9.05362
▁별	-9.05784
다니	-9.05996
▁만나지	-9.05997
▁없나	-9.06096
까봐	-9.06178
애가	-9.06208
두	-9.06263
▁끝이	-9.06368
▁만나자	-9.06559
▁잊고	-9.06711
▁지났네	-9.06724
돼	-9.06784
▁앞	-9.06794
▁고생	-9.06921
▁헷갈리	-9.06962
▁느낌이	-9.0701
땐	-9.0702
▁오는	-9.07049
쉽지	-9.07085
증	-9.07134
▁관리	-9.07276
새	-9.07296
셔	-9.073
▁눈물	-9.07308
,2	-9.07329
▁가슴	-9.07719
▁않을까요	-9.07751
원	-9.07762
▁괜	-9.0794
▁사람에	-9.08003
▁자존감	-9.08035
조심하세요	-9.08059
▁뭔가	-9.08065
▁이야기해	-9.08169
신경	-9.08189
꼭	-9.08248
▁해서	-9.08271
~,	-9.08298
▁파	-9.0835
▁받았어	-9.0844
▁쉽	-9.08505
▁있으니까	-9.08654
▁조	-9.08752
동안	-9.08779
▁내려	-9.08849
제대로	-9.08897
▁생각해보세	-9.08916
▁싶지	-9.08917
자신에게	-9.0906
다는	-9.09072
▁자신감	-9.09133
▁사람과	-9.09433
▁월급	-9.09655
▁척	-9.09719
론	-9.09861
▁버리	-9.10093
▁잠이	-9.10105
▁나을	-9.10244
▁연락해도	-9.10306
걸까	-9.10329
▁폰	-9.10534
째	-9.10561
▁먹는	-9.10605
▁편하	-9.1074
▁습관	-9.1096
▁마시	-9.11137
▁신경	-9.11207
▁거짓말	-9.11209
보는	-9.11341
맛있는	-9.11433
식	-9.11494
사랑이	-9.11519
▁잊혀지	-9.11774
뭐	-9.11835
현실	-9.11845
▁연인	-9.11856
▁보고싶어	-9.11902
▁해보는	-9.11971
어도	-9.1201
▁있나요	-9.12165
짝사랑	-9.12306
해야지	-9.12416
▁나랑	-9.12448
▁말하는	-9.12492
인생	-9.12506
▁끝내	-9.12555
▁버텨	-9.12634
▁어플	-9.12645
▁보러	-9.12652
▁시	-9.1272
▁현상	-9.12865
▁오빠	-9.12867
글	-9.12913
▁고민이	-9.12947
▁조언	-9.13342
▁마음의	-9.13386
년째	-9.13401
머리	-9.13413
는건	-9.13465
▁모르	-9.13747
후회하지	-9.13971
▁봄	-9.13978
양	-9.14013
어느	-9.14071
▁살아	-9.14081
▁분위기	-9.14142
가끔	-9.14159
▁스킨십	-9.14194
▁하늘	-9.14258
▁좋아할까	-9.14462
▁살펴	-9.14559
▁우산	-9.14613
야겠다	-9.14766
먹고	-9.15022
후	-9.15368
▁받는	-9.1558
▁괜찮을	-9.15692
달라지는	-9.15723
▁사랑하면	-9.15834
▁보이	-9.15897
▁잊지	-9.15942
▁직장	-9.15952
▁받	-9.15972
▁사람에게	-9.15987
로맨틱	-9.16117
▁순간	-9.16295
▁상	-9.16299
생각이	-9.16434
▁주면	-9.1648
▁확실	-9.16877
스	-9.16982
▁마련	-9.17123
처음	-9.17212
▁안하고	-9.17293
▁행동	-9.17372
▁안들어	-9.17702
칠	-9.17741
??,	-9.18282
▁졸	-9.18405
축하드려요	-9.18461
▁최고	-9.18585
▁욕	-9.18635
▁등	-9.18752
▁정리하는	-9.18853
▁헤아리	-9.18871
한동안	-9.18915
▁친구들	-9.18972
▁여유	-9.19071
▁보여	-9.19083
▁유	-9.19135
▁둘	-9.19247
시군요	-9.19293
크	-9.19301
▁눈물이	-9.19333
진심	-9.19523
진짜	-9.19537
▁답장	-9.19656
▁따	-9.1968
▁긴	-9.19735
▁여	-9.19858
모든	-9.20009
▁인기	-9.20065
▁상담	-9.20117
이면	-9.20189
▁심해	-9.20257
후폭풍	-9.20258
여행	-9.20344
종	-9.20351
▁강	-9.2038
곧	-9.20469
▁못하고	-9.20632
▁안나	-9.20657
▁모르겠네	-9.20684
▁사랑에	-9.20751
▁것을	-9.20806
▁뭐라고	-9.20922
▁선물이	-9.21017
낼	-9.21109
밖에	-9.21172
▁이사	-9.21268
▁주고	-9.21381
▁되기	-9.21554
우	-9.22023
이별한	-9.22048
사람은	-9.22216
ᅮ	-9.22228
▁생겼어	-9.22239
▁인정	-9.22464
▁살펴보	-9.22651
▁생각하는	-9.22962
야죠	-9.22984
▁발	-9.22997
▁만남이	-9.23116
해볼까	-9.23595
▁10	-9.23649
▁노력	-9.23673
▁힘들겠지	-9.23881
▁얘기	-9.23883
▁연락하는	-9.24059
같아	-9.24398
시길	-9.24412
▁죽	-9.24597
따뜻	-9.24626
▁풀	-9.24635
▁저녁	-9.24759
▁면접	-9.2476
▁떠난	-9.24793
▁준	-9.2483
못	-9.24836
▁안경	-9.24877
▁짜증나	-9.24896
▁좋을텐데	-9.2496
원하는	-9.25006
▁새벽	-9.25019
▁의사	-9.2505
▁영	-9.25094
▁한잔	-9.25098
건강에	-9.2513
▁신	-9.2516
동	-9.25196
▁중인	-9.25209
▁생일	-9.25211
▁발표	-9.25297
▁담배	-9.253
▁웃	-9.25394
▁극복	-9.25409
▁갈까	-9.25512
▁썸타는	-9.25539
될	-9.25565
▁원래	-9.25611
▁당	-9.25624
▁이상해	-9.25735
▁있으	-9.25987
기분	-9.26154
▁이제는	-9.26291
▁상황을	-9.26317
쉬운	-9.26369
▁해줘	-9.26411
▁쉬어	-9.26424
▁낫	-9.26711
▁소식이	-9.26745
▁벌	-9.2682
건가	-9.26859
진정	-9.26875
▁톡	-9.26882
▁다르	-9.26893
ᅲᅲ	-9.26957
멋진	-9.26974
놓고	-9.27004
딱	-9.27042
초	-9.27064
▁되는데	-9.27186
▁잊을	-9.27205
분	-9.27238
▁카페	-9.27375
케	-9.27393
성	-9.27441
▁떠	-9.27465
▁쉬는	-9.27569
▁되었	-9.27589
▁눈에	-9.27592
▁선택일	-9.27633
▁그대로	-9.27686
▁받지	-9.2774
▁세	-9.27757
▁인연	-9.2789
▁놓아주	-9.28097
▁장	-9.2815
▁두려워	-9.28155
워	-9.28294
▁커	-9.28341
▁주지	-9.28568
▁주말	-9.28571
▁부분	-9.28591
▁잊는	-9.28712
▁알아보	-9.28792
우리	-9.28805
▁종	-9.29004
▁마셔	-9.29069
ᅲ	-9.29071
▁차단	-9.2941
부	-9.29841
별	-9.29907
▁살까	-9.29969
▁확인	-9.30025
▁하셨	-9.30707
기는	-9.30815
을지도	-9.3088
▁다르겠지	-9.30933
▁있고	-9.30947
~	-9.3097
료	-9.31037
▁짝사랑하는	-9.31127
션	-9.31301
▁장난	-9.31328
락	-9.31333
▁쓰는	-9.31385
▁바뀔	-9.31422
▁번호	-9.31435
애	-9.31463
겠다	-9.31479
▁만났는데	-9.3155
▁어쩌지	-9.31561
▁7	-9.31654
▁좋겠지	-9.31694
꿈	-9.31758
▁힘	-9.31776
▁먹어	-9.3188
▁상사	-9.31971
상대	-9.32003
?,"	-9.3204
▁지나갈	-9.3216
▁가능성	-9.32189
반	-9.3228
▁여자친구와	-9.32282
▁예쁜	-9.3231
어보세요	-9.32384
▁뭐하지	-9.32544
▁사랑하는데	-9.32622
예	-9.3266
▁깨	-9.32708
▁않으면	-9.32732
▁안와	-9.3288
▁잡	-9.32939
▁달	-9.33106
▁싶네	-9.33116
▁없는데	-9.33169
▁상황	-9.33309
▁그러	-9.33347
▁여러	-9.33664
스트레스	-9.33672
▁이상한	-9.33831
바쁜	-9.33894
▁과정	-9.33961
안녕	-9.33984
▁괜찮아졌	-9.34029
매	-9.34031
▁드시	-9.34088
▁옆에	-9.34128
직장	-9.34152
사랑했던	-9.34249
잠을	-9.34285
▁필요할	-9.34309
▁집중	-9.34368
▁이별의	-9.34454
▁좋아하나	-9.34519
내가	-9.34524
▁그녀가	-9.34567
▁찍	-9.34569
▁부담	-9.3465
▁되면	-9.34698
▁준비하	-9.34746
▁만나면	-9.34818
▁천	-9.3486
미련	-9.34879
▁곳에	-9.35005
▁없으면	-9.35034
▁자연스	-9.35115
▁만드	-9.35283
했	-9.35348
▁확실한	-9.35498
가요	-9.36214
▁했던	-9.36225
었던	-9.36339
르	-9.36608
앞으로	-9.3677
겨	-9.36779
주가	-9.36868
▁맞춰	-9.36924
알	-9.36925
▁했으면	-9.36977
가장	-9.37124
▁살아야	-9.37149
▁인사	-9.37166
자연스러	-9.37204
▁보기	-9.37206
으니까	-9.37255
▁원하는	-9.37271
▁지내	-9.37462
▁우울	-9.37907
▁않네	-9.38061
으세요	-9.38145
▁외로워	-9.3822
▁싫은	-9.38233
▁생각나네	-9.38264
▁속이	-9.38308
▁정신	-9.38311
▁느려	-9.38522
▁대학	-9.3853
▁미친	-9.38535
됐어	-9.38537
▁추워	-9.38544
▁결과	-9.38599
▁걱정돼	-9.38612
▁식	-9.38614
▁쓰레기	-9.38623
▁어떡하지	-9.38643
▁나가	-9.38709
▁돌	-9.38757
▁8	-9.3881
▁쐬	-9.3881
▁필요하죠	-9.38846
▁온	-9.38861
▁꿨어	-9.3887
▁생각나는	-9.38873
▁자격	-9.38897
집에서	-9.38921
▁키	-9.38936
세	-9.39007
▁중요	-9.39022
▁음식	-9.3905
는거	-9.39092
▁정리하	-9.39111
▁믿	-9.39127
▁나오	-9.39148
▁버스	-9.39183
▁집안일	-9.39189
▁목소리	-9.39206
▁아닐	-9.39372
▁타는데	-9.3938
▁숨	-9.39404
▁있겠지	-9.39409
▁됨	-9.39441
물	-9.39475
남자	-9.39481
▁했습니다	-9.39482
▁취미	-9.39534
▁세상	-9.39552
▁없애	-9.39694
▁동거	-9.39778
▁사랑해서	-9.39817
이란	-9.39826
추억	-9.39845
▁우	-9.39845
▁눈치	-9.39927
▁중요하	-9.40114
배	-9.40144
▁마련이	-9.40301
짐	-9.40386
쳐	-9.40427
▁커플	-9.40526
세상에	-9.40594
▁못할	-9.40619
▁최선	-9.4069
▁휴	-9.40694
▁왔는데	-9.40745
▁될까요	-9.40776
박	-9.40981
▁쇼핑	-9.41109
관계	-9.4114
폰	-9.41227
▁독	-9.41232
▁거야	-9.4128
▁않으니	-9.41283
었길	-9.41336
▁뭐라	-9.41441
▁존중	-9.4151
▁여자들	-9.4157
밥	-9.4161
▁결혼식	-9.41615
학	-9.41773
힘내세요	-9.41825
▁능력이	-9.42107
▁종교	-9.42126
▁건가	-9.42149
느라	-9.42329
▁어때요	-9.42505
한데	-9.42544
록	-9.42605
▁간	-9.42806
되	-9.42827
▁달라	-9.42899
▁만났	-9.42938
▁흘렀네	-9.43037
▁생각하	-9.4306
거리	-9.43112
하니까	-9.43243
▁이상형	-9.4328
하거나	-9.4339
▁곧	-9.43617
▁반대	-9.43632
▁해결	-9.43692
▁감정이	-9.438
잘하고	-9.43812
라는	-9.43818
런	-9.44211
▁사랑했던	-9.44276
말고	-9.44452
▁챙겨드	-9.44631
▁군대	-9.44643
▁미워	-9.44682
▁그리워	-9.4478
▁부러워	-9.44805
다음	-9.44897
▁거니	-9.44936
▁고	-9.44942
왔어	-9.4508
▁밖에	-9.45106
렇게	-9.45415
▁용	-9.45624
▁말씀해	-9.45668
친한	-9.45794
▁행복하	-9.45864
▁그렇지	-9.45887
▁말도	-9.4589
이라고	-9.45996
▁존재	-9.4609
팅	-9.46166
심호흡	-9.4621
혹시	-9.46217
▁시계	-9.46217
평소	-9.46237
▁샀어	-9.46273
▁감기	-9.46336
▁헤어졌는데	-9.46343
▁재밌	-9.46354
▁떨어졌어	-9.46412
온전	-9.46426
▁통보	-9.46507
▁희망	-9.46566
▁미세먼지	-9.46595
▁즐기세요	-9.46599
▁먹을까	-9.46731
년이	-9.46761
▁이건	-9.46847
들을	-9.46848
▁졸업	-9.46925
▁적응	-9.46997
주는	-9.47161
냐고	-9.47174
좋아	-9.47266
결혼	-9.47311
▁찾아올	-9.47336
었는데	-9.4736
▁할텐데	-9.47463
미련이	-9.47509
▁짧	-9.47521
▁위로해	-9.47567
▁있지만	-9.47582
법	-9.47592
▁썸인	-9.47807
▁피곤해	-9.47813
었나봐	-9.47861
▁당신이	-9.47927
▁연예인	-9.4801
▁상관없	-9.48072
▁서로에	-9.48118
▁놀고	-9.48134
▁질투	-9.4815
▁왔다	-9.4821
기대	-9.4822
할때	-9.48376
▁상처를	-9.48538
기억	-9.4872
▁시작해	-9.48918
▁이거	-9.48926
저도요	-9.49025
▁그랬	-9.49079
▁문	-9.4933
▁꾸	-9.49334
준	-9.49375
친구들과	-9.49385
둘	-9.49451
그냥	-9.49538
두고	-9.49548
▁행복한	-9.49588
이네	-9.49646
사랑하는	-9.49668
중요한	-9.4982
▁도전	-9.499
▁달라고	-9.49911
코	-9.4999
모두	-9.49997
화장실	-9.50024
병원	-9.50054
여유	-9.50089
확실한	-9.50103
절대	-9.50107
필요한	-9.50124
티	-9.50132
잡고	-9.50148
뭘	-9.50261
▁한달이	-9.50278
▁변하	-9.50421
모르는	-9.50445
▁괜찮아질	-9.50498
▁충전	-9.50627
병	-9.50731
▁학원	-9.50903
▁안녕	-9.50912
▁떨	-9.51059
▁아는데	-9.51075
▁궁금하네	-9.51108
▁것들	-9.51126
기만	-9.51215
꺼	-9.51221
▁편할	-9.51287
창	-9.51327
하려고	-9.51333
▁않게	-9.51377
▁걷	-9.51425
고민이	-9.51617
▁꿈이	-9.51695
▁힘내	-9.51765
▁바보	-9.51839
▁크리스마스	-9.5184
▁듣	-9.51922
▁배우	-9.51993
렸어	-9.52113
세상	-9.52174
▁스	-9.52339
작	-9.52352
한다	-9.52407
▁내는	-9.5251
▁맛	-9.52676
▁사이에	-9.52747
께	-9.52766
많죠	-9.52795
▁바라	-9.52817
▁있네	-9.52852
▁없지	-9.5287
▁키우	-9.52919
하다가	-9.52924
▁스타일	-9.52975
▁생각하지	-9.53089
▁그런가	-9.53116
지지	-9.53271
시간을	-9.53377
▁몰랐	-9.53433
한다면	-9.53549
▁분이	-9.53631
▁가족	-9.53663
▁취	-9.53853
▁환승	-9.53928
▁피하	-9.54241
▁텐데	-9.54414
링	-9.54543
▁걔	-9.54543
곰	-9.54543
▁스키	-9.54546
▁귀여워	-9.54546
차근	-9.54553
이겨낼	-9.546
이렇게	-9.54609
급	-9.5464
지금처럼	-9.54788
▁내리	-9.54817
▁사랑한	-9.54861
▁최고죠	-9.54883
▁안됐는데	-9.54907
▁기운	-9.54917
▁연	-9.5493
▁권태기	-9.54935
▁나왔어	-9.54959
▁많은데	-9.54962
▁이번	-9.55049
▁헤어지자고	-9.55063
▁인	-9.5514
▁후회할	-9.55147
▁관심사	-9.55153
만남	-9.55178
▁해야지	-9.55232
▁됐으면	-9.55287
▁사귈	-9.55291
▁치과	-9.55307
▁조절	-9.55325
큰	-9.55343
▁증거	-9.55434
차단	-9.55461
▁순간이	-9.5549
▁깊	-9.55585
▁걱정하지	-9.55598
▁직접	-9.5562
끝	-9.55664
그러게	-9.55719
는지	-9.55808
이라는	-9.55809
▁됩니다	-9.55832
됐는데	-9.55902
▁크	-9.55902
▁지쳤나	-9.55909
▁그사람	-9.5597
▁크게	-9.55977
▁말할	-9.56022
▁모아	-9.56041
▁다이어트	-9.56111
▁오랜만에	-9.56135
감정	-9.56286
▁휴식	-9.56292
▁장거리	-9.5634
▁인연이	-9.56365
▁꿈에서	-9.56537
그것	-9.56545
▁썸이	-9.566
▁있겠죠	-9.56624
▁학	-9.56681
어떻게	-9.56695
▁일상	-9.56697
▁힘들어서	-9.56822
사소	-9.56834
▁듣고	-9.56921
▁진급	-9.56932
▁드네	-9.56932
복	-9.57147
▁단	-9.57242
▁연락하면	-9.57409
▁따뜻	-9.57446
▁있을거예요	-9.57473
▁따로	-9.57516
왜	-9.57522
▁통해	-9.57592
메	-9.57622
구나	-9.57763
▁붙잡고	-9.57829
▁했나	-9.57917
재	-9.5794
▁여기	-9.57965
하루	-9.58028
▁사랑한다	-9.58077
주변	-9.58141
아니	-9.58183
인듯	-9.58236
움	-9.58453
싸우면	-9.58523
끼	-9.58572
▁생겼네	-9.5859
▁거겠죠	-9.58607
▁잊어버리	-9.58702
▁참아	-9.58818
▁재	-9.5891
노래	-9.58915
무	-9.58928
▁출근	-9.58977
커피	-9.58992
숙	-9.59001
▁포기	-9.59038
▁상황이	-9.59079
가는	-9.59119
시원	-9.59155
종교	-9.59182
▁놀러	-9.59198
김	-9.59344
콩	-9.59401
용기내	-9.59424
▁다녀	-9.59516
▁속	-9.59558
▁발전	-9.59577
▁잊어	-9.59597
호감이	-9.59608
▁초	-9.59775
▁피해	-9.59852
▁추억이	-9.59885
▁봐도	-9.59921
줬어	-9.59977
▁헤어져야	-9.59997
▁이어	-9.59998
결	-9.60022
▁해주는	-9.60071
고백	-9.60256
▁풀어	-9.60343
▁집착	-9.60378
▁아이	-9.60523
▁소개	-9.6054
끝을	-9.60614
▁바뀌	-9.60796
▁함	-9.60804
▁않나	-9.60872
▁절대	-9.61003
▁어	-9.6102
오	-9.61066
지내고	-9.61081
▁놓고	-9.61098
▁감사	-9.61179
▁사야	-9.61216
▁접	-9.61226
▁고통	-9.61361
▁지나갔	-9.61517
▁없어서	-9.61576
▁추천해	-9.6164
▁걸어	-9.61727
▁안돼요	-9.61777
▁사귀어	-9.61971
▁돌아가	-9.62051
▁맞았	-9.62118
▁안하는	-9.62123
▁맘에	-9.62221
▁잊	-9.62295
오늘도	-9.62303
▁동안	-9.62311
▁지쳐	-9.62341
▁전부	-9.62473
▁결정이었을	-9.62512
언젠가	-9.62574
▁일주일	-9.6268
혀	-9.62815
▁뒤	-9.62868
이별이	-9.62994
성공	-9.63019
▁역시	-9.63401
플	-9.63411
▁괴롭	-9.63417
▁봄이	-9.63551
토	-9.63632
▁무시하	-9.63639
맥주	-9.6364
▁이별통보	-9.63641
▁골라	-9.63642
▁하루하루	-9.63689
▁남겨	-9.63694
이야기	-9.63697
상처	-9.63727
▁집들이	-9.63729
▁잘해줘	-9.6376
▁잠수	-9.63762
▁전환	-9.63792
▁절	-9.63884
본	-9.639
▁환승이별	-9.63924
▁걸릴	-9.63952
▁성격이	-9.63962
▁넌	-9.63983
▁자신에	-9.64007
▁멈추	-9.64029
▁드라마	-9.64049
터	-9.64066
▁원	-9.6407
▁불러	-9.64084
▁두번	-9.64091
▁바꾸	-9.64109
▁없겠지	-9.64142
▁사고	-9.64151
▁끝난	-9.64222
▁잡아	-9.64266
▁알려주	-9.6431
와서	-9.64363
조차	-9.64395
▁습관이에요	-9.64434
▁인형	-9.64446
▁어린	-9.64482
▁언제쯤	-9.6449
▁피부	-9.64554
▁자고	-9.64572
▁과일	-9.64585
각자	-9.64602
▁아니야	-9.64677
▁짧은	-9.64816
▁좋지만	-9.64832
▁습관이	-9.64864
▁기념일	-9.64894
▁쓰고	-9.64951
▁들어가	-9.64981
▁배워	-9.64999
부럽네요	-9.65002
▁말까	-9.65062
▁보고싶다	-9.65124
▁놓	-9.65155
전에	-9.65212
참	-9.65288
▁어울리	-9.65308
▁행복하게	-9.65367
▁싫	-9.65377
이별에	-9.65451
▁데려다	-9.65518
부러워요	-9.65526
여전	-9.65589
▁어쩔	-9.65645
리기	-9.6571
▁순	-9.6582
▁빼	-9.66066
▁했	-9.66121
▁바빠	-9.66156
▁빌려	-9.66166
▁빠지	-9.66186
▁어디서	-9.66192
▁청	-9.662
다가도	-9.66241
▁담	-9.6627
리고	-9.66456
듯이	-9.66516
▁적극적	-9.66548
▁쓴	-9.66592
▁됐네	-9.66626
▁자리	-9.66687
부모님	-9.66814
직접적	-9.66874
▁생각이에요	-9.66908
▁놀이	-9.66973
▁공부하	-9.67005
형	-9.67007
▁다행이	-9.67029
달째	-9.67259
정신	-9.67297
▁더워	-9.67302
▁돌려	-9.67347
▁저에게	-9.67403
▁짓	-9.67539
어머	-9.67556
▁음악	-9.67571
▁연락하지	-9.67595
▁오면	-9.67606
지면	-9.67681
▁부분이	-9.6777
▁지나가	-9.67797
▁뜻	-9.67905
▁선톡	-9.67918
▁다리	-9.67987
명	-9.68172
▁찾기	-9.68199
관심	-9.6826
▁갔다	-9.68266
조	-9.6841
▁축하해요	-9.68439
▁하네	-9.68502
현재	-9.68529
손	-9.68598
말해보세요	-9.68633
ᄏ	-9.68792
▁변	-9.68794
이유	-9.68888
날씨	-9.68997
위	-9.69003
▁아니니	-9.69087
적당히	-9.69122
축하해요	-9.69173
▁남기	-9.69199
환승	-9.69312
서로에	-9.69475
▁ᅲ	-9.69506
힘	-9.69595
▁전해	-9.69606
▁고백하는	-9.69655
▁읽	-9.69709
▁늘어	-9.69765
만으로	-9.69793
▁향	-9.69821
▁생각에	-9.69852
▁표현해	-9.69865
▁솔직하	-9.69875
▁슬퍼	-9.69938
▁끊	-9.70152
▁했나봐	-9.70222
▁당당하	-9.70249
▁기다리는	-9.70359
▁마주치	-9.70481
혼자만	-9.7053
속에서	-9.71016
▁있으니	-9.712
▁클럽	-9.71375
지고	-9.71464
▁친구로	-9.7165
▁가져보	-9.71709
▁노력해	-9.7177
▁타다	-9.71858
이별의	-9.71894
긍정적	-9.72134
▁불	-9.72141
냈어	-9.72162
▁없겠네	-9.72202
먹기	-9.72316
▁슬픈	-9.72326
▁생	-9.72617
▁틀	-9.7265
싶어	-9.72852
량	-9.72964
▁미	-9.73201
▁지나	-9.73216
▁무섭	-9.73255
▁많지	-9.73384
▁가능할	-9.73568
곤	-9.73591
염	-9.7363
줄까	-9.73632
▁맡	-9.73634
▁공무원	-9.73634
▁청첩장	-9.73634
▁휴대폰	-9.73634
껏	-9.73634
닉	-9.73634
▁아까워	-9.73635
억지로	-9.73636
▁배고파	-9.73638
▁딸기	-9.73643
▁빠르	-9.73645
▁다행	-9.73677
▁맞는걸까	-9.73683
▁향수	-9.73694
▁고백했는데	-9.73722
▁사실	-9.73724
▁이겨내	-9.73785
▁어렵	-9.73819
▁싶습니다	-9.73861
▁답답해	-9.73887
▁않겠지만	-9.7391
노력하	-9.73943
▁취업	-9.73944
볼	-9.73956
▁아프다	-9.74012
앞머리	-9.74046
필요하다면	-9.74062
자신이	-9.74069
▁곁에	-9.74072
▁떨어져	-9.74129
▁극복할	-9.7421
▁놔	-9.74238
▁만나기로	-9.74257
▁채워	-9.74262
▁상상	-9.7427
▁과거	-9.74277
▁먼지	-9.74344
다녀오세요	-9.7443
▁느끼는	-9.74476
▁축구	-9.74522
▁노래방	-9.74667
오세요	-9.74694
▁막말	-9.74726
▁인정받	-9.74832
연	-9.74861
▁공	-9.74879
▁유지하	-9.74923
▁인상	-9.75018
▁있다는	-9.75026
▁말투	-9.7503
▁시어머니	-9.75037
▁사랑한다면	-9.7514
년간	-9.75217
▁올려	-9.75253
▁않는데	-9.75282
▁라면	-9.75302
셨나봐	-9.75308
▁들었어	-9.75396
▁벗어나	-9.75479
▁생각하면	-9.75491
▁둘이	-9.75519
▁바쁜	-9.75539
▁누군가	-9.75556
▁걱정이	-9.75586
힘들겠지	-9.75664
들에게	-9.75727
▁생각만	-9.75796
▁시작이	-9.75939
▁이혼	-9.75978
부모님이	-9.76082
▁입어	-9.76327
▁몰	-9.76455
▁나을까	-9.76476
▁주변	-9.76477
거울	-9.76568
▁남자랑	-9.76574
▁생각했나봐	-9.76741
▁주말이	-9.76918
각	-9.76936
헤어짐	-9.76992
▁남사친이	-9.7702
기를	-9.77049
으	-9.77117
▁혼	-9.77121
▁행복할	-9.77145
▁모르겠	-9.772
▁안되	-9.77259
생각만	-9.77443
신경쓰	-9.77464
갑	-9.77498
▁상대방	-9.77556
▁회식	-9.77592
▁있겠	-9.77737
치고	-9.7776
▁남았	-9.77798
▁쉬어가	-9.77883
레	-9.77922
게임	-9.77953
휴가	-9.78002
고싶어	-9.78003
▁나온	-9.78062
본인	-9.78122
▁들어와	-9.78142
▁시작하	-9.78175
▁찾아가	-9.78202
고민하	-9.78324
▁적당히	-9.78398
▁누가	-9.78547
친	-9.78595
▁명	-9.78696
건지	-9.79119
▁생긴	-9.79204
아픔	-9.79277
▁배려	-9.79288
쉽	-9.79306
▁선택이	-9.79494
따라	-9.79521
▁후에	-9.79595
목	-9.796
▁재미있어	-9.79638
글로	-9.79749
변화	-9.79787
괜찮아요	-9.79791
▁사랑하	-9.79906
▁인생이	-9.79928
안타깝	-9.7996
카페	-9.80072
산	-9.80149
꽃	-9.80149
기다릴	-9.80281
괜찮은	-9.80349
허	-9.80402
무엇이	-9.80406
성격이	-9.80421
▁야근	-9.80458
신경쓰지	-9.80459
누가	-9.80626
기다리는	-9.80654
포	-9.80692
▁이름이	-9.80729
거죠	-9.8078
▁기본이	-9.80855
하니	-9.80867
▁미련이	-9.80885
▁짐	-9.81137
기분이	-9.81284
▁같다	-9.81292
▁방학	-9.81336
▁자유	-9.81338
공	-9.81396
도시	-9.81516
▁두고	-9.81584
▁적어	-9.81593
선생님이	-9.81689
▁심하	-9.81774
▁많을	-9.81789
추	-9.81815
▁마다	-9.81949
▁계절이	-9.81996
▁표현이	-9.82011
▁나타	-9.82176
잘하는	-9.82178
▁썼	-9.82298
짝사랑이	-9.82318
였어	-9.82325
▁과	-9.82401
▁속에	-9.82424
▁부족한	-9.82524
▁최악	-9.82641
봐도	-9.82706
못한	-9.82733
▁맘이	-9.82821
있어	-9.82822
하길	-9.83017
▁냄새	-9.83074
▁힘들었을	-9.83164
▁연락처	-9.83176
▁거절	-9.83201
나면	-9.83245
녀	-9.83319
▁고백하	-9.83345
▁보니	-9.83457
거같아	-9.83686
▁끄	-9.837
▁능력	-9.83869
기다리면	-9.83969
▁본	-9.83997
▁싫어하는	-9.83997
하셨	-9.84066
▁동물	-9.84171
▁오네	-9.8418
▁사귄	-9.84268
▁청소	-9.84276
▁흐	-9.84546
▁지워	-9.84646
?,1	-9.84704
릿	-9.84743
▁빼빼로	-9.84745
▁띄	-9.84746
▁밝혀	-9.84747
▁대출	-9.8476
깨끗	-9.84761
▁붙여	-9.84766
▁생겨	-9.84767
회원	-9.84769
▁간접적	-9.84771
▁사업	-9.84776
▁싸워	-9.84784
▁언니	-9.84787
청소	-9.84822
▁되었습니다	-9.84835
▁결심	-9.84883
▁거기까지인	-9.84899
▁일어났	-9.84902
위로봇	-9.84934
다음부터	-9.85028
▁있었으면	-9.85038
▁터	-9.85104
▁빠를	-9.85105
▁말해볼까	-9.85128
▁나쁘지	-9.85143
▁이러지	-9.8517
▁힘듭니다	-9.85244
▁흔적	-9.85253
▁힘든가봅니다	-9.85323
▁헤어졌네	-9.85366
▁사람만	-9.85387
테니	-9.85416
▁팔	-9.85417
▁도와줘	-9.85426
▁조급해	-9.85459
▁놓아	-9.85484
▁나올	-9.85511
▁이용	-9.85529
▁운명	-9.85578
▁결혼하면	-9.85596
▁거의	-9.85613
▁경험이	-9.85649
▁좋아해주는	-9.8566
▁9	-9.85662
▁보이지	-9.85691
▁고백해도	-9.85698
막혀	-9.85709
▁멋져	-9.85736
은연	-9.85747
▁아빠	-9.85805
▁왔으면	-9.85814
▁제발	-9.85816
▁주말에	-9.85826
스러운	-9.85832
▁여자친구에게	-9.85869
▁줄여	-9.859
▁끝났어	-9.86027
▁가자	-9.86037
▁바라는	-9.8605
▁심리	-9.86103
▁헤어지는	-9.86109
해질	-9.86136
▁전공	-9.86229
▁없나봐	-9.86284
파	-9.86341
▁나가기	-9.86408
▁가능할까	-9.86433
결정	-9.86468
하겠죠	-9.86569
▁예민한	-9.86625
했네	-9.86657
▁지울	-9.86678
▁푹	-9.86695
▁선배	-9.86806
▁내보세요	-9.86823
▁잘못인	-9.86892
▁꿀	-9.86903
이었으면	-9.8691
▁되었나	-9.87069
▁해야할까	-9.87087
▁방	-9.8712
줬으면	-9.87144
드릴	-9.87162
▁산	-9.87213
▁필요하	-9.87286
▁살기	-9.87314
▁미안해	-9.87481
속	-9.87547
▁회사에서	-9.87562
하러	-9.87663
▁찍어	-9.8769
▁애들	-9.87723
▁잘해	-9.87939
흔들리지	-9.87943
▁있었을	-9.8815
▁다니	-9.88185
▁성공	-9.88208
▁이해가	-9.8827
가세요	-9.88284
▁문득	-9.8838
▁SNS	-9.88441
었으면	-9.88472
▁교회	-9.88528
▁못해요	-9.88594
▁우울해	-9.88641
▁왔네	-9.88641
을텐데	-9.88657
▁잊기	-9.88757
▁망	-9.8876
되는	-9.88807
하다보	-9.88815
▁흘렀	-9.88838
▁지치	-9.88872
▁싸우	-9.89015
▁부담스럽	-9.89198
▁가는데	-9.89253
▁올라	-9.89262
▁이유는	-9.89353
▁차분	-9.89461
▁사랑해주	-9.8966
정이	-9.89697
겠	-9.8973
▁한다	-9.89732
▁헤어지자	-9.89748
▁바쁘	-9.89776
하시	-9.89856
겠습니다	-9.89895
▁마셔야	-9.8992
고싶은데	-9.89949
우선	-9.9006
▁가능하	-9.90083
상대방에	-9.90117
▁건강	-9.90191
기로	-9.90231
▁여사친이	-9.90235
▁평생	-9.90449
르고	-9.90485
운전	-9.90526
개월이	-9.90605
▁방학이	-9.90764
야돼	-9.90819
힘들겠	-9.90856
년의	-9.9095
▁썸타	-9.90965
▁처음에	-9.90985
로부터	-9.90994
▁매력	-9.91014
우면	-9.91094
문	-9.91142
▁돌아	-9.91202
짓	-9.91348
▁버	-9.91374
▁중간	-9.91504
체	-9.9156
▁먹었	-9.91603
▁양	-9.91689
▁말하	-9.91744
사귀기	-9.91789
었	-9.91797
생활	-9.91965
▁상처받	-9.9198
콜	-9.92154
▁상태	-9.9219
기분전환	-9.92211
완전	-9.92345
▁비가	-9.92347
번호	-9.92356
▁온다	-9.92391
영화	-9.92411
▁힘들겠	-9.9245
합	-9.92519
예쁘	-9.92544
마스크	-9.92583
부담스럽	-9.92611
개인	-9.92642
우산	-9.92676
미래	-9.92684
자신감	-9.92688
▁바다	-9.92717
가슴	-9.92735
상황이	-9.92747
쇼핑	-9.92747
철	-9.92748
▁길어	-9.92748
옷	-9.92762
▁멋진	-9.92767
▁ᅲᅲ	-9.92784
아름다	-9.92784
칭찬	-9.92786
▁배우는	-9.92877
봤는데	-9.9294
죄	-9.92956
믿	-9.92956
▁않을까	-9.9303
벌	-9.93042
지네	-9.93102
감정에	-9.93123
소화	-9.93127
▁진정	-9.93202
안전	-9.93205
▁결혼할	-9.93268
▁다가	-9.93381
▁있기	-9.93428
있	-9.9345
저에게	-9.93491
시작이	-9.93593
▁진	-9.93689
이런	-9.93763
▁바꿔	-9.93899
▁없을까	-9.94044
들어	-9.94127
▁과정이	-9.94281
전화	-9.9445
름	-9.94481
자신만	-9.94545
▁넣	-9.94648
▁즐기	-9.94693
▁태도	-9.94695
▁질	-9.94804
▁노력하	-9.95028
준비	-9.95371
여자	-9.95434
▁보여주	-9.95689
▁차리	-9.95733
연락이	-9.9574
▁차별	-9.95939
재미있	-9.95967
소리	-9.95968
연락을	-9.95968
바람	-9.95989
▁어떨까	-9.96083
▁의심	-9.96108
▁마무리	-9.96269
▁견뎌	-9.96272
아직도	-9.96462
받는	-9.96478
▁말해주	-9.96797
▁떨리	-9.9688
▁퇴근	-9.97045
▁신혼	-9.97052
▁있다	-9.97078
▁금	-9.97101
거려	-9.97112
나게	-9.97117
님	-9.97137
▁단단	-9.97188
▁파혼	-9.97198
킁	-9.97245
뻑	-9.97245
▁느낄	-9.97246
▁삼겹살	-9.97246
▁웬수	-9.97246
▁택배	-9.97246
봅시다	-9.97246
왤	-9.97246
푼	-9.97246
▁우선순위	-9.97246
▁인턴	-9.97247
▁까먹었다	-9.97247
꼬박	-9.97251
▁통화	-9.97261
▁천재	-9.97263
▁느껴져	-9.97266
▁대단하	-9.97267
▁불편해	-9.97298
교통	-9.97323
▁좋았는데	-9.97365
영화관	-9.97372
보일러	-9.97373
후련하	-9.974
▁성공할	-9.97444
▁중국어	-9.9747
더라구	-9.97476
▁차가워	-9.97491
▁알아차	-9.97501
▁생겼으면	-9.97511
▁속상해	-9.97532
개월째	-9.97548
▁안되네	-9.9755
▁흐르고	-9.97579
▁춥	-9.97615
▁느낌이야	-9.97616
▁움직이	-9.97633
▁계	-9.97651
▁들여	-9.97651
▁넓	-9.97699
▁시선	-9.9772
▁지진	-9.97744
▁명절	-9.9775
▁맛집	-9.97779
▁생각했는데	-9.97782
▁버려	-9.9782
▁잤어	-9.9783
▁찌	-9.97869
▁맞을까	-9.97908
▁나아질	-9.97916
그럼요	-9.98046
기다리	-9.98051
▁먹어보세요	-9.98091
▁착한	-9.98098
망	-9.98116
▁놓치	-9.98122
▁뭐할까	-9.98123
▁아니지만	-9.98209
▁즐거	-9.98245
채	-9.98248
능력이	-9.98269
▁알기	-9.98278
▁잊는다는	-9.9828
▁오랫	-9.98337
▁고마워	-9.98365
▁고쳐	-9.98367
▁자격증	-9.98386
우연히	-9.9842
▁쓸	-9.98428
▁사랑했나봐	-9.98433
나만	-9.98459
▁위해서	-9.98487
▁헤어질	-9.98528
▁시키	-9.98583
▁보낼	-9.98614
타	-9.98669
▁속도	-9.98674
▁있었	-9.98685
▁널	-9.98865
▁여자친구한테	-9.98897
▁복잡하겠	-9.98911
▁태어난	-9.98928
▁페북	-9.98939
▁치료	-9.98948
▁지내는	-9.98955
▁느껴지	-9.98956
▁sns	-9.98976
▁왔습니다	-9.99044
▁모르게	-9.9908
▁당했어	-9.99086
▁그리움	-9.99093
▁썸인가	-9.99094
▁허리	-9.9915
지갑	-9.99186
나서	-9.99275
▁봤어	-9.99276
▁파도	-9.99314
▁해야겠다	-9.99323
▁그대	-9.99335
리가	-9.99342
▁해야할지	-9.99452
▁생활	-9.9949
▁타이밍	-9.99506
았어	-9.99517
▁설	-9.9954
▁너에게	-9.9956
집에	-9.99571
좋으면	-9.99638
▁응원합니다	-9.99657
하늘	-9.99664
▁깨요	-9.99734
▁하는건	-9.99739
물리적	-9.99748
▁많아서	-9.99749
▁심	-9.99839
▁지켜보	-9.99877
▁바라지	-9.99915
▁놀러가고	-9.99922
▁있을지	-10.0002
▁편해	-10.0004
▁푸	-10.0005
▁은근	-10.0014
▁중입니다	-10.0017
▁알았어	-10.0018
할거야	-10.003
강	-10.0043
▁노는	-10.0049
네여	-10.005
▁카드	-10.0056
려나	-10.0059
▁이기적인	-10.0063
▁옴	-10.0065
하지만	-10.0076
▁잊으	-10.0097
▁아니죠	-10.01
▁실감	-10.0103
▁부자	-10.0105
▁허	-10.011
▁친해지는	-10.0113
▁싸웠	-10.0115
▁있음	-10.0118
상처받	-10.0118
▁참는	-10.0123
▁재미없	-10.0125
▁무시하는	-10.0127
▁자연스러	-10.0132
▁알면	-10.0133
▁세상이	-10.0144
함이	-10.0153
▁잘못이	-10.0154
남들	-10.017
사는	-10.0179
▁나에게	-10.0183
▁말하지	-10.019
▁높	-10.0194
▁찾는	-10.0201
▁거면	-10.0206
▁인정하	-10.0211
▁어렵네	-10.0219
드세요	-10.0235
▁주변에	-10.0241
▁심한	-10.0251
▁착각	-10.0254
▁기다릴	-10.0255
누구에게	-10.0265
▁아기	-10.0287
▁끝났	-10.0301
▁남을	-10.0302
▁같지	-10.0305
▁문신	-10.031
아지	-10.0315
력	-10.0318
▁좋아하는거	-10.0319
▁있을까요	-10.032
▁끝에	-10.0322
▁하던	-10.0334
▁회사에	-10.0336
웠	-10.0338
▁무엇이	-10.0343
▁고치	-10.0346
▁관리하	-10.0353
▁맛있는	-10.0371
▁올해	-10.0377
▁다르겠	-10.038
귀엽	-10.0397
졌으면	-10.0399
▁기본	-10.0409
▁시작해보	-10.041
▁먹으	-10.0428
▁준비하는	-10.043
▁긴장	-10.0446
았는데	-10.0447
해줘	-10.0449
운명	-10.0451
일이	-10.0452
▁취해	-10.0457
래요	-10.046
▁마음으로	-10.0464
나는	-10.0468
▁화장실	-10.0469
▁성격	-10.0469
꾸	-10.047
기적	-10.0507
▁휴가	-10.0512
▁생긴다	-10.0515
개	-10.052
▁드려	-10.0522
▁멋있	-10.0538
가지	-10.0542
타기	-10.0542
▁빌어	-10.0542
애매하	-10.0545
행복	-10.0547
불	-10.0548
▁비교하	-10.0566
▁신청	-10.0573
덜	-10.0577
호감	-10.0578
▁울	-10.0587
▁싸움	-10.0589
▁동생	-10.0592
▁나눠	-10.0594
탈	-10.0597
▁맞을	-10.0601
▁편한	-10.061
욕	-10.0612
이상형	-10.0614
조심	-10.0626
▁장소	-10.0628
책	-10.0631
소개팅	-10.0638
▁결혼하	-10.0649
달콤	-10.0662
놈	-10.0666
4	-10.0673
아닌	-10.0684
근처	-10.0688
▁무엇	-10.0688
SNS	-10.069
달달	-10.0691
문득	-10.0697
믿음이	-10.0698
보통	-10.0699
완벽	-10.07
가벼	-10.0703
극	-10.0705
따로	-10.0708
나이	-10.0708
만해도	-10.071
뒤	-10.0712
그동안	-10.0717
연인	-10.0721
온	-10.0727
깨	-10.0729
최	-10.0735
일까요	-10.0744
자세	-10.0745
▁멍	-10.0747
▁외	-10.075
잠이	-10.0755
▁기억이	-10.0765
▁궁금	-10.0772
해봐요	-10.0773
스타일	-10.0777
진다	-10.0779
인가봅니다	-10.0787
비가	-10.079
저한테	-10.0802
차분	-10.0807
▁삼	-10.0809
▁미치겠	-10.0818
▁전남친이	-10.0819
방법	-10.0821
오해	-10.0834
▁울어	-10.0843
▁끝일	-10.0877
상대에	-10.0879
▁같아서	-10.0882
되면	-10.0895
드려요	-10.0896
▁답이	-10.0907
▁연락하	-10.0921
▁가사	-10.0925
▁뻔	-10.0934
드려	-10.0947
▁도서관	-10.0983
▁나중에	-10.0992
▁기간	-10.0996
능	-10.0996
잖아	-10.0996
▁필	-10.1006
사정	-10.1011
했지만	-10.1016
▁운동하	-10.1031
▁취향	-10.1042
되겠	-10.1047
▁아닐까	-10.105
▁받았	-10.1052
밤에	-10.1052
▁살면	-10.1063
▁맞아	-10.1066
해줄	-10.1077
▁가능해	-10.1079
없어	-10.1089
만한	-10.109
▁나왔	-10.1098
▁언젠	-10.1099
시나	-10.1103
▁후련하	-10.1107
말씀해	-10.1113
▁나눠보	-10.1113
▁평	-10.1119
▁맛있	-10.1134
▁그럴까	-10.1138
도전	-10.1143
▁안되겠지	-10.1144
쯤	-10.1144
씨	-10.1145
▁거기까지였	-10.1146
▁내요	-10.115
▁남편	-10.115
▁택시	-10.1151
흥	-10.1153
즈	-10.1153
▁셀카	-10.1153
▁아름답	-10.1153
▁앉	-10.1153
꽤	-10.1153
노트북	-10.1153
동호회	-10.1153
쩍	-10.1153
출퇴근	-10.1153
▁결혼적령기	-10.1153
▁여드름	-10.1153
▁유효기간	-10.1153
▁찔	-10.1153
강렬	-10.1153
▁괴로워	-10.1153
▁고쳐쓰는	-10.1153
▁단둘이	-10.1153
▁두려움	-10.1153
▁제주도	-10.1153
▁어필해	-10.1153
▁데려가	-10.1153
▁버티	-10.1154
▁발목	-10.1155
축하합니다	-10.1155
▁잡으세요	-10.1155
▁아름다워	-10.1155
▁15	-10.1156
▁맞추	-10.1156
▁흘려	-10.1157
▁깨닫	-10.1158
▁포장	-10.1159
줬는데	-10.116
▁답답하네	-10.116
▁기울여	-10.1163
▁정리될	-10.1163
▁부드	-10.1165
▁세워	-10.1166
라니	-10.1169
신혼여행	-10.1176
▁좋으시	-10.1179
▁건조	-10.118
▁점심	-10.1182
▁삭제	-10.1182
▁어려	-10.1189
었습니다	-10.1189
▁악몽	-10.1192
▁신경쓰	-10.1199
▁좋아했는데	-10.12
▁일들이	-10.1201
▁불안해	-10.1202
했나	-10.1204
▁베	-10.1207
▁빠져	-10.1211
▁멀리	-10.1211
▁정류장	-10.1212
▁싶다고	-10.1213
▁기준	-10.1218
▁비난	-10.1221
▁예감	-10.1225
▁가치	-10.1226
▁안되는데	-10.1228
▁행복해질	-10.1234
▁많다	-10.124
일차	-10.1241
▁중요한데	-10.1253
▁코스	-10.1254
뿐	-10.1254
▁거지	-10.1255
▁집착해	-10.1257
▁여름	-10.126
▁딴	-10.1269
▁잊혀질	-10.127
▁끝을	-10.127
▁땀	-10.1271
▁땅	-10.1271
▁짠	-10.1271
산책	-10.1272
▁허전하	-10.1272
▁에휴	-10.1277
▁이미	-10.1277
▁핑계	-10.1278
▁패턴	-10.1278
▁염색	-10.1278
이번	-10.1278
▁업무	-10.1278
▁콩깍지	-10.1281
▁외로움	-10.1284
▁변한	-10.1285
▁애기	-10.1287
▁고맙다	-10.1291
야할까	-10.1291
왔는데	-10.1293
시다	-10.1295
▁호	-10.1295
▁걸려	-10.1298
올	-10.1301
였	-10.1307
▁봐서	-10.1317
▁먹었어	-10.1319
▁공감	-10.1326
취	-10.1329
▁생각할까	-10.133
▁여자와	-10.1332
▁떨어지	-10.1336
▁그녀에게	-10.134
▁참견	-10.1348
▁외롭	-10.1348
▁목표	-10.1349
▁군	-10.1352
▁남자한테	-10.1365
▁비슷	-10.1374
▁노력하는	-10.1376
▁당연	-10.1386
▁사람인	-10.139
▁될거예요	-10.1393
▁입지	-10.1404
▁의외	-10.1413
▁설렘	-10.1419
▁놈	-10.1422
▁말라고	-10.1424
▁최	-10.1431
▁가능해요	-10.1432
하는거	-10.1433
▁그저	-10.1439
되는데	-10.1449
▁취직	-10.1452
▁읽어	-10.1457
▁못하	-10.1458
▁어찌	-10.1463
▁잊어야	-10.1464
▁전화가	-10.1468
▁기간이	-10.1469
▁되겠지	-10.147
▁죄	-10.1477
노력	-10.1478
외	-10.1481
▁상의	-10.1482
▁무서운	-10.1488
하겠습니다	-10.1494
▁계획	-10.1497
▁지난	-10.1502
▁집착하	-10.1509
가능합니다	-10.1517
▁이성으로	-10.1517
▁귀찮	-10.1518
▁이어나가는	-10.1519
▁정의	-10.1522
▁슬	-10.1525
듣기	-10.1541
갔어	-10.1542
뿐이	-10.1546
받고	-10.1556
▁걱정되겠	-10.1559
▁착	-10.1561
▁분명	-10.1563
니가	-10.1571
값	-10.1573
▁알면서도	-10.1576
▁됐	-10.1579
▁한거	-10.1588
▁표현하는	-10.1595
려주세요	-10.1605
친구한테	-10.1621
시면	-10.1638
의미	-10.1655
이라니	-10.1659
▁사과	-10.166
▁고르	-10.1663
드리	-10.1682
▁야경	-10.1684
▁걸음	-10.1688
▁나가야	-10.1705
▁사람인데	-10.172
▁미래	-10.1722
▁별로라	-10.1726
▁샤워	-10.1731
하고싶어	-10.1737
번호를	-10.1741
수도	-10.1747
▁있었나요	-10.175
▁보여요	-10.1753
▁마음인	-10.1755
▁본인	-10.1758
▁소화	-10.1759
양해	-10.1769
▁붙잡	-10.177
▁고민하	-10.1778
오면	-10.1781
▁잡았	-10.1784
▁아침이	-10.1789
국	-10.1798
▁답답할	-10.1801
▁맞나	-10.1803
▁가족이	-10.1818
▁좋아한다	-10.1818
▁받아야	-10.1819
▁이별하고	-10.183
▁꺼	-10.1838
▁여행가	-10.1851
▁조심	-10.1857
▁찾아오	-10.1857
입	-10.1862
▁줄까	-10.1863
▁마음만	-10.1867
▁전화하는	-10.187
▁힘들겠어	-10.1872
간다	-10.1891
▁갔	-10.1892
▁화가	-10.1893
짧지	-10.1895
▁알려	-10.1904
▁살아가	-10.1905
▁이성	-10.1907
뒤에서	-10.1907
사랑한	-10.1917
▁옷이	-10.1921
▁연락해보	-10.1937
형이	-10.1942
이길	-10.1955
신경쓰이	-10.198
▁못했	-10.1982
데이트	-10.1989
▁하려고	-10.199
말해줘	-10.1994
하고싶	-10.1995
▁덜할	-10.2
▁병원	-10.2002
▁헬스장에	-10.2003
▁보게	-10.2006
▁선생님	-10.2009
....	-10.2016
▁간절하	-10.2034
편한	-10.2036
▁용기내	-10.2042
▁늦어	-10.2052
색	-10.2057
▁스타일이	-10.2059
자꾸	-10.2069
▁살지	-10.2078
경	-10.2084
선물	-10.2085
▁느껴	-10.209
▁세상에	-10.2103
▁공부해야	-10.211
행	-10.2119
▁그만하고	-10.2139
▁혼자만	-10.2174
▁헤어지면	-10.2177
▁쓰이	-10.2193
▁하지마	-10.2194
순간	-10.2195
▁늘	-10.2209
▁좋을까요	-10.221
영상	-10.222
▁아니고	-10.2221
얼굴	-10.2222
카톡	-10.2222
데요	-10.2222
▁끝인	-10.2224
헤어진	-10.2224
▁복잡하	-10.2226
▁잘해주는	-10.2245
울어	-10.2259
학기	-10.2264
▁나온다	-10.2267
▁챙겨주	-10.2276
▁죽고	-10.228
정리를	-10.2281
▁겨	-10.2282
직	-10.2284
▁연애하고	-10.2285
순	-10.2288
▁있어야	-10.2296
공통	-10.2298
▁사람인가	-10.2304
▁째	-10.2305
▁실망	-10.2305
청	-10.2308
엄마	-10.2319
심경	-10.233
상담	-10.2333
역	-10.2336
소원	-10.2339
도서관	-10.2339
분위기	-10.234
사귀고	-10.2341
보험	-10.2342
냉장고	-10.2343
타이밍이	-10.2343
알면서도	-10.2347
▁받아보	-10.2348
궁	-10.2354
계획	-10.2355
조건	-10.2356
▁가치관	-10.2356
▁단계	-10.2358
바빠	-10.2359
분명	-10.236
컨	-10.2361
삶	-10.2361
없는	-10.2362
똑같은	-10.2365
좋아하면	-10.2367
버려	-10.2368
깊은	-10.237
빌려	-10.2371
빼	-10.2372
판	-10.2372
봄	-10.2373
꿈에	-10.2374
옴	-10.2375
위로	-10.2375
커플	-10.2378
최선	-10.2378
▁있었어	-10.238
슬	-10.238
행복한	-10.2381
뿌	-10.2385
정리가	-10.2392
▁결정이었	-10.2396
언	-10.2402
▁이상형이	-10.2402
인내	-10.2406
▁삭제하는	-10.2407
후회할	-10.2413
새로	-10.2416
▁슬프	-10.242
▁나네	-10.2424
나의	-10.2441
▁수다	-10.2448
건데	-10.2457
버리	-10.2463
머	-10.2477
▁이러	-10.249
연락해	-10.2502
▁못하면	-10.2505
카드	-10.2515
맛난	-10.2518
있지	-10.2519
▁노	-10.2535
▁몇일	-10.2549
▁챙	-10.2549
▁돌리	-10.2551
▁공시	-10.2556
▁보내주	-10.2558
이는	-10.2568
했다	-10.2568
연애에	-10.2576
▁성공하	-10.2581
▁인간	-10.2585
야하나	-10.2591
▁돌아오	-10.2601
▁일년	-10.2601
만나지	-10.2606
▁흔들리	-10.2607
▁멋	-10.2618
▁헤어졌	-10.2625
기다리지	-10.2626
▁기원	-10.2628
▁부담스러워	-10.2628
▁의지	-10.263
▁뭔	-10.2639
보내는	-10.2653
▁무시해	-10.2664
▁짱	-10.2685
리면	-10.2704
소중	-10.2704
침이	-10.271
▁헤어져	-10.2713
하던	-10.2724
▁치	-10.2724
복잡한	-10.2738
분이	-10.2739
▁노력해보	-10.274
실감	-10.2751
▁흘러	-10.2752
워질	-10.2756
셨네요	-10.276
▁받아들이	-10.2762
▁영원	-10.2769
▁젖	-10.277
▁짜증	-10.2771
척	-10.2773
아서	-10.2774
그만	-10.2774
찰	-10.2784
▁부탁해	-10.2789
▁탔	-10.2791
▁힘드신가	-10.2792
빛	-10.2792
선이	-10.2794
▁메뉴	-10.2795
▁30	-10.2797
▁화내	-10.2803
▁만족	-10.2805
▁샀	-10.2806
카	-10.281
끝이	-10.2813
정규직	-10.2816
잼	-10.2819
▁체육대회	-10.282
득템	-10.282
▁기프트콘	-10.282
▁낚시	-10.282
▁눈썹	-10.282
▁부딪혔	-10.282
▁셀프웨딩	-10.282
▁쉴	-10.282
▁스타트업	-10.282
▁스터디	-10.282
▁어젯밤	-10.282
▁이벤트	-10.282
▁잠재력	-10.282
▁지겨워	-10.282
▁화이트데이	-10.282
강습	-10.282
바퀴	-10.282
욱	-10.282
팸	-10.282
합격	-10.282
현금영수증	-10.282
▁보이스피싱	-10.282
▁생리통	-10.282
▁관련	-10.282
▁낭비	-10.282
벅	-10.282
센터	-10.282
▁추석	-10.282
▁누굴	-10.282
베풀	-10.282
칼로리	-10.282
▁실례	-10.282
▁소개시켜	-10.282
▁치유	-10.282
형편	-10.282
▁스테	-10.2821
▁소유	-10.2821
▁마주쳐	-10.2821
▁안경테	-10.2821
애정표현	-10.2821
▁교양	-10.2821
▁조카	-10.2821
▁분담	-10.2821
▁외국인	-10.2821
▁의견	-10.2821
▁잃어버	-10.2822
▁택시비	-10.2822
▁추운	-10.2822
▁걱정된다	-10.2823
테리	-10.2823
▁소심해	-10.2824
▁시간표	-10.2824
▁우린	-10.2824
▁대체	-10.2824
동감	-10.2825
▁달라져	-10.2825
▁노려	-10.2825
▁놀아줘	-10.2825
▁동성	-10.2826
▁더러워	-10.2826
▁추천해줘	-10.2826
▁부부	-10.2827
▁아님	-10.2828
▁대우	-10.2829
지긋	-10.283
▁넘었네	-10.283
▁이별했습니다	-10.2831
▁장점	-10.2832
공원	-10.2832
▁일어날	-10.2833
▁끝났으면	-10.2834
▁자취	-10.2835
▁한강	-10.2836
▁부탁	-10.2838
▁나누	-10.284
신고하	-10.2841
맥이	-10.2842
▁낫겠지	-10.2842
행복해보여	-10.2842
▁먹었는데	-10.2845
▁끝날	-10.2845
▁꺼내	-10.2845
▁줄어들	-10.2846
▁불공평해	-10.2846
▁보답	-10.2847
▁같음	-10.2849
받았어	-10.2851
▁행복할까	-10.2855
▁수영	-10.2857
▁별로야	-10.2857
▁전세	-10.2858
바늘	-10.2861
▁며	-10.2862
▁웃어보세요	-10.2862
▁응원해요	-10.2864
인공	-10.2865
스트레칭	-10.2868
간절	-10.2868
▁반장	-10.2871
▁증오	-10.2874
아주	-10.2874
바이	-10.2878
▁찼	-10.2879
▁낳	-10.2879
▁어색해	-10.2879
▁비싼	-10.2884
▁최근	-10.2884
▁성형	-10.2885
▁축복	-10.2886
▁차례	-10.2887
▁새출발	-10.2887
▁표정	-10.2888
▁후유증이	-10.2888
▁받으면	-10.2889
▁챙기	-10.2889
▁기울이	-10.2892
짐에	-10.2894
▁태어나	-10.2894
▁좋을거	-10.2897
▁연휴	-10.2899
▁아닌거	-10.2902
인걸까	-10.2903
오네	-10.2903
위치	-10.2907
▁참았어	-10.2908
▁갔는데	-10.291
▁교	-10.2912
▁복잡한가	-10.2914
▁안되나	-10.292
▁맛있어요	-10.2924
▁반복	-10.2926
질러	-10.2927
▁돌아가고	-10.2927
▁오랜	-10.2929
▁힘든데	-10.2931
▁멀어지	-10.2932
▁판단	-10.2935
하려는	-10.2937
▁언제까지	-10.2941
▁무기력	-10.2942
▁갚	-10.2951
▁순간이었	-10.2956
안녕하세요	-10.2957
▁고기	-10.2963
따뜻하	-10.2964
▁대답	-10.2965
▁메모	-10.2967
▁벽	-10.2967
▁의욕	-10.2969
▁에너지	-10.297
▁나갈	-10.297
▁망가	-10.2971
▁성향	-10.2973
▁여우	-10.2974
▁시간이겠	-10.2976
▁정신차리	-10.298
▁길러	-10.2987
▁기다렸	-10.299
▁끝났네	-10.2992
▁위험해	-10.2992
마음이라	-10.2997
는구나	-10.2998
▁성별	-10.3004
망했어	-10.3007
3	-10.3012
부지	-10.3015
▁사수	-10.3019
▁전기	-10.3023
장이	-10.3024
▁하다보	-10.303
▁높아	-10.3031
▁빠졌	-10.3034
▁크기	-10.3034
▁밀어	-10.3039
그럴만	-10.3045
때도	-10.3045
야할	-10.3046
▁배우자	-10.3047
▁싱숭생숭	-10.305
▁경쟁	-10.3051
▁센스	-10.3051
▁노후	-10.3053
▁사랑받고	-10.3053
▁있대	-10.3055
▁베터리	-10.3055
▁왔나	-10.3055
▁차라리	-10.3056
▁다가오	-10.306
리를	-10.3063
▁없지만	-10.3069
▁업	-10.3076
▁계기	-10.308
▁티내	-10.3081
책임	-10.3086
▁적어보	-10.3096
금연	-10.3098
▁잠시	-10.3101
▁클	-10.3111
▁초대	-10.3118
▁행운	-10.3118
▁점이	-10.3119
▁뿌	-10.3123
▁나아졌	-10.3124
▁아무렇지	-10.3128
주지	-10.3128
▁예민해	-10.3129
▁벚꽃	-10.3136
려구	-10.314
▁그만두	-10.3143
리지	-10.315
▁맞지	-10.3154
▁마시면	-10.3154
들고	-10.3157
▁받기	-10.3159
▁올까	-10.3162
▁바지	-10.3166
▁포기하는	-10.3167
봐야지	-10.3167
줄게	-10.3175
▁분들	-10.3178
▁심장	-10.318
▁성적	-10.3186
친구와	-10.3187
▁지하철에	-10.3189
▁즐기면	-10.3194
▁있는거	-10.3208
당황	-10.3209
▁이뻐	-10.3211
▁삭제하	-10.3214
▁일에	-10.3215
▁남았나봐	-10.3224
▁사과하	-10.3226
▁진실	-10.3226
▁준비중	-10.3226
▁칭찬해주	-10.3229
▁이불	-10.3231
▁좋아하시	-10.3232
▁들으면	-10.3237
야겠지	-10.3239
독	-10.324
자신과	-10.3247
▁바꿀까	-10.3253
▁표현해보	-10.3256
달라지	-10.3259
▁아닌가봐	-10.3263
▁건가요	-10.3264
▁않겠	-10.3269
▁소비	-10.3269
▁먹지	-10.327
이제는	-10.3271
▁재밌다	-10.3274
▁만나보	-10.3286
▁바꿔야	-10.3291
하며	-10.3294
▁여행이	-10.3305
▁했어요	-10.3308
보며	-10.331
▁때문이	-10.3331
▁일하는	-10.3343
▁받아들여야	-10.3344
두근거리겠	-10.3348
▁똑같은	-10.3348
▁물어보면	-10.3356
▁결	-10.3358
▁그립	-10.3361
▁물어보고	-10.3366
▁칭찬	-10.3371
▁힘드시겠	-10.3376
▁좋아한다는	-10.3376
▁반응	-10.3377
스러워	-10.3397
▁남아	-10.34
인가요	-10.3408
▁깊은	-10.3446
▁요리	-10.3446
▁말아야	-10.3448
▁그동안	-10.3454
▁봐주	-10.3454
▁했다	-10.3455
▁사람이니까	-10.346
▁존중해	-10.3461
▁씻	-10.3465
▁견디	-10.3469
가기	-10.3481
감사	-10.3482
▁마스크	-10.3492
음이	-10.3496
월	-10.35
▁사내	-10.3504
셨나	-10.3517
짧	-10.3524
▁오늘이	-10.3524
▁나아	-10.3529
▁저한테	-10.3535
▁첫사랑이	-10.3553
▁위기	-10.3561
될까	-10.3567
▁알아가	-10.358
▁해드	-10.3588
났어	-10.3589
▁고고	-10.3592
▁얻	-10.3594
▁뭐하는	-10.3601
▁행복해지	-10.3602
외로	-10.3603
반지	-10.3609
줘야	-10.3613
느냐	-10.3625
지기	-10.3626
▁들리	-10.3649
▁받은	-10.365
▁재밌는	-10.3657
성공적	-10.3657
적극적	-10.366
언제	-10.3668
▁놀까	-10.3718
▁아껴	-10.3731
▁괜찮아지	-10.3744
▁어장인	-10.3753
간단하	-10.3762
▁행동이	-10.3768
▁소문	-10.3775
▁걸까요	-10.3777
▁참지	-10.3782
▁높겠	-10.3797
▁늦은	-10.3797
▁사람들에	-10.38
곳	-10.3801
해주는	-10.3811
▁통	-10.3812
▁나지	-10.3825
밖	-10.3867
▁미치	-10.3872
재미	-10.3874
▁거울	-10.3881
▁축하해	-10.3883
뜻	-10.3886
으려면	-10.3887
!!	-10.3888
으니	-10.3889
▁효	-10.3893
▁답답한	-10.3899
이상	-10.3901
▁손해	-10.3911
▁바르	-10.392
올려	-10.3922
▁드릴	-10.3935
하긴	-10.3938
슬프네	-10.3941
▁집중하	-10.3947
▁소식	-10.3949
힘내	-10.3956
발이	-10.3989
▁표시	-10.3995
숨	-10.4001
▁사람일	-10.4002
▁자는	-10.4005
로봇	-10.4013
▁웃는	-10.4015
▁언젠가	-10.4015
가족	-10.4016
▁보다	-10.4025
백	-10.4026
,",	-10.4028
는걸	-10.4032
하겠네	-10.404
▁가만	-10.4043
▁돌려보	-10.4048
▁동생이	-10.4048
▁술마시	-10.405
▁해주면	-10.4053
▁견디고	-10.4068
▁풀렸	-10.4074
▁공부할	-10.4076
▁결혼해야	-10.4079
잠	-10.4085
▁끝인가	-10.4087
▁마셨	-10.41
그럼	-10.4111
여자친구	-10.4114
▁잘해주	-10.4115
마지막	-10.4116
▁하니까	-10.4124
이래	-10.413
▁좋고	-10.4171
▁때문	-10.4177
꼬	-10.4186
려면	-10.4187
▁몰랐어	-10.4187
해보고	-10.4187
▁그리운	-10.4189
아침	-10.4189
있습니다	-10.419
▁보이네	-10.4192
▁비슷한	-10.4214
▁많은가	-10.4217
▁붙	-10.4221
받은	-10.4223
▁한다는	-10.4227
▁괜찮다	-10.4229
그때	-10.4262
모습	-10.4283
연락처	-10.4286
둔	-10.4291
얼마	-10.4291
특	-10.4291
엄청	-10.4293
▁도와주	-10.4295
찬	-10.4296
지마	-10.4297
5	-10.4299
▁필요한가봐	-10.4303
출	-10.4309
공부하면	-10.431
푸	-10.4315
질투	-10.4318
였을	-10.4319
제자리	-10.4321
잊는	-10.4322
▁바꿀	-10.4324
▁낼	-10.4325
뭐라	-10.4326
난다	-10.4327
▁깎	-10.4329
두려워	-10.4332
▁이직	-10.4333
달라진	-10.4333
버렸어	-10.4333
프로포즈	-10.4334
외모	-10.4337
연예인	-10.4338
▁놀러가	-10.4339
버릴	-10.434
왕	-10.434
소비	-10.4341
거짓말	-10.4342
사람들이	-10.4343
사진	-10.4345
신중	-10.4345
이성으로	-10.4345
군대	-10.4349
특별	-10.435
▁호감이	-10.435
무서운	-10.4352
어쩔	-10.4352
A	-10.4354
'	-10.4354
솔직한	-10.4355
자주	-10.4356
우니까	-10.4364
이럴	-10.4366
▁하게	-10.4367
멍	-10.4369
있음	-10.4375
계	-10.4377
과식	-10.4379
달이	-10.438
▁웃어	-10.4381
진실	-10.4385
우연	-10.4392
설	-10.4393
가봅니다	-10.4395
놓지	-10.4398
▁외로	-10.44
은근	-10.4409
뭐라고	-10.4415
▁있으신가	-10.4418
▁맘같	-10.4433
예의	-10.4437
▁이별에	-10.4439
▁성	-10.4451
▁하시	-10.4459
해져	-10.4464
▁친	-10.447
이불	-10.4473
▁연락해보는	-10.4486
▁무너	-10.4489
▁헤어	-10.4495
관	-10.4505
▁참다	-10.4518
치기	-10.4521
지칠	-10.4522
신나	-10.4532
추억이	-10.4538
감정이	-10.4542
▁먹기	-10.4543
답답한	-10.4549
▁닮	-10.4549
약이	-10.4574
였나	-10.4591
▁뒤에	-10.4604
인기	-10.4614
아프지	-10.4614
지난	-10.4614
▁까먹	-10.4615
다양하	-10.4627
▁때문일	-10.4627
축하해주	-10.4629
아픈	-10.463
▁다가왔	-10.4631
▁유학	-10.4632
▁만나러	-10.4633
▁결혼해	-10.4633
▁좋았	-10.464
▁심어	-10.4645
▁태	-10.4651
▁기억해	-10.4662
▁왔나봐	-10.4669
▁때려	-10.4669
▁불행	-10.467
▁이뤄	-10.4676
부를	-10.4677
▁운명이	-10.468
▁누	-10.4687
▁보일	-10.4693
▁아픔이	-10.4709
▁심심	-10.4711
력이	-10.4714
▁면도	-10.4734
신이	-10.475
▁아니라는	-10.476
▁타이밍이	-10.476
▁이용해	-10.4762
술이	-10.477
▁받아들	-10.4777
▁점심시간	-10.4781
▁안부	-10.4787
▁가까	-10.4787
려도	-10.4788
▁들어왔	-10.4792
랬	-10.4795
▁지우	-10.4802
념	-10.4805
탕	-10.4806
어디	-10.4809
례	-10.4809
▁발렌타인데이	-10.4811
▁다닐	-10.4813
▁카	-10.4813
▁사라질	-10.4814
▁낮	-10.4818
▁카페에	-10.4818
▁땡	-10.482
a	-10.482
윗	-10.482
▁층간소음	-10.482
▁긁었어	-10.482
▁금수저	-10.482
▁뒷담화	-10.482
▁리폼	-10.482
▁머리카락	-10.482
▁섬유유연제	-10.482
▁아팠	-10.482
▁왠	-10.482
▁좋으련만	-10.482
▁컴퓨터	-10.482
가볍	-10.482
놀이동산	-10.482
댈	-10.482
딩	-10.482
랜선	-10.482
짜증날	-10.482
쫌	-10.482
찐	-10.482
츠	-10.482
툰	-10.482
▁셀프	-10.482
▁유부남	-10.482
▁축의금	-10.482
▁특징	-10.482
▁팀	-10.482
당분간	-10.482
힐	-10.482
▁배터리	-10.482
릅	-10.482
지저분해	-10.482
▁비하하지	-10.482
▁몸무게	-10.482
▁컴터	-10.482
▁농담	-10.482
▁편의점	-10.482
▁격려	-10.482
▁신경써	-10.482
▁맞춤법	-10.482
▁끓여	-10.4821
▁감싸	-10.4821
▁화장품	-10.4821
▁드라이	-10.4821
▁시골	-10.4821
▁서류에서	-10.4822
▁유행	-10.4822
▁망했다	-10.4822
▁기다림	-10.4822
▁변덕스럽	-10.4822
▁지루	-10.4822
▁무너져	-10.4822
▁매력이	-10.4823
▁웃겨	-10.4823
▁원인이	-10.4823
▁먹어야겠다	-10.4824
▁빨래	-10.4824
▁똑같아	-10.4824
▁믿으세요	-10.4824
▁늦잠	-10.4824
고마운	-10.4824
▁간식	-10.4824
▁크시겠	-10.4825
▁신경쓰여	-10.4825
▁미치겠습니다	-10.4826
▁마실까	-10.4826
연락두절	-10.4826
▁찾아온	-10.4826
▁갚아	-10.4827
당신만	-10.4828
▁어리게	-10.4828
▁차갑게	-10.4828
▁나가볼까	-10.4829
활용	-10.4829
▁이틀	-10.4829
쟁이	-10.483
▁서운해	-10.483
▁군인	-10.4831
▁한숨만	-10.4832
▁통장	-10.4833
▁좋아해줬으면	-10.4833
▁못참고	-10.4834
▁한계	-10.4835
▁후배	-10.4835
▁양말	-10.4836
주째	-10.4837
플라	-10.4838
▁친해질	-10.4838
▁미안	-10.4839
▁지낼	-10.4839
▁치워	-10.484
▁두셨네요	-10.4841
▁좋더라	-10.4841
▁미치겠어	-10.4843
▁개강	-10.4843
▁내일이	-10.4844
▁마실	-10.4844
냐구	-10.4845
▁좋을지	-10.4845
▁쌓인	-10.4846
▁미워하지	-10.4847
▁어른	-10.4847
무관심	-10.4849
▁먼	-10.485
▁수업	-10.485
드립니다	-10.4853
▁없으니까	-10.4855
▁잊으려고	-10.4855
▁나갔어	-10.4856
▁해야돼	-10.4857
▁재밌어	-10.4864
년연애	-10.4869
거겠죠	-10.4869
▁다짐	-10.4869
▁가야겠죠	-10.4871
▁필요했을	-10.4873
▁사냐	-10.4874
▁걸린	-10.4876
▁들까	-10.4878
▁연락했는데	-10.4883
▁지우고	-10.4883
뽑기	-10.4884
▁분노	-10.4887
▁똑똑해	-10.4888
▁사겨도	-10.4891
▁밟	-10.4891
끝낼	-10.4891
▁가스	-10.4892
▁보냈어	-10.4894
▁뒷	-10.4895
▁슬프게	-10.4896
▁주택	-10.4896
▁탈퇴	-10.4896
▁가늠	-10.4896
▁다툼	-10.4896
▁설명	-10.4897
▁쌩얼	-10.4897
▁단호	-10.4897
▁슬픔	-10.4897
▁평온	-10.4897
▁프로필	-10.4897
▁지나면	-10.4897
▁축제	-10.4898
▁보고싶네	-10.4898
▁이별이란	-10.4899
▁도대체	-10.4899
▁월요일	-10.4899
▁혼술	-10.49
▁편하겠죠	-10.4902
▁익숙해질	-10.4903
▁뭐임	-10.4904
▁소주	-10.4906
지가	-10.4907
▁무거워	-10.491
▁잤	-10.491
▁얘	-10.4911
▁필름	-10.4912
▁후회하	-10.4912
▁보자고	-10.4914
▁좋대	-10.4919
▁연애하는데	-10.4926
▁흘리	-10.4926
▁아닌가요	-10.4927
▁어려울	-10.4928
한국	-10.4933
돌	-10.4934
▁다르지	-10.4934
좋았	-10.4934
▁덕	-10.494
마음정리	-10.4943
▁부담스러워할까	-10.4945
▁놓으	-10.4947
▁심심해	-10.4949
▁괜찮다면	-10.4949
담	-10.495
▁있었는데	-10.495
▁오려나	-10.495
다행이	-10.495
▁당한	-10.4951
▁키울	-10.4952
▁팔아	-10.4959
▁익숙해지지	-10.496
그렇지	-10.4961
있을	-10.4964
▁헤어지기	-10.4964
그걸	-10.4965
▁괜찮지	-10.4967
▁찌질한	-10.4967
▁준비할	-10.4968
▁방식	-10.4971
▁알았	-10.4973
▁할줄	-10.4978
▁피곤한	-10.4979
있어요	-10.4981
▁견뎌내	-10.4984
▁자세	-10.4984
복이	-10.4985
▁덜어	-10.4988
▁들을	-10.4994
▁깨달음	-10.4998
들은	-10.4998
▁읽씹	-10.4999
▁즐겁	-10.4999
▁소모	-10.4999
▁마침표	-10.5003
▁케이스	-10.5003
▁자존심	-10.5005
▁트라우마	-10.5005
▁봉사활동	-10.5005
▁첫눈	-10.5007
▁취미생활	-10.5007
▁일인	-10.5009
▁뭐하냐	-10.5018
▁서운하	-10.5021
낭만적	-10.5021
그러	-10.5033
주면	-10.5036
▁떠났	-10.5039
▁구멍이	-10.5039
▁말했어	-10.5046
▁여자에게	-10.506
나보다	-10.506
았으면	-10.5062
▁가족들	-10.5062
▁많았나	-10.5064
▁달려있	-10.5068
▁되었네	-10.5076
▁하루에도	-10.5085
▁충격	-10.5092
▁빵	-10.5093
▁났나봐	-10.5093
▁썸일	-10.5097
▁신뢰	-10.5104
▁애교	-10.5105
▁벗	-10.5105
놀랐	-10.5105
▁매너	-10.5106
▁창업	-10.5107
▁자괴감	-10.5109
▁의미부여	-10.5112
▁찾	-10.5115
좋았으면	-10.5122
시원하	-10.5128
▁받아들이기	-10.5131
▁생각날	-10.5131
▁켜	-10.5136
▁여기까지	-10.5136
▁영원한	-10.5137
▁이럴	-10.5141
▁봤네	-10.5158
갈수록	-10.5159
▁먹어야	-10.5163
▁확인하는	-10.5166
아마	-10.5172
▁나타나	-10.5174
▁멀었	-10.5177
▁새해	-10.5183
▁학교에	-10.5184
가능하면	-10.5189
▁고백해	-10.5192
▁모를	-10.52
▁고백할까	-10.5203
▁치매	-10.5206
▁안에	-10.5208
좋아요	-10.521
참고	-10.5215
▁별거	-10.5222
만난	-10.5226
▁자다가	-10.5227
▁떡	-10.523
코인	-10.5238
▁답답하다	-10.5239
▁읽어보	-10.524
▁하다	-10.524
▁ᄒᄒ	-10.5247
▁만들었어	-10.5254
▁속은	-10.5255
▁했을	-10.526
학원	-10.5267
▁원망	-10.5274
▁해보	-10.5278
▁것만	-10.528
▁어떻게해	-10.528
연락하면	-10.5282
▁울적해	-10.5285
▁멋지	-10.5291
▁몸에	-10.5293
▁흐르는	-10.5294
▁남길	-10.5297
▁하셨나	-10.5303
▁들으	-10.531
▁프로포즈	-10.533
▁지칠	-10.5335
▁결혼한	-10.5349
▁찬	-10.5352
때로	-10.5353
▁주말이네	-10.5355
▁간사하	-10.5356
▁너무나	-10.5368
함께할	-10.537
했네요	-10.5372
▁솔직한	-10.5375
사람에게	-10.5382
▁나아지	-10.5389
해졌	-10.5395
살아	-10.5397
▁늦는	-10.5407
▁나나	-10.5408
▁연속	-10.543
▁20	-10.543
▁냉장고	-10.5435
썸이	-10.544
▁당황했	-10.544
▁조건	-10.5446
▁행	-10.5449
▁오지	-10.5459
았습니다	-10.5463
셨어	-10.5463
▁이어주	-10.547
년만	-10.5482
▁완벽	-10.5496
왔다	-10.5514
▁뻔했	-10.5521
▁사랑한다는	-10.5525
▁키우는	-10.5526
한거	-10.5527
사람이	-10.5531
▁근처	-10.5532
▁적이	-10.5534
▁실수한	-10.5538
▁될지	-10.5538
▁잘못된	-10.5539
▁새로	-10.5556
▁어울	-10.5558
봤	-10.5569
▁접어두	-10.5574
▁불면증	-10.5585
라는게	-10.5592
▁만들기	-10.5594
▁소	-10.5596
▁깔끔	-10.5597
▁적응해야	-10.5605
▁결정이	-10.5612
▁이루어	-10.5613
▁잡는	-10.5613
▁철	-10.5615
▁내기	-10.5617
착	-10.5622
무시하	-10.5623
▁들어올	-10.5626
▁겨울	-10.5627
▁아니네	-10.5632
▁연애하는	-10.5634
▁부족한가	-10.5638
각이	-10.564
▁얘기해	-10.5645
▁용서하	-10.5652
납니다	-10.5655
▁알지	-10.5656
셨	-10.5669
▁안주	-10.5672
석	-10.5697
▁아이돌이	-10.5698
혼자서	-10.5702
주고	-10.5724
이가	-10.5725
▁위험	-10.5725
맛있을	-10.5726
피곤	-10.5727
▁빌	-10.573
하나봐	-10.5734
▁성장하	-10.574
▁공부해	-10.5742
먹	-10.5742
할지도	-10.5776
▁안하지	-10.5778
▁사나	-10.578
▁인연이었	-10.5782
운을	-10.5784
리세요	-10.5789
▁힘드	-10.5824
사람들	-10.5835
▁검색	-10.5858
버는	-10.586
▁술먹	-10.5869
▁트	-10.5869
▁갖자	-10.5869
성공하	-10.5874
내고	-10.5875
쉬	-10.5885
▁커지	-10.5886
▁우리집	-10.589
▁후회해	-10.5895
▁거짓말이	-10.59
렸나봐	-10.5909
▁밀당	-10.5913
치는	-10.5918
▁닫	-10.5932
▁없는거	-10.5939
하는건	-10.5956
▁입을	-10.5969
였나봐	-10.5974
▁무시	-10.5977
▁정리해	-10.5984
▁자신만	-10.5993
▁절약	-10.5993
▁먹은	-10.6001
▁궁금하	-10.6002
▁서	-10.6003
▁된다	-10.6006
인거	-10.6041
▁아껴주	-10.6045
▁대화하는	-10.6055
▁모으	-10.6056
▁학생	-10.6058
▁평가	-10.6071
▁어떻	-10.6079
말씀	-10.608
▁끼	-10.6084
우는	-10.6089
▁이별하는	-10.6098
▁당황	-10.6098
▁큰일	-10.6099
여자들이	-10.6102
▁여사친	-10.6106
아는데도	-10.6118
▁학기	-10.6119
ᄒᄒ	-10.6151
▁아니지	-10.6159
▁꼬	-10.6192
▁소문이	-10.6201
▁지났	-10.6203
▁후회할까	-10.6206
▁힘들까	-10.6213
~~	-10.6222
길게	-10.6225
▁애매	-10.6238
▁무리	-10.6268
보여요	-10.6269
라서	-10.6274
▁끊는	-10.6277
▁이러는	-10.6281
▁지났어	-10.6309
▁도와	-10.631
되어	-10.6311
▁재밌을	-10.6324
랑이	-10.6326
그분에	-10.6329
근	-10.6338
▁생일이	-10.6338
▁어장	-10.6366
을거예요	-10.6372
▁못난	-10.6388
▁응원	-10.6388
▁못하겠	-10.6389
은행	-10.6392
▁바보같	-10.6396
나가는	-10.6402
▁남는	-10.6402
▁쓰면	-10.6408
▁빠	-10.6412
버	-10.6414
후회하	-10.642
▁뭐하면	-10.6422
▁서운	-10.6427
절	-10.6446
▁되는거	-10.6453
▁받아들여	-10.6477
▁바디	-10.65
▁혼자서	-10.6506
좋	-10.6506
그녀	-10.6531
해야겠죠	-10.6532
쪽	-10.6536
▁성장	-10.6552
▁제안	-10.6555
유	-10.6566
▁이루	-10.6578
선생님	-10.6581
▁혼자인	-10.659
▁모아야	-10.6596
웃	-10.6603
▁사랑하는지	-10.6604
▁결혼하고	-10.6606
▁깊었	-10.6612
쓰지	-10.6616
▁척하	-10.6616
▁힘들고	-10.6618
미	-10.6619
▁답답	-10.6627
봤어	-10.6633
▁타나	-10.6639
▁해줄	-10.664
까운	-10.6642
▁건데	-10.6652
넘	-10.6661
하는지	-10.6667
잔	-10.667
퍼	-10.6673
궁금할	-10.668
야경이	-10.6681
늦	-10.6681
향	-10.6683
부담스러운	-10.6687
설레	-10.6698
▁불편	-10.6699
기세요	-10.6702
워서	-10.6712
▁반에	-10.6714
문제	-10.6717
이해할	-10.672
되길	-10.672
견	-10.6721
핸드폰	-10.6721
못했던	-10.6729
을때	-10.6731
예뻐	-10.6743
확인해	-10.6743
헤어지	-10.6744
▁기다	-10.6749
들면	-10.6752
커피향	-10.6764
헤어지고	-10.6765
맞는	-10.6765
공허함이	-10.6768
변하는	-10.6768
지나간	-10.6772
빨리	-10.6773
애틋	-10.6774
▁열어	-10.6775
성격	-10.6776
자연스	-10.6777
학교	-10.6777
벌써	-10.6777
▁디	-10.6778
영	-10.6779
구경	-10.6784
S	-10.6786
▁남자분들	-10.6788
믿음	-10.6795
갑니다	-10.6795
▁지르	-10.6798
되지	-10.6799
회	-10.6799
사회생활	-10.68
▁아물	-10.6802
자존감	-10.6803
맨날	-10.6803
▁예뻐지	-10.6805
꿀	-10.6806
몇	-10.6808
▁오해하	-10.6809
▁실	-10.6812
비싸	-10.6812
욕심	-10.6813
갖	-10.6814
행동	-10.6815
흥미	-10.6816
햇	-10.6817
받으세요	-10.6817
방학이	-10.6819
▁않지	-10.682
▁이기적이	-10.6821
주식	-10.6821
원망	-10.6822
월급	-10.6823
잊어버리	-10.6823
빈	-10.6824
다이어트	-10.6824
응원합니다	-10.6829
도와주	-10.6829
다니는	-10.6829
장거리	-10.6831
여러	-10.6832
잇몸	-10.6833
뒀	-10.6833
쪄	-10.6833
오랜만에	-10.6834
누군가	-10.6834
밀당	-10.6836
동물	-10.6838
▁칼	-10.6838
육아	-10.6838
휴식	-10.6839
처리	-10.684
▁변해	-10.684
잘못	-10.6844
벚꽃	-10.6845
거절	-10.6846
설렘	-10.6846
▁불편하겠	-10.6847
선배	-10.685
괜	-10.685
불행	-10.6851
그리고	-10.6854
멋지	-10.6854
호의	-10.6855
인간	-10.6857
눈물	-10.6857
아플	-10.6863
놔	-10.6863
뜨	-10.6863
푹	-10.6864
빨	-10.6869
실내	-10.687
분들	-10.6876
향이	-10.6877
클	-10.6878
▁의지해	-10.6886
잊을	-10.6888
벗어나	-10.6889
그러는	-10.689
도전해	-10.6892
가고	-10.6898
기한	-10.69
해주지	-10.691
▁솔직	-10.6913
별거	-10.6915
발전	-10.692
기본	-10.6921
속이	-10.6922
눈치	-10.693
회사에서	-10.693
▁맞춰주	-10.6932
골	-10.6935
▁많아지	-10.6939
높이	-10.6942
인건가	-10.6944
▁잠수이별	-10.6945
▁왕따	-10.6949
▁흐르	-10.6953
행복하	-10.6953
행운	-10.6967
▁마주	-10.6977
지금보다	-10.6978
얼굴이	-10.6983
▁거기까지	-10.6987
연락해도	-10.699
연락할	-10.6993
▁연습해	-10.6995
▁배워보	-10.7003
아무렇지	-10.7004
사랑하면	-10.7007
▁키워	-10.7015
그대로	-10.7024
싶다	-10.7032
▁감정에	-10.7037
▁않았을	-10.7038
몸에	-10.7039
정리	-10.7045
▁막히	-10.7046
피곤한	-10.705
▁세달	-10.708
▁듣는	-10.7086
▁뜨	-10.7092
차별	-10.7097
▁태어	-10.7108
입을	-10.711
▁이기	-10.7117
가봐	-10.7132
연이	-10.7134
렸	-10.7137
▁피곤하	-10.7137
▁아니었	-10.7141
▁사귀면	-10.7143
진심이	-10.7159
주변에	-10.7178
▁부담스러워하	-10.7185
인생이	-10.7191
예쁜	-10.7202
압	-10.7223
▁아깝	-10.7224
▁공개	-10.7229
롭	-10.7231
▁지쳤	-10.7239
▁맛있어	-10.724
한건가	-10.7257
▁솔로	-10.7269
여기	-10.727
중입니다	-10.727
이겠죠	-10.7272
▁나빠	-10.7277
▁흔	-10.7278
립니다	-10.7278
▁중국	-10.7283
식이	-10.7283
▁쳐다	-10.7287
▁기다려야	-10.7289
미련없	-10.7289
닝	-10.7291
▁개강이	-10.7294
가려	-10.7295
냥	-10.7296
▁진행	-10.7297
룩	-10.7304
▁화가나	-10.7306
▁두근거	-10.7308
텐	-10.7312
▁차분하	-10.7313
▁미칠	-10.7313
▁작아	-10.7314
눅	-10.7314
류	-10.7317
탁	-10.7317
▁난방	-10.7318
▁휘	-10.7319
힌	-10.7319
▁멈	-10.7319
듭니다	-10.7319
쪼	-10.732
놨	-10.732
▁버릇	-10.732
▁애프터	-10.732
그린라이트	-10.732
▁맴	-10.732
▁멘	-10.732
▁원동력이	-10.732
덥	-10.732
슈퍼	-10.732
줌	-10.732
B	-10.732
s	-10.732
▁겪	-10.732
▁곱	-10.732
▁교양수업	-10.732
▁꼰대	-10.732
▁꼼	-10.732
▁꽉	-10.732
▁대기업	-10.732
▁뚫	-10.732
▁레시피	-10.732
▁맺	-10.732
▁몫	-10.732
▁무한리필	-10.732
▁선풍기	-10.732
▁수면양말	-10.732
▁아울렛	-10.732
▁웹툰	-10.732
▁이모티콘	-10.732
▁입냄새	-10.732
▁팍팍	-10.732
▁하우스웨딩	-10.732
각질제거	-10.732
낮잠	-10.732
맷	-10.732
사춘기	-10.732
샌	-10.732
소액결제	-10.732
앨	-10.732
엠	-10.732
째깍	-10.732
쭤	-10.732
팬	-10.732
펑	-10.732
풋	-10.732
▁베트남	-10.732
▁설득	-10.732
▁유부녀	-10.732
▁핫	-10.732
▁현타	-10.732
글쎄요	-10.732
뒷감당	-10.732
렵니다	-10.732
팁	-10.732
▁꾹꾹	-10.732
▁뒹굴	-10.732
▁케익	-10.732
껄	-10.732
율	-10.732
▁브랜드	-10.732
▁알뜰폰	-10.732
▁확률	-10.732
▁떨어뜨려	-10.732
짚	-10.732
▁어리석	-10.732
▁골프	-10.732
▁뱃살	-10.732
▁손가락	-10.732
▁비행기표	-10.732
▁블록	-10.732
▁외출하	-10.732
피부관리	-10.732
▁뉴스	-10.732
▁넘어가네	-10.732
▁찢어지	-10.732
▁뛰어넘	-10.732
▁베프	-10.732
▁미용실	-10.732
▁감정기복	-10.732
▁월세	-10.732
▁부탁드립니다	-10.732
▁인지시켜	-10.732
▁희생양	-10.732
▁당첨	-10.732
▁승진	-10.732
▁비정상이	-10.732
▁열흘	-10.732
▁예능	-10.7321
▁바꿨어	-10.7321
▁떨린다	-10.7321
▁환기	-10.7321
▁빈자리	-10.7321
▁주름살	-10.7321
▁친척	-10.7321
▁똑같애	-10.7321
▁작동	-10.7321
▁종지부	-10.7321
▁이제서야	-10.7321
▁엄마아빠	-10.7321
▁허전할	-10.7321
▁발견	-10.7321
▁녹여	-10.7321
▁어떡함	-10.7321
상종하지	-10.7321
▁미안하다	-10.7321
▁출발	-10.7322
▁보냈습니다	-10.7322
▁리드	-10.7322
▁직전	-10.7322
▁알바생	-10.7322
▁참석하는	-10.7322
▁낭만이	-10.7322
▁들이대	-10.7322
폭력	-10.7322
▁감출	-10.7322
▁나이테	-10.7323
▁다녀왔어	-10.7323
패션	-10.7323
▁변화시켜	-10.7323
▁속박	-10.7323
▁쌓여	-10.7323
▁한심해	-10.7323
콜록	-10.7323
증명	-10.7324
똥차	-10.7324
▁선택이었을	-10.7324
초록	-10.7324
▁한번쯤	-10.7324
▁무뎌지	-10.7325
▁배울까	-10.7325
▁비정규직	-10.7325
▁차였는데	-10.7325
▁초기화	-10.7325
잔하네	-10.7325
▁연애세포	-10.7325
▁망함	-10.7327
▁보냈네	-10.7327
▁예전	-10.7328
▁입학	-10.7328
확실해	-10.7328
▁어렸을때	-10.7328
▁끝났습니다	-10.7328
▁구워	-10.7328
▁겁나	-10.7329
▁지낸	-10.733
▁지웠어	-10.733
디오	-10.733
바쁠	-10.733
스트	-10.733
두통	-10.7331
▁부족해	-10.7331
▁고시원	-10.7331
▁잊혀질까	-10.7331
장갑	-10.7331
▁어떡하죠	-10.7332
▁기다릴게요	-10.7332
▁따져	-10.7332
▁떠날	-10.7332
▁좋아한대	-10.7332
▁무뎌질	-10.7332
▁알아볼	-10.7333
▁걸리	-10.7333
▁돌아와	-10.7334
▁오셨	-10.7334
▁심해지는	-10.7334
▁끊겼어	-10.7335
▁헛헛	-10.7335
▁방금	-10.7335
▁진리	-10.7335
잡념	-10.7335
▁면도기	-10.7336
▁프로	-10.7336
▁봤나	-10.7337
▁실행	-10.7339
▁최저	-10.7339
음료	-10.734
무모	-10.734
니깐	-10.734
주물	-10.7341
▁괜찮겠지	-10.7341
▁다음에	-10.7342
결혼에	-10.7342
▁떠나간	-10.7342
식물	-10.7342
▁티나나	-10.7342
▁어떠세요	-10.7343
▁지각	-10.7344
▁미화되기	-10.7344
▁상대적	-10.7346
재인가	-10.7346
▁냉면	-10.7348
▁풀리	-10.7348
차곡	-10.7348
추적	-10.7348
▁되려면	-10.7348
▁필기	-10.7349
청결	-10.735
▁위로해줄	-10.735
▁잘못입니다	-10.7351
▁오바	-10.7352
▁아부	-10.7354
시도해	-10.7354
▁보란	-10.7355
▁아쉬움이	-10.7355
둬야	-10.7355
▁싸운	-10.7356
▁보고싶	-10.7357
실수했나	-10.7358
개월차	-10.7358
▁물질	-10.7359
메뉴얼	-10.7359
▁일시적	-10.736
으아	-10.736
웃으면	-10.7362
▁연락왔어	-10.7364
외부	-10.7365
감성적이	-10.7369
시작	-10.737
▁맛있다	-10.737
▁어렵다	-10.7372
▁이별준비	-10.7373
▁숙제	-10.7373
▁믿음	-10.7373
이예요	-10.7375
▁끈을	-10.7376
▁실력	-10.7378
▁나왔네	-10.7378
종료	-10.7378
▁냉	-10.7378
▁없는걸까	-10.7379
▁죽을거	-10.7384
▁접어야	-10.7387
▁들어줄	-10.7388
▁짜증나네	-10.7388
▁무리하지	-10.7389
▁사줘	-10.7389
▁하다니	-10.739
▁고백할	-10.7392
▁영어	-10.7395
▁막힌다	-10.7396
▁다칠	-10.7396
▁회복	-10.7397
날짜	-10.7397
주량	-10.7398
▁일하	-10.7398
려는	-10.74
▁늙어가	-10.74
▁어떨	-10.7402
▁농	-10.7403
▁헷갈리네	-10.7403
근데	-10.7408
▁받으시	-10.7409
졸린	-10.7409
▁쫄	-10.741
▁좋은거	-10.741
대청소	-10.7411
비교하	-10.7412
체인	-10.7413
▁연상	-10.7413
▁있는걸까	-10.7413
▁좋긴	-10.7414
▁터질	-10.7414
습관처럼	-10.7416
▁호칭	-10.7417
지압	-10.7417
▁명품	-10.7417
▁와닿	-10.7417
▁예약	-10.7418
▁누구야	-10.7418
▁아니겠지	-10.7418
▁한약	-10.7419
▁그리울	-10.7421
▁웃음	-10.7422
▁12	-10.7422
▁수능	-10.7422
▁술한잔	-10.7422
▁목적	-10.7422
▁손톱이	-10.7423
▁프라이버시	-10.7423
▁누나	-10.7424
▁아는거	-10.7426
▁가능한가	-10.7427
▁좋아지고	-10.7428
▁차인	-10.743
▁비오	-10.743
▁우울하	-10.7431
▁해봤는데	-10.7431
▁정신적	-10.7432
▁옳은	-10.7433
남한테	-10.7433
▁다녀와	-10.7435
▁싶으면	-10.7438
▁외국어	-10.7441
▁건강습관이	-10.7442
▁나쁘	-10.7443
▁망상	-10.7444
▁넘었는데	-10.7445
▁안받아	-10.7447
▁운동화	-10.7449
태연	-10.745
▁싸울	-10.745
▁고백한	-10.745
망이	-10.7452
▁어쩌	-10.7456
강제	-10.7457
▁없는걸	-10.7459
▁공간	-10.7461
▁싸우고	-10.7466
▁세우	-10.7466
피로	-10.7467
가능하다	-10.7467
▁운이	-10.7469
탔어	-10.7471
사표	-10.7473
▁오니까	-10.7479
▁점심시간에	-10.7484
들었겠	-10.7485
제정신	-10.7492
▁결심이	-10.7494
▁식습관	-10.7496
▁알아내	-10.7501
▁해준	-10.7501
▁사이로	-10.7505
▁결정하는	-10.7507
▁나오네	-10.7507
렸으면	-10.751
▁해줄까	-10.751
변신	-10.7512
▁머릿속	-10.7513
▁뛰어	-10.7514
▁마주쳤	-10.7514
아쉬운	-10.7516
▁남자입니다	-10.7522
▁연락할까	-10.7526
이럴까	-10.7529
▁좋으니	-10.7529
▁떠오르	-10.7534
주일	-10.7536
생각한	-10.7538
▁액	-10.7541
버렸네	-10.7542
▁반년	-10.7542
▁취직할	-10.7544
▁좋아졌어	-10.7544
고치기	-10.7545
▁기침	-10.7547
▁배정	-10.7549
▁어둠	-10.7552
▁무릎	-10.7552
▁남자에게	-10.7555
▁미팅	-10.7555
▁흘러가	-10.7556
▁짜장면	-10.7557
▁찜질방	-10.7557
에도	-10.7558
▁첫인상	-10.7558
▁좋은점	-10.7559
▁센	-10.7561
▁아이스크림	-10.7562
▁조용	-10.7562
▁간대	-10.7563
▁붙이	-10.7564
들었나봐	-10.7567
▁없대	-10.7568
관리	-10.7573
▁돌아오지	-10.7576
정도	-10.7577
▁말해보는	-10.7579
개시	-10.7579
▁동생한테	-10.7583
▁주제	-10.7583
▁일요일	-10.7584
▁가려고	-10.7586
싫어	-10.7589
▁마시지	-10.7592
▁부려	-10.7597
▁필요하지	-10.7597
안됐네	-10.7603
▁쓸데없	-10.7605
▁알겠어	-10.7606
셔야	-10.7606
▁이상하	-10.7611
▁가능한	-10.7615
▁병	-10.7618
▁쌓였	-10.7621
▁굴	-10.7621
▁잊지못	-10.7633
당당하	-10.7634
▁놀랐겠	-10.7636
하셔야죠	-10.7639
▁당신에게	-10.7649
안정적	-10.7649
▁쓰일	-10.7654
▁질리	-10.7655
있을까	-10.7657
비용	-10.766
애석하	-10.7662
▁배신	-10.7667
이란게	-10.7668
▁생각한	-10.767
꾸준한	-10.7672
▁끄는	-10.7674
▁해야할	-10.7679
▁고백해야	-10.7686
▁잘생겼어	-10.7688
▁아프게	-10.7691
해주	-10.7692
인연	-10.7692
이크	-10.7694
이고	-10.7695
실천	-10.7704
▁정상	-10.7705
▁끊으	-10.7705
▁남은	-10.7709
너	-10.7725
▁냄새나	-10.7728
▁의심해	-10.7735
▁친구인데	-10.774
▁상태인	-10.7741
▁허무하네	-10.7745
▁이어가	-10.7759
▁품	-10.7769
▁고장	-10.7772
성덕이	-10.7775
▁빨	-10.7779
중요하니까	-10.7781
▁끊기	-10.7787
▁쓰게	-10.7796
▁하러	-10.7797
▁말보다	-10.7801
▁도전하	-10.7807
져서	-10.7812
되시길	-10.7814
자마	-10.7816
▁싶다는	-10.7819
현실적	-10.7822
▁아플	-10.7826
▁처리	-10.7829
▁육아	-10.7831
▁잇몸	-10.7832
▁언제든	-10.7833
▁실내	-10.7837
▁결정할	-10.7842
▁없었	-10.7845
▁뭐해	-10.7846
▁끊겼	-10.7847
고마	-10.785
▁모른척	-10.7854
사이	-10.7857
해야할지	-10.7863
▁페	-10.7863
▁해야겠지	-10.7865
▁했네	-10.7874
▁해봐	-10.7881
▁받으세요	-10.7888
연습	-10.7888
▁죽어	-10.789
▁사랑했	-10.7892
▁넣어	-10.7897
해줘서	-10.79
▁안될	-10.7905
맞아	-10.7905
▁구분	-10.7906
일방적	-10.7907
표현하지	-10.7912
▁화해	-10.7914
▁복잡	-10.7936
들지	-10.7936
▁질린	-10.794
달리	-10.7942
▁사랑하기	-10.7946
온다	-10.7947
▁'	-10.7951
▁A	-10.7951
▁붙잡아	-10.7952
▁수준	-10.7956
▁해주고	-10.7958
움이	-10.7959
보이는	-10.7961
▁보내지	-10.7961
헤어짐에	-10.7971
▁외모	-10.7976
▁괜찮다가	-10.7977
▁짝사랑만	-10.7979
들어서	-10.798
▁버릴	-10.7981
▁말해봐	-10.7992
▁하루에	-10.7994
▁주식	-10.7998
▁잊어가는	-10.8003
▁달라진	-10.8004
▁정답	-10.8011
▁고독	-10.8012
바보	-10.8016
▁뜨는	-10.8021
▁변명	-10.8036
▁갑니다	-10.8036
▁거겠지	-10.8038
▁도와줄	-10.804
▁느껴보	-10.8049
▁보이는	-10.805
타인	-10.805
▁판	-10.8057
▁하는지	-10.8059
▁힘든가	-10.8063
옆에	-10.8074
민	-10.8075
했던거	-10.8076
▁컨	-10.8083
▁많으시	-10.8089
▁스트레칭	-10.8093
▁화나	-10.8094
▁못자	-10.8102
▁나한테만	-10.8105
안보여	-10.8109
솔직하	-10.811
▁아니었을	-10.8115
▁보험	-10.8116
해줬으면	-10.8134
보여	-10.8162
▁그런지	-10.8165
▁가벼	-10.8217
▁사귀기	-10.8226
인정	-10.823
스럽	-10.8242
▁기술이	-10.8247
해도될까	-10.8251
처음에	-10.8254
▁귀찮다	-10.8257
▁맛난	-10.8261
▁당당해	-10.8269
아이	-10.8269
한대	-10.8272
▁달달	-10.8274
놀러가세요	-10.828
시다니	-10.8286
▁혼내	-10.8286
하려	-10.8293
▁약이	-10.8299
사드리	-10.83
▁생각하게	-10.8303
한걸까	-10.8313
오는	-10.8331
▁바뀌어	-10.8333
▁충전기	-10.8341
정기	-10.8345
▁사람이었나	-10.8347
연락하지	-10.8347
보이네	-10.8348
▁나니	-10.8349
무시	-10.8355
당연하	-10.8357
할게	-10.8359
▁꿨	-10.8363
▁후련하네	-10.8371
▁생각하나	-10.8372
인연인	-10.8374
마음에서	-10.8382
볼때	-10.8385
▁가치관이	-10.8389
▁마주치면	-10.8411
이었을	-10.8415
▁개인적	-10.842
▁사라	-10.8426
▁이쁜	-10.843
▁할게	-10.8431
었네	-10.8442
▁거였	-10.8443
해야할까	-10.8445
▁자르	-10.8453
▁이래	-10.8454
해야겠지	-10.8465
▁무엇인	-10.8474
확	-10.8482
▁메	-10.8484
▁되어요	-10.8489
▁오락가락	-10.8502
▁찾아오네	-10.8506
거지	-10.852
▁모르겠다	-10.8523
▁자야	-10.8523
▁나눠보는	-10.8528
▁년	-10.8529
▁별로인	-10.853
▁후회없	-10.8531
▁복잡해	-10.8537
▁떨어	-10.8547
▁도	-10.8571
▁해결해	-10.8577
▁안타깝	-10.8579
▁연애에	-10.858
크리스마스에	-10.8585
▁수건	-10.8589
줘서	-10.8597
▁지냈	-10.8601
▁부족	-10.8611
궁금하	-10.8617
걱정되	-10.8624
,,",	-10.8628
▁사랑이에요	-10.8631
▁귀엽	-10.8663
▁만나요	-10.8669
어보고	-10.8672
▁물이	-10.8694
이었나봐	-10.8698
▁해보려	-10.8702
▁배려해	-10.8704
▁김	-10.8706
그렇다	-10.8711
▁귀찮은	-10.8715
이해하	-10.8719
으신가	-10.8722
따	-10.8728
이니	-10.8742
했을까	-10.8746
▁식었	-10.8747
▁이겨야	-10.875
▁이름	-10.8753
▁가져가	-10.8755
▁정확	-10.8755
▁그사람이	-10.8757
▁우정	-10.8769
▁살았	-10.8769
오겠죠	-10.8775
린다	-10.8777
▁편안하	-10.8794
▁깎아야	-10.8798
▁붙잡는	-10.8799
야겠어	-10.8805
▁믿음이	-10.8805
▁일정	-10.8806
되었는데	-10.8807
▁다양	-10.8809
간의	-10.881
당연	-10.8831
충전	-10.8834
▁인스타	-10.884
▁상황인	-10.8848
▁쌓	-10.885
▁취직하	-10.8854
결혼하기	-10.8857
▁예쁘다	-10.8862
▁치맥이	-10.8863
왔네	-10.8875
▁애정	-10.8877
▁몰려	-10.888
▁나겠	-10.888
▁풀려	-10.8892
▁준비해	-10.8893
▁안전	-10.8896
▁원해	-10.8896
잡는	-10.8927
문이	-10.8931
하기로	-10.8935
▁오해	-10.8938
▁사실이	-10.8941
▁친해	-10.8952
▁사랑이라는	-10.8953
난다면	-10.897
▁시간이었	-10.8979
▁나야	-10.8992
해주고	-10.8996
▁달에	-10.8997
쳤어	-10.9008
자연	-10.9009
런지	-10.9023
말걸	-10.9031
내려	-10.9032
연애하면	-10.9035
페	-10.9053
진지	-10.9065
▁싫은가봐	-10.9074
▁찾아가는	-10.9075
▁절약해	-10.9096
▁출근하	-10.9098
▁남자의	-10.9125
▁버려야	-10.9138
▁연인이	-10.9143
▁버려야겠	-10.9143
겠대	-10.9146
▁그분	-10.9171
이에	-10.9174
▁되려	-10.9175
▁밥이	-10.9184
름이	-10.9185
막히는	-10.9188
러운	-10.9189
▁시원	-10.9193
간을	-10.9206
해야겠다	-10.9216
다행	-10.9219
되가네	-10.9241
▁예	-10.9247
▁뭐하	-10.9248
▁마주하	-10.9253
▁아이돌	-10.9255
겼는데	-10.926
심이	-10.9266
▁중독인	-10.9268
되니까	-10.9269
싶은데	-10.9277
▁중고	-10.9285
남자친구	-10.929
회사에	-10.9295
되었길	-10.9295
올까	-10.9297
▁따라가	-10.9308
그런건가	-10.9311
무덤덤해지	-10.9317
▁포기해야	-10.9324
▁다가가는	-10.9329
▁멀	-10.9337
▁걸리겠	-10.9338
안한다	-10.9342
실에	-10.9346
▁끝인가봐	-10.9358
▁하는거	-10.9366
▁지는	-10.9371
아들	-10.9384
▁떠보	-10.9386
▁정확하	-10.9395
절한	-10.9396
▁많겠지	-10.9402
됩니다	-10.9406
식을	-10.9408
▁나는데	-10.9431
하는걸	-10.9432
▁멍청	-10.9439
보고싶	-10.9443
시려	-10.9454
▁설레는	-10.9455
▁만나기	-10.9467
▁남사친	-10.9474
▁사귀자	-10.9475
▁포기하	-10.9481
족	-10.9484
자랑	-10.9487
식하는	-10.9511
▁되어가	-10.952
해줬어	-10.9531
월급날	-10.9531
감이	-10.9544
옷이요	-10.9544
도망가	-10.9552
▁울적	-10.9565
▁헤어졌다	-10.9571
드시	-10.9588
▁입으	-10.9588
▁만한	-10.9607
▁부르	-10.9614
차단하는	-10.9622
▁않기	-10.9647
놀	-10.9653
▁연속이	-10.9655
▁불만	-10.9668
▁요구	-10.9685
톡	-10.9689
먹으면	-10.9702
▁꿈같	-10.9703
▁용서	-10.971
▁말한	-10.9712
▁속상	-10.972
▁착각이	-10.972
차가	-10.9733
▁떨쳐	-10.9734
▁예민	-10.9737
잊	-10.9745
키	-10.9749
다리	-10.975
▁사람이다	-10.9754
▁잘라	-10.9767
▁잘못한	-10.977
군	-10.9777
▁해야하나	-10.9781
어져	-10.9797
남이	-10.9812
누	-10.9817
▁투자	-10.982
조언	-10.9824
▁사람하고	-10.9842
밤	-10.9851
충전하	-10.9858
▁현금	-10.9864
▁풀어야	-10.9869
활	-10.9869
▁이길	-10.9872
귀	-10.9875
▁진지	-10.9879
상하지	-10.9894
겁	-10.9895
위기	-10.991
▁안가	-10.9913
▁야	-10.9914
축하	-10.9917
▁아닌가	-10.9929
침	-10.9932
때문에	-10.9934
하자	-10.9935
짜	-10.9935
▁뭐지	-10.9944
보니	-10.9946
테	-10.9947
▁너무너무	-10.9951
▁모른척하	-10.9954
결국	-10.9963
▁해야겠	-10.9968
모	-10.998
▁칭찬해	-10.9986
호	-10.9987
▁감으	-10.999
육	-11.0002
말은	-11.0005
시켜	-11.0007
깜빡	-11.0014
일만	-11.0018
▁기다리지	-11.0024
투	-11.0041
품	-11.0043
▁치열	-11.005
완	-11.0056
▁내려놓	-11.0057
갑작스러	-11.0058
시작하기	-11.0067
만날	-11.0071
폭	-11.0074
▁관심있	-11.0076
성적이	-11.0085
▁익숙해지	-11.0085
견디기	-11.0088
염탐하	-11.0089
무엇	-11.009
즐	-11.0093
보지	-11.0097
좋아할	-11.0098
멋있	-11.0101
매력있	-11.0101
여기까지	-11.0102
받으면	-11.0104
용해	-11.0106
틈	-11.0121
쌈	-11.0121
응	-11.0122
전역	-11.0122
받으면서	-11.0122
괜찮아질	-11.0123
뭔가	-11.0125
모자라	-11.0126
드라이브	-11.0128
많은걸	-11.013
롱	-11.0135
아파트	-11.0137
평생	-11.0138
빠른	-11.0138
보냈	-11.0141
취미	-11.0142
볶	-11.0142
붙잡고	-11.0142
그리움	-11.0143
시어머니	-11.0144
우울	-11.0144
녹	-11.0146
받아들이기	-11.0147
기념일	-11.0147
헛	-11.0148
었다	-11.0148
의미부여	-11.0151
마시면	-11.0151
sns	-11.0157
자괴감	-11.0157
베터리	-11.0159
차라리	-11.0159
팩	-11.016
아닐	-11.0161
지쳤나	-11.0161
아프	-11.0161
취업	-11.0162
귀여	-11.0163
속에	-11.0164
잘못된	-11.0164
말투	-11.0164
신뢰	-11.0165
애교	-11.0167
페북	-11.0167
싸움	-11.0167
매너	-11.0168
사귀다	-11.0168
센스	-11.0169
목표	-11.0169
노후	-11.0169
외롭	-11.0169
원래	-11.0169
커	-11.017
▁이것	-11.0172
됨	-11.0174
사귄	-11.0176
맞나	-11.0178
단점	-11.0178
언제든	-11.0179
운명인가	-11.018
헤어지면	-11.018
빵	-11.0183
웠어	-11.0185
▁사먹	-11.0186
널	-11.0187
당연한	-11.0188
질질	-11.0188
▁안좋은	-11.0189
충격	-11.019
팔	-11.0192
나한테만	-11.0196
당했어	-11.0198
전공	-11.02
▁착하	-11.02
결정할	-11.0202
▁해외여행	-11.0206
문자	-11.0207
사람이니까	-11.0212
어디서	-11.0213
행복할	-11.0214
평가	-11.0215
라더니	-11.0215
과정이	-11.0216
변명	-11.0221
피해	-11.0224
재밌는	-11.0224
필	-11.0225
▁맞나봐	-11.0233
사과	-11.0233
다가가는	-11.0235
▁좋네	-11.0235
얘	-11.0235
성장	-11.0236
괜찮을	-11.0239
치료	-11.024
새해	-11.024
경쟁	-11.0244
노	-11.0247
너에게	-11.0252
▁심하네	-11.0253
든든하	-11.0259
챙겨주	-11.0262
프	-11.0262
▁말자	-11.0267
▁카톡할	-11.0267
렀어	-11.0269
계절	-11.027
시기	-11.0272
전과	-11.0272
였던	-11.0277
▁다되가	-11.0284
▁정리했	-11.0286
알면	-11.0294
▁이별중	-11.0304
일부	-11.0305
늦은	-11.0306
주려고	-11.0314
▁도전해	-11.0315
좋아하나	-11.0323
수건	-11.0323
경험	-11.0324
이거	-11.0324
처	-11.0327
좋아하지	-11.0329
운명이	-11.0337
▁신고하	-11.0338
좋아하	-11.0342
▁한순간	-11.0343
그녀가	-11.0345
떨리	-11.0351
▁올리	-11.0352
탈이	-11.0355
당당	-11.0355
다보니	-11.0357
일이라	-11.0358
▁유지	-11.0379
▁죽겠	-11.0381
노력하는	-11.0399
와야	-11.04
괜찮아지	-11.0402
▁처럼	-11.0411
살다	-11.0424
▁똑	-11.0425
시간에	-11.0436
끄러워	-11.0447
오게	-11.0447
편지	-11.045
▁가득	-11.0461
▁때인	-11.047
▁멀어진	-11.048
▁당연하	-11.0507
어장	-11.0508
▁경험해	-11.0511
싹	-11.0516
▁뛰	-11.0519
▁사람이네	-11.0525
▁의미일까	-11.0531
일상	-11.0534
▁접는	-11.0535
▁움직	-11.0539
▁회	-11.054
▁되돌	-11.0542
즘	-11.0543
상황에	-11.0552
쟁	-11.0556
같지	-11.0561
꿈이	-11.0567
▁자책	-11.0569
▁멈춰	-11.0572
▁무색하	-11.058
있나	-11.0585
▁상메	-11.0587
▁사겨	-11.0587
▁가보	-11.0604
▁헤	-11.0609
▁앞이	-11.0612
곡	-11.0614
안할	-11.0617
▁하나봐	-11.0619
초대	-11.0623
▁감성	-11.0623
▁줄일	-11.0626
시키는	-11.063
▁현실이	-11.0632
꾼	-11.0632
납	-11.0638
▁돌아올	-11.0638
▁아련	-11.0639
닥	-11.0641
▁탓	-11.0649
촉	-11.0649
▁바랄	-11.065
춰	-11.0651
궈	-11.0651
콕	-11.0652
둥	-11.0653
범	-11.0653
봉	-11.0653
▁씁	-11.0653
낌	-11.0653
뱃	-11.0653
▁북	-11.0653
넋	-11.0653
뇌	-11.0653
륵	-11.0653
▁꿰	-11.0653
▁두렵	-11.0653
▁떴	-11.0653
샜	-11.0653
송	-11.0653
얼떨떨	-11.0653
옵	-11.0653
캬	-11.0653
▁간섭	-11.0653
▁견과류	-11.0653
▁공휴일에	-11.0653
▁기쁨	-11.0653
▁깍	-11.0653
▁깰	-11.0653
▁꿔	-11.0653
▁눕	-11.0653
▁드레스	-11.0653
▁묘	-11.0653
▁밑바닥	-11.0653
▁비혼주의	-11.0653
▁설렐	-11.0653
▁숫자	-11.0653
▁시간낭비인	-11.0653
▁심쿵	-11.0653
▁아날로그	-11.0653
▁앱	-11.0653
▁어딘가	-11.0653
▁예측	-11.0653
▁오지랖	-11.0653
▁잘생겨	-11.0653
▁텀	-11.0653
▁헥헥	-11.0653
▁헹	-11.0653
▁호르몬	-11.0653
▁홈	-11.0653
▁홧	-11.0653
▁히스테리	-11.0653
겐	-11.0653
눈꺼풀	-11.0653
닷	-11.0653
돕	-11.0653
됬네	-11.0653
땜	-11.0653
띠	-11.0653
렴	-11.0653
벤	-11.0653
젤	-11.0653
쿠	-11.0653
토닥토닥	-11.0653
툭	-11.0653
▁얽	-11.0653
▁하객	-11.0653
▁혼란스러워	-11.0653
▁혼란스럽	-11.0653
▁혼인신고	-11.0653
짼데	-11.0653
▁로맨스	-11.0653
▁소름돋	-11.0653
▁우습	-11.0653
▁표출	-11.0653
▁헐	-11.0653
▁흐지부지	-11.0653
왓	-11.0653
현관문	-11.0653
▁턱	-11.0653
엉엉	-11.0653
▁간질간질	-11.0653
▁느꼈	-11.0653
▁버렸다	-11.0653
오른다	-11.0653
▁씨씨	-11.0653
▁안타까워	-11.0653
뻐근	-11.0653
-	-11.0653
▁근교	-11.0653
▁미안하대	-11.0653
▁주워담	-11.0653
▁창피해	-11.0653
▁대리효도	-11.0653
▁자극이	-11.0653
▁투잡	-11.0653
▁깜빡거려	-11.0653
▁베란다	-11.0653
▁공황	-11.0653
▁욜로	-11.0653
▁땡긴다	-11.0653
▁쪼금	-11.0653
▁으으	-11.0653
▁창문	-11.0653
▁환경	-11.0653
▁쇼핑몰	-11.0653
▁관찰	-11.0654
현명	-11.0654
▁빼앗	-11.0654
▁평범	-11.0654
▁탄다	-11.0654
▁서핑	-11.0654
▁도저히	-11.0654
▁매몰	-11.0654
▁충실하	-11.0654
블루	-11.0654
▁환심	-11.0654
▁흐려지	-11.0654
▁뒤돌아	-11.0654
▁의존	-11.0654
▁배불러	-11.0654
식단조절	-11.0654
▁투성이	-11.0654
▁구썸남	-11.0654
▁빌릴까	-11.0654
▁자유여행이	-11.0654
예쁠	-11.0654
▁병행	-11.0654
▁세탁	-11.0654
▁사로잡	-11.0654
▁스노	-11.0654
▁미끄러질	-11.0654
▁비오는날	-11.0654
▁갈등	-11.0654
▁구박하	-11.0654
▁노잼	-11.0654
▁태어났을까	-11.0654
▁한숨	-11.0654
▁위축	-11.0654
▁친군	-11.0654
베리	-11.0654
▁직후	-11.0655
▁예랑이	-11.0655
울컥	-11.0655
▁구남친	-11.0655
▁증상이	-11.0655
▁도와준	-11.0655
▁떨어짐	-11.0655
▁힘이드네	-11.0655
▁헷갈려	-11.0655
▁벗겨	-11.0655
▁나빴네	-11.0655
▁좋았을텐데	-11.0655
▁엮여	-11.0655
▁그럴수	-11.0655
뜨끈	-11.0655
▁불순	-11.0655
▁찬성	-11.0655
▁보여드리	-11.0655
▁봤습니다	-11.0655
▁갈궈	-11.0656
용품	-11.0656
▁공복이	-11.0656
▁뒤숭숭하네	-11.0656
았더니	-11.0656
▁누워	-11.0656
▁체질	-11.0656
그램	-11.0656
▁백수	-11.0656
▁까먹었어	-11.0656
▁사회에서	-11.0656
격식	-11.0657
체력	-11.0657
▁곤두	-11.0657
궁금해하지	-11.0657
▁오랜연애	-11.0657
▁내딛	-11.0657
▁벌레	-11.0657
▁어울릴까	-11.0657
▁스쳐	-11.0658
▁혼밥	-11.0658
▁주인공	-11.0658
▁정신병	-11.0658
▁식혀	-11.0658
▁유명	-11.0658
잘자요	-11.0658
▁이끌어	-11.0658
잔치	-11.0658
▁스케	-11.0658
▁숨막히	-11.0658
▁짜증남	-11.0659
▁영화보러	-11.0659
▁잊혀진	-11.0659
▁올랐어	-11.0659
▁깨짐	-11.0659
▁계약	-11.066
▁유료	-11.066
▁저편	-11.066
▁반영	-11.066
재설계	-11.066
▁치마	-11.0661
▁구매	-11.0661
▁보인다	-11.0661
▁되돌아보	-11.0661
▁돌아올까	-11.0661
▁바나나	-11.0661
▁느낀다면	-11.0662
▁아까운	-11.0662
▁문제인가요	-11.0662
▁배워가는	-11.0662
집안	-11.0662
▁정리했습니다	-11.0662
▁바꿔볼까	-11.0662
▁술자리	-11.0662
▁배워볼까	-11.0663
공통점	-11.0663
▁분양	-11.0663
▁허락하	-11.0663
경제	-11.0664
▁무너졌어	-11.0664
▁생일선물	-11.0664
▁바닥	-11.0664
▁부팅	-11.0664
▁편안해질	-11.0665
▁복잡했나	-11.0665
감수성	-11.0665
겁니다	-11.0665
▁다닐까	-11.0666
▁고백했다	-11.0666
키기	-11.0666
스릴있	-11.0666
▁대학원	-11.0666
님들	-11.0666
▁달라질	-11.0667
딴짓	-11.0667
▁요청	-11.0668
난감하	-11.0668
더군	-11.0668
▁취소	-11.0669
제습기	-11.0669
▁연락했습니다	-11.0669
▁일주일이네	-11.0669
▁바람피	-11.067
▁생각하세	-11.0672
▁편린	-11.0672
▁거둬	-11.0672
▁퇴근길	-11.0672
▁있었는지	-11.0673
지나갑니다	-11.0673
▁즐거워	-11.0673
찬물	-11.0673
▁써보	-11.0673
▁무리일까	-11.0674
▁자장면이	-11.0674
탈까	-11.0674
▁찍었네	-11.0674
▁식사	-11.0674
▁되어가네	-11.0674
사랑했으니	-11.0675
갑작스러웠	-11.0675
처음이	-11.0676
▁배려해야	-11.0676
▁들텐데	-11.0676
▁누구냐	-11.0677
▁호구	-11.0678
▁기억해주	-11.0678
설계	-11.0678
▁식었어	-11.0679
▁단단해지	-11.0679
가벼워질	-11.068
▁보고파	-11.0681
▁한달반	-11.0681
▁재회했는데	-11.0681
마트	-11.0682
▁먹자	-11.0683
▁지쳤어	-11.0683
▁퇴근길에	-11.0683
▁편하대	-11.0684
방비	-11.0684
▁전학가	-11.0686
▁장난인지	-11.0686
여기까지였	-11.0687
▁권리	-11.0688
▁해외	-11.0689
▁다갔어	-11.0689
색다른	-11.069
▁귀엽죠	-11.069
▁주차장	-11.0691
허허	-11.0691
▁미운	-11.0691
▁약점	-11.0693
▁나온대	-11.0693
▁판단력	-11.0694
▁끌지	-11.0694
▁가고싶다	-11.0694
▁쓰리	-11.0694
▁연락오네	-11.0695
귀여운	-11.0696
▁밀려오	-11.0696
▁계신	-11.0696
▁씹어	-11.0698
게되네	-11.07
▁살았는데	-11.07
▁안오지	-11.07
▁쟁취하는	-11.07
▁뿌려	-11.07
▁잊자	-11.0701
▁허기	-11.0701
▁예쁜데	-11.0701
빛으로	-11.0701
▁한달만에	-11.0704
▁질문이	-11.0706
▁채우	-11.0706
▁매달려	-11.0706
버리네	-11.0707
▁헤아	-11.0708
숙취	-11.0709
▁졸라	-11.0709
▁않았다면	-11.0709
천국	-11.0711
▁엇갈리	-11.0711
▁없다는	-11.0712
▁만져	-11.0712
▁커플여행	-11.0713
쉬었다	-11.0714
주실	-11.0714
▁보약	-11.0715
주인	-11.0715
가족들	-11.0715
▁발라	-11.0715
▁없어졌으면	-11.0716
▁고집	-11.0716
▁무섭네	-11.0717
탈출구	-11.0718
설마	-11.0718
!!!,	-11.0719
▁모르겠지만	-11.072
▁안되겠죠	-11.0721
▁난방비	-11.0722
▁한달째	-11.0722
정열적	-11.0722
스러울	-11.0722
▁생생한	-11.0723
▁싫어져	-11.0726
▁얘기하지	-11.0727
▁출근길	-11.0727
▁잘살고	-11.0727
▁정리하려고	-11.0728
▁소원이	-11.0729
▁모여	-11.0729
▁받으셨	-11.0729
▁무섭다	-11.0732
깔끔한	-11.0733
???,	-11.0734
버리는	-11.0735
▁어디가지	-11.0735
▁보임	-11.0736
▁작아지	-11.0736
▁안좋	-11.0737
▁내려놓고	-11.0737
이브	-11.0738
▁지날	-11.0738
양치	-11.0739
▁괴롭다	-11.074
▁보셨나	-11.0741
▁끊어야	-11.0743
▁골랐	-11.0744
▁마시기	-11.0745
▁추스리	-11.0746
▁사과해야	-11.0747
▁하셔	-11.075
▁알려면	-11.0751
▁힘들어져	-11.0751
거니	-11.0753
▁무거	-11.0754
▁연하	-11.0754
▁필요한가요	-11.0754
▁역시나	-11.0755
▁어색해졌어	-11.0759
오르네	-11.076
꿈꾸	-11.076
실수	-11.076
▁아니었어	-11.0761
▁누락됐	-11.0761
▁다되어가네	-11.0761
▁수학여행가	-11.0762
▁11	-11.0763
▁걸었어	-11.0765
빌리	-11.077
속아주	-11.077
▁변덕	-11.077
▁저주	-11.077
▁사무	-11.0771
▁문화	-11.0771
▁느껴질	-11.0771
▁물건들	-11.0776
간당	-11.0777
▁속시원해	-11.0777
안된다	-11.0778
기다렸나봐	-11.0779
▁흠	-11.078
▁쭉	-11.078
▁떼	-11.078
▁선택할	-11.0781
▁남아있	-11.0785
▁이러고	-11.0788
▁총회	-11.0788
▁침묵	-11.0788
▁뜨겁	-11.0789
▁불쑥	-11.0789
▁꾸미	-11.0789
▁아깝다	-11.0789
▁김치	-11.0789
▁롱디	-11.079
▁공유	-11.079
▁지냈나	-11.0791
▁학벌	-11.0791
▁무언가	-11.0792
▁객관적	-11.0792
▁훔쳐보	-11.0792
▁공부방법	-11.0793
▁자장가	-11.0793
▁착잡하	-11.0794
▁두근거려	-11.0794
▁허전함	-11.0796
▁심남	-11.0799
▁감동	-11.0802
▁좋겠습니다	-11.0803
▁부담스러울	-11.0809
취직이나	-11.081
▁비밀연애	-11.081
두세	-11.0811
정확한	-11.0812
▁예고	-11.0814
정리되길	-11.0817
▁죽겠다	-11.0819
▁지났는데	-11.0819
계획적이	-11.0821
▁사랑이야기	-11.0822
▁악	-11.0824
올려봐	-11.0825
▁입을까	-11.0828
▁전여자친구	-11.0829
▁직구	-11.083
▁돌아오는	-11.083
▁표현하기	-11.083
▁연애중	-11.0832
▁아려	-11.0832
▁생각일까	-11.0833
▁지옥같	-11.0835
▁벌려	-11.0836
▁받네	-11.0837
▁동거하다	-11.0838
▁보듬어주	-11.0843
▁채워보세요	-11.0843
순수한	-11.0844
마시며	-11.0844
▁됐나	-11.0847
▁춥고	-11.0848
그쪽	-11.0851
▁둔한	-11.0853
싫다	-11.0854
▁지친	-11.0855
▁따르	-11.0856
▁익숙해져	-11.0859
▁나갈까	-11.0861
▁소심	-11.0864
지는것	-11.0865
지겠네	-11.0872
▁사귀는데	-11.0873
▁깨진	-11.0875
▁반가워요	-11.0876
▁마라	-11.0877
▁됐습니다	-11.0881
침해	-11.0881
▁귀찮게	-11.0883
▁복전	-11.0884
▁불가능	-11.0888
손잡	-11.0888
▁추가	-11.0889
조심해야	-11.0894
▁분에게	-11.0902
▁잃을	-11.0904
▁친절한	-11.0907
▁여러명	-11.0909
▁날들	-11.0912
마음으로	-11.0916
보내	-11.0918
▁답답해서	-11.0922
▁극복하	-11.0924
▁없습니다	-11.0924
적당해	-11.0926
▁돌아서	-11.0931
▁생겼나봐	-11.0931
▁없고	-11.0931
▁연애인	-11.0932
▁않으셨	-11.0933
▁남자와	-11.0934
태그	-11.0934
▁쓸데	-11.0934
▁예정	-11.0935
▁지나고	-11.0941
▁솔	-11.0943
하시겠	-11.0944
▁거지같	-11.0944
돈이	-11.0945
▁지적	-11.0947
▁너와	-11.0952
하냐	-11.0953
▁소개받	-11.0956
▁못할까	-11.0957
▁탈출	-11.0961
▁변하니	-11.0966
메리	-11.0968
모처럼	-11.0969
▁빚	-11.0973
▁찾은	-11.0974
▁버림	-11.0974
▁그러지	-11.0976
▁쏟아	-11.098
▁맨	-11.0982
▁배울	-11.0984
▁한켠	-11.0986
▁짝사랑인	-11.0987
▁설렜	-11.0987
▁모쏠	-11.0987
▁깨질	-11.0989
▁개념	-11.0989
▁포근	-11.099
▁방문	-11.099
▁등산	-11.0991
▁서툴러	-11.0993
▁흑역사	-11.0993
▁무서	-11.0994
▁무의식	-11.0995
▁안나나	-11.0996
▁낫지	-11.0997
▁갑작스럽	-11.0997
▁찾아야	-11.0997
▁펴	-11.0998
연애였는데	-11.1
▁졸업식	-11.1
▁구속	-11.1001
▁대단해	-11.1004
▁반갑	-11.1006
▁사탕	-11.1006
▁혼나	-11.1011
▁허전한	-11.1011
▁생각난다	-11.1013
감한	-11.1014
일이네	-11.1015
▁거부	-11.1015
이지	-11.1016
▁전까지	-11.1016
옥상	-11.1018
살랑	-11.1018
▁다정한	-11.1019
▁비참해	-11.1024
일뿐	-11.1024
공개해	-11.1025
▁대수	-11.1026
▁가입	-11.1026
▁충	-11.1027
화가나네	-11.103
▁울고	-11.103
▁이야기할	-11.103
▁사생활	-11.1033
▁것일까	-11.1033
▁흘렸	-11.1034
▁농구하	-11.1039
이냐	-11.104
▁생각하면서	-11.1045
▁치우	-11.1048
▁침	-11.1049
▁만들죠	-11.1051
▁받아들여지	-11.1053
기억에	-11.1056
▁딸까	-11.1057
▁다른데	-11.106
▁나이들	-11.1062
▁실망하	-11.1066
▁떨면	-11.1067
했었는데	-11.1069
▁어이없	-11.107
▁남았어	-11.1076
▁썸타다	-11.108
▁될수	-11.1081
▁하려면	-11.1082
▁놓는	-11.1082
살아가는	-11.1083
▁싫어할까	-11.1085
▁특	-11.1087
▁버려야지	-11.1087
▁돌아오기	-11.1089
▁비우	-11.1092
▁말하면	-11.1093
▁깨달았	-11.1103
▁그럴까요	-11.1108
▁짰	-11.1111
표현	-11.1113
▁썸인가요	-11.1115
▁이대로	-11.1116
▁나타났	-11.112
▁똑같	-11.1122
▁청춘이	-11.1122
남을	-11.1125
▁넘어	-11.1126
▁내려놓기	-11.1127
▁가시	-11.1131
▁배고프	-11.1131
왔습니다	-11.1135
▁먹나	-11.1136
▁백업해	-11.1145
서울	-11.1146
되겠죠	-11.1149
▁따지	-11.115
▁힘들겠죠	-11.1151
기사	-11.1156
정신없	-11.1161
신기하	-11.1161
▁순수하	-11.1163
특히	-11.1163
▁팩	-11.1172
▁알게되면	-11.1174
▁지워지	-11.1175
▁급해	-11.1175
▁사람이었어	-11.1183
▁헛	-11.1185
길래	-11.1188
▁사랑했어	-11.1188
▁무너지	-11.1191
▁볶	-11.1192
▁만족해	-11.1192
▁과식	-11.1192
▁웃기	-11.1193
▁연락하기	-11.1194
부담스러워하	-11.1195
▁뜻밖	-11.1196
일하는	-11.1197
▁머리로	-11.1198
▁이뤄지	-11.1203
▁드라이브	-11.1207
속상할거	-11.1208
▁빠른	-11.1209
상일	-11.1209
▁자다	-11.121
▁가슴은	-11.121
▁작	-11.1212
▁모자라	-11.1223
▁맞는거	-11.1224
▁그에게	-11.1232
▁보는데	-11.1233
▁갠톡	-11.1236
긍정적이	-11.1238
▁표현에	-11.1243
▁아파트	-11.1243
▁무덤덤해	-11.1247
▁자신다	-11.1249
이라서	-11.1249
▁너무하네	-11.1252
▁비만	-11.1252
▁단점	-11.1253
▁하아	-11.1264
▁아파서	-11.1265
▁받아줄	-11.1265
▁휴학	-11.1266
픈	-11.1269
▁이상한가	-11.127
약해지	-11.1274
▁저만	-11.1275
▁짝	-11.1275
▁오나봐	-11.1284
▁아무말	-11.1285
공기	-11.1286
▁연락오	-11.1286
▁믿었	-11.1286
▁자라	-11.1292
▁말만	-11.1293
▁마무리하	-11.1295
▁나가지	-11.1299
▁닮아	-11.1299
▁치열해	-11.13
▁중독인가	-11.1301
▁짜	-11.1301
▁쓸쓸하	-11.1301
▁어색한	-11.1311
▁변해가는	-11.1313
보려구	-11.1322
▁저음이	-11.1322
▁에이	-11.1322
▁힘들지만	-11.1326
▁기네	-11.1332
▁사귄지	-11.1333
▁데서	-11.1337
▁진도	-11.1339
▁지내요	-11.134
▁힘든거	-11.1341
▁애인이	-11.1344
▁줘야	-11.1347
▁기대하	-11.1347
▁불금이	-11.1348
▁넘었	-11.1349
▁타면	-11.1349
틀	-11.1352
재밌	-11.1356
▁뒀	-11.1372
▁쪄	-11.1372
▁왔	-11.1398
▁흥미	-11.1399
▁고민이네	-11.1403
▁욕하는	-11.1404
어야	-11.1414
차이	-11.1418
▁할까요	-11.142
▁산다	-11.1421
▁사회생활	-11.1425
안됩니다	-11.1427
▁껴	-11.1435
정신과	-11.1439
▁날이네	-11.1441
▁약간	-11.1452
열까지	-11.1452
▁욕을	-11.1452
▁무지	-11.1462
▁몰아	-11.1469
되어있는	-11.147
▁썼다	-11.1472
▁기다리게	-11.1477
같네	-11.1478
인사	-11.148
▁활	-11.148
▁보내세요	-11.1493
▁우연	-11.1497
▁대리	-11.1501
▁재미있	-11.1502
현금이	-11.1509
"	-11.1514
물가	-11.1516
▁전과	-11.1518
카공	-11.1518
▁동기	-11.1524
▁호의	-11.1529
▁출	-11.153
잊지	-11.1538
년하고	-11.1541
오지마	-11.1546
친구로서	-11.1548
▁좋아하지	-11.1551
▁해줬으면	-11.1553
▁욕심	-11.1559
▁없어졌	-11.1563
아파	-11.1568
궁금	-11.1574
▁할말	-11.1587
다니기	-11.1587
익숙함이	-11.1599
▁편하고	-11.16
▁지금보다	-11.1601
▁특별	-11.1602
할까요	-11.1609
▁신중	-11.1609
일지	-11.1611
▁퍼	-11.1627
정리하는	-11.1628
▁산책	-11.1638
▁놀러갈	-11.1644
▁넘은	-11.1656
▁태도에	-11.1659
기에	-11.1662
▁병신	-11.1664
▁원하	-11.1671
▁다르니	-11.1672
소음	-11.1673
▁지금이	-11.1682
▁되는건	-11.1684
다는데	-11.1685
▁죽었	-11.1687
▁감정들	-11.1695
▁상관이	-11.1699
▁부여하	-11.1699
페이	-11.1702
라네	-11.1702
▁역	-11.1707
었지만	-11.1718
▁챙겨줘	-11.1727
▁틀어	-11.1729
▁공허함이	-11.1729
안해	-11.1736
이번달	-11.1762
▁그럼	-11.1788
▁크겠	-11.1788
▁흐르면	-11.1789
미있는	-11.1791
▁단순	-11.1792
둘다	-11.1802
▁도와드	-11.1806
▁집앞	-11.181
무리	-11.1811
▁장기	-11.1814
이니까	-11.1815
▁심경	-11.1826
▁겠지	-11.1828
▁할지	-11.1831
▁끝이났	-11.184
▁나름	-11.184
이게	-11.1842
▁동물이	-11.1847
▁인내	-11.1849
▁자리에	-11.1852
끝이네	-11.1863
▁웃어주	-11.187
시는	-11.1879
▁경	-11.1886
하려면	-11.1887
▁본받	-11.189
▁소개해	-11.1893
▁그리운가	-11.1895
가을이	-11.1897
부러	-11.1899
편이	-11.1899
▁극	-11.1899
▁공통	-11.19
▁나오겠	-11.1901
큰일	-11.1906
지우	-11.1907
▁도망	-11.1907
하고싶다	-11.1911
▁지나간	-11.1914
인데요	-11.1915
▁든든	-11.1918
▁지속해	-11.1919
▁일인가봐	-11.1933
▁두근거리	-11.1936
잘하	-11.1948
어쩔수없	-11.1952
▁기도	-11.1954
정리하	-11.1955
▁극복해	-11.196
▁받는다는	-11.1961
앞	-11.197
▁맞이	-11.1975
▁추억들	-11.1983
▁시급	-11.1984
고싶다	-11.1988
▁아프지	-11.1993
▁속이는	-11.1995
▁찾아왔	-11.2
인줄	-11.2
준비하는방법	-11.2002
날려	-11.2009
확실하	-11.2009
▁길에	-11.2012
▁제자리걸음	-11.2018
▁침대	-11.2022
▁티나	-11.2025
하다고	-11.2026
겼어	-11.2028
▁달콤	-11.2039
▁사랑하나	-11.2041
▁잊으려	-11.2045
▁결국은	-11.2054
졌는데	-11.2059
▁보았	-11.2068
▁걸어보	-11.2076
▁계절	-11.2077
▁병이	-11.2087
▁기다리다	-11.209
▁아름다	-11.2099
▁갔는	-11.2105
▁낙이	-11.2107
▁났	-11.2114
나보네	-11.2115
해버렸네	-11.2115
시도	-11.2117
▁잘해야	-11.2122
것은	-11.2123
▁여지	-11.2126
▁바람난	-11.2127
▁달라지	-11.2132
걱정하	-11.2139
▁합	-11.2151
▁달라졌	-11.2156
▁풀어보	-11.2161
▁시원하	-11.2163
▁서점에	-11.2164
▁접은	-11.2167
▁보기만	-11.2168
▁멍청한	-11.2176
▁부리	-11.2181
▁많나	-11.2181
이다	-11.2189
▁안할	-11.2208
▁술이	-11.2214
▁이별이에요	-11.2225
▁탈이	-11.2233
던게	-11.224
잘되고	-11.2247
▁당연한	-11.2247
▁해야하는	-11.2276
네ᅮ	-11.2276
▁모임에	-11.2287
소식을	-11.2295
신청	-11.2302
▁찍었	-11.2312
▁기분전환	-11.2314
▁잊혀져	-11.2315
하시는	-11.2317
▁보였	-11.2319
극복	-11.2319
깔끔	-11.232
원합니다	-11.232
도움	-11.2327
▁싶을	-11.233
▁알았다	-11.2333
어이가	-11.2337
때리는	-11.2354
던데	-11.2359
해본	-11.2359
▁질려하	-11.236
비와	-11.2365
▁아파하	-11.2366
만나	-11.2376
▁사랑하세요	-11.2377
었나요	-11.2379
▁만들까	-11.2379
받았다	-11.2386
▁안하면	-11.2392
뻔	-11.2407
하고싶은	-11.242
▁확실하	-11.2423
▁정신없	-11.2425
당하기	-11.2431
▁쓰지	-11.2432
▁괴	-11.2433
▁기적	-11.2442
▁피곤	-11.245
걱정	-11.246
쳐버리	-11.2462
상처받는	-11.2472
▁돼지	-11.2475
▁적을	-11.2484
▁싸우기	-11.2487
▁본다	-11.2494
▁하니	-11.2495
▁전역	-11.2501
▁살려	-11.2502
▁수면	-11.2503
▁슬퍼하	-11.2521
▁애인	-11.253
서도	-11.2538
▁어떻해	-11.2552
▁어디가	-11.2555
데려다주려	-11.2565
했다면	-11.2579
▁줬으면	-11.2583
된다	-11.2585
야해	-11.2591
고파	-11.2595
해줬	-11.2604
▁요구하	-11.261
로그	-11.2621
▁즐겨	-11.2623
들어가	-11.2631
준비하	-11.2638
안갈	-11.2647
눈에	-11.2651
았나봐	-11.2661
▁어떡하	-11.2678
▁반복하	-11.2686
▁맞춰가	-11.2688
어찌	-11.2701
▁헬스장	-11.2701
▁아무는	-11.2705
▁다양하	-11.2712
돼야	-11.2715
▁그러는	-11.2736
선의	-11.2745
▁향기	-11.2749
▁신고	-11.2768
▁슬프네	-11.2771
▁든다	-11.2777
장소에	-11.2786
▁첫이별	-11.2789
린대	-11.2796
▁울면	-11.2804
글자	-11.2807
▁벌어	-11.2817
답이	-11.2823
효도	-11.2824
▁치맥	-11.2831
여친이	-11.2837
었지	-11.2853
옆	-11.2862
해가	-11.2879
줬	-11.2883
▁어이	-11.2892
사랑한다	-11.2894
해야할듯	-11.2896
▁이겨	-11.2901
▁답답하	-11.2927
▁의	-11.2928
지못한	-11.2937
▁놓아줄	-11.2945
▁임	-11.2945
▁웃으면	-11.2946
▁뭐였	-11.2948
일을	-11.2949
▁가까워	-11.2961
궁금하다	-11.297
잘하니	-11.2978
고장	-11.2979
달라는	-11.2989
▁시간이었을	-11.2997
▁우정이	-11.3009
▁아픈가	-11.301
끈	-11.3013
▁일이었	-11.3017
끔하	-11.3021
잊지말	-11.3026
어지고	-11.303
▁말로	-11.3038
익숙해지는	-11.3049
구질	-11.3054
▁도와주세	-11.3055
▁나라	-11.3061
▁즐겨보	-11.3082
꼼꼼한	-11.3086
거든	-11.3093
▁소원	-11.3096
한눈	-11.3114
▁알바하면	-11.3116
난거	-11.3119
▁검색해	-11.3119
집착하지	-11.3121
맘이	-11.3135
오길	-11.3139
▁하루였	-11.3147
▁했는	-11.3148
▁표현하	-11.3148
▁들어오	-11.3153
어진다	-11.3155
타는	-11.3163
생인데	-11.3176
▁말라	-11.318
▁힘들어하	-11.3184
▁씻어	-11.3187
간단	-11.3206
▁화냈	-11.3214
▁입는	-11.3217
▁남나	-11.3226
화가	-11.3228
▁부족했	-11.3231
나들이	-11.3235
▁입어보	-11.3244
▁얼어	-11.3261
▁상처주	-11.3294
▁얻는	-11.3296
▁헤어지고나	-11.3297
▁잔소리해	-11.3302
▁짧아	-11.3304
▁사랑해요	-11.3311
▁것일	-11.332
버렸습니다	-11.3324
▁날까	-11.3332
▁헤어지자네	-11.3342
달만에	-11.3355
▁지켜보는	-11.3355
▁보름달	-11.3366
겟	-11.3367
▁사랑해줘	-11.3382
▁났어	-11.3394
였는	-11.3395
한가봅니다	-11.3404
되가는데	-11.3405
역할	-11.3405
▁할때	-11.3413
방에	-11.3435
비참한	-11.3442
▁이야기는	-11.3495
▁재미있는	-11.3499
행복해	-11.3509
▁간절	-11.3522
▁헤어져야하	-11.3525
▁절친	-11.3532
한게	-11.3541
받아	-11.3546
▁100	-11.3565
나와	-11.3577
▁비가오	-11.36
보낼	-11.3601
저기	-11.3606
▁이어지	-11.3615
▁민	-11.3622
▁나약	-11.3628
▁안풀	-11.3637
▁낙	-11.365
▁신나	-11.3672
물이	-11.3675
▁날인	-11.3687
▁잔인	-11.3688
▁고치고	-11.3692
▁나날	-11.3694
할텐데	-11.3711
▁박	-11.3712
▁그나	-11.3712
워야	-11.3717
포기하지	-11.3724
▁접어두는	-11.3728
▁인정해야	-11.3737
적이	-11.3759
▁연애였	-11.3771
었나	-11.3783
▁꿨는	-11.3785
로맨틱해	-11.3786
▁잊어볼	-11.3787
▁응원해	-11.3795
▁교회에	-11.3796
▁안좋아	-11.381
후회해	-11.3815
하겠어	-11.3828
늘	-11.3829
붙	-11.3848
다녀야	-11.3871
▁어쩔수	-11.3877
▁알아주	-11.3891
▁반응해	-11.3891
▁일부	-11.3901
▁알아줄	-11.3904
▁로맨틱	-11.3927
하지마	-11.3929
▁솔직해	-11.3935
▁과에	-11.3942
▁잊어버리는	-11.3942
▁붙잡으	-11.3952
▁그랬을	-11.3954
해보는	-11.3956
일과	-11.3967
▁어떤건	-11.3967
▁얼굴이	-11.3973
▁아쉽겠	-11.3995
해하지	-11.3996
▁공시생	-11.4003
▁지키	-11.4015
▁서점	-11.4042
값이	-11.4053
막막하	-11.4066
▁약인	-11.4067
▁아프겠	-11.4068
다니고	-11.4071
을까요	-11.4072
▁날이었	-11.4076
▁미워해	-11.4089
바쁘네	-11.4091
▁위험하	-11.4093
▁많겠	-11.4099
▁말해야	-11.4109
자리	-11.4112
▁지지	-11.4112
▁깎아	-11.4115
공부하	-11.412
남편	-11.413
▁익숙해	-11.4163
전이	-11.4164
▁걸렸	-11.4165
▁터지	-11.4167
▁연락올	-11.417
▁도와드릴	-11.4184
▁준비하면	-11.4191
정적	-11.4203
▁집앞에	-11.4204
▁부여	-11.4204
▁침대에	-11.4211
이였어	-11.4217
▁의지하	-11.4224
▁어렵겠지	-11.423
▁덜하	-11.4238
▁봐야	-11.4243
▁이어나가	-11.4251
▁브	-11.4258
났네	-11.4261
웃으	-11.4269
표	-11.4276
▁친해지	-11.4297
소식에	-11.43
▁성숙	-11.4301
남에	-11.4328
▁준비하느	-11.4337
▁피나	-11.4342
▁차이일	-11.4393
놓	-11.44
▁좋아졌	-11.4404
많	-11.4436
달렸나봐	-11.4445
▁재회하고	-11.4464
▁보자	-11.4466
▁생각하기	-11.4467
좋겠	-11.4467
▁사이라	-11.4474
▁않다	-11.4478
▁친구라	-11.4479
올랐다	-11.4481
껴	-11.4485
있나봐	-11.4488
▁대상	-11.45
▁왜이	-11.45
괜찮	-11.4509
워보	-11.4513
▁내릴	-11.4518
▁약해	-11.4522
떡	-11.4523
기지	-11.4526
애매	-11.4552
부담	-11.4557
▁되었는	-11.4565
내년	-11.4568
할수	-11.4574
이었을까	-11.4576
할인	-11.458
요일	-11.4581
받지	-11.4587
▁싫지	-11.4591
▁있었지	-11.4605
지식	-11.4605
가운	-11.4626
▁괜찮아졌다	-11.4635
▁반가	-11.4639
▁불금	-11.4641
▁여행가고	-11.4648
솔직	-11.4649
▁그만하	-11.4651
있겠죠	-11.4658
안돼	-11.4661
▁잘되	-11.4662
매력	-11.4663
▁깔끔하	-11.4666
없네	-11.4669
업	-11.4685
▁성덕	-11.4689
재회	-11.4694
해야하나	-11.4696
내세요	-11.4698
이름	-11.4705
▁답인	-11.4712
▁옆	-11.4713
차분하	-11.4723
빠질	-11.4725
▁부질없	-11.4727
았	-11.4733
반복되	-11.4738
▁생겼을	-11.4738
좋을까	-11.4747
▁순수	-11.4748
▁허무하	-11.4748
가왔습니다	-11.4751
생일	-11.4752
자가	-11.4753
▁오겠	-11.4754
▁구별해	-11.4758
▁기술	-11.4767
하더라고요	-11.4771
▁보시	-11.4779
▁살만	-11.4782
필수	-11.4786
휴	-11.4802
챙겨	-11.4809
▁후회하지	-11.481
나가고	-11.4814
만나고	-11.4818
▁보내보	-11.4826
▁결혼하는	-11.4834
말도	-11.4835
뜻하	-11.4836
했습니다	-11.4839
화장	-11.4841
▁쿨	-11.4852
보러	-11.4853
흔들리	-11.4853
▁참을	-11.4858
▁만들어보	-11.4866
▁그만둬	-11.4872
선택	-11.488
사전	-11.4883
가지만	-11.4887
▁밤이	-11.4889
▁싶어서	-11.4889
랐나봐	-11.4889
남은	-11.4906
백한다	-11.491
▁다했다	-11.4913
▁시간인가	-11.4917
▁끌	-11.4921
그리워	-11.4923
습관	-11.493
여의	-11.4933
한다는	-11.4934
인다	-11.4934
후련하다	-11.4945
일어나	-11.4947
이었는데	-11.4949
혔어	-11.4949
사회	-11.495
체가	-11.495
는것	-11.4957
높	-11.4957
▁착각하	-11.4962
중간	-11.4965
다듬	-11.497
쓸데	-11.4972
▁전화하고	-11.4979
하우스	-11.4979
▁한데	-11.4984
위험하	-11.4987
충	-11.499
▁말들	-11.4991
공감	-11.4991
반복	-11.5
▁달려	-11.5001
▁변하는	-11.5003
학생	-11.5004
증이	-11.5005
어볼까	-11.5005
야근	-11.5006
세포	-11.5008
6	-11.5011
싸	-11.5014
블	-11.5016
첫사랑	-11.5016
▁미련없	-11.5018
오랜만	-11.5019
달력	-11.5026
미끄러	-11.5029
단순	-11.5033
척하는	-11.5039
중독	-11.5041
주말	-11.5041
기름	-11.5041
사귀는	-11.5042
야경	-11.5043
태	-11.5045
방학	-11.5047
걷다	-11.5054
경우	-11.5056
간대	-11.5057
▁욕해	-11.5067
향기	-11.5067
대하는	-11.5072
탈출	-11.5075
▁돌보	-11.5076
어느정도	-11.5078
인터넷	-11.5079
입장	-11.508
손편지	-11.5081
졸업	-11.5083
목소리	-11.5083
▁옥	-11.5083
찌	-11.5085
어색한	-11.5086
담배	-11.5088
발표	-11.5088
촬영	-11.509
좌절	-11.509
탈모	-11.5091
▁40	-11.5091
키스	-11.5093
실패	-11.5093
정해져	-11.5094
싱숭생숭	-11.5094
성별	-11.5096
조절	-11.5096
아빠	-11.5096
피부	-11.5096
키우	-11.5098
쓸	-11.5098
▁변해가	-11.5099
허전한	-11.5102
버스	-11.5102
▁좋았겠	-11.5102
방향	-11.5102
패	-11.5104
▁싫어해	-11.5104
정답	-11.5104
존재	-11.5104
생각나네	-11.5104
선톡	-11.5106
똑같	-11.5106
헤어질	-11.5106
언제쯤	-11.5107
액	-11.5107
사귀면	-11.511
끌	-11.511
▁비워보	-11.5112
굳	-11.5112
빙	-11.5112
오랜	-11.5112
사귈	-11.5115
친구들이	-11.5115
시키	-11.5116
▁손이	-11.5117
갑작스럽	-11.5117
좋아하시	-11.5118
예민한	-11.5119
어울리	-11.512
흑역사	-11.5121
서툴러	-11.5121
센	-11.5121
배고프	-11.5122
태어난	-11.5122
동생한테	-11.5123
무의식	-11.5123
허리	-11.5124
졸업식	-11.5124
아이스크림	-11.5124
축	-11.5125
구두	-11.5126
가치관이	-11.5126
자격증	-11.5127
인스타	-11.5128
광	-11.5128
위로해	-11.5128
버려야지	-11.5128
잘지내	-11.5129
어제	-11.5129
봉사활동	-11.513
트라우마	-11.5131
모쏠	-11.5131
설렜	-11.5131
축구	-11.5131
한켠	-11.5131
등산	-11.5131
취미생활	-11.5132
콩깍지	-11.5132
맨	-11.5132
있네	-11.5132
자존심	-11.5132
개념	-11.5133
정신차리	-11.5133
노래방	-11.5134
찜질방	-11.5134
짜장면	-11.5134
첫인상	-11.5134
사생활	-11.5134
소문	-11.5134
부족한	-11.5135
예비	-11.5135
구속	-11.5135
고마워	-11.5136
멋져	-11.5136
가능해요	-11.5137
마침표	-11.5137
끝났네	-11.5138
케이스	-11.5138
▁매달	-11.5138
에너지	-11.5139
반갑	-11.5139
영원한	-11.514
오랫	-11.514
사탕	-11.514
쏟아	-11.5141
됐	-11.5142
표현하는	-11.5142
떠오르	-11.5142
잠수이별	-11.5144
무릎	-11.5144
패턴	-11.5145
핑계	-11.5145
어둠	-11.5145
상황을	-11.5146
부자	-11.5147
염색	-11.5147
▁짝사랑이	-11.5147
따듯	-11.5147
걱정하지	-11.5147
미팅	-11.5148
마무리	-11.5148
집착	-11.5148
방문	-11.5148
읽씹	-11.5148
침대	-11.5148
즐겁	-11.5149
학생이	-11.5149
업무	-11.5149
▁정리해야	-11.5149
나한테	-11.5149
메모	-11.515
▁관계에	-11.515
빚	-11.5151
▁따듯	-11.5152
털	-11.5153
은퇴	-11.5153
그녀에게	-11.5154
위험	-11.5154
듣고	-11.5155
집안일	-11.5155
사실	-11.5157
딴	-11.5157
소모	-11.5157
욕해	-11.5159
조용	-11.516
▁지우는	-11.5161
솔	-11.5163
9	-11.5164
똑똑	-11.5165
버림	-11.5166
판단	-11.5166
배울	-11.5166
고맙다	-11.517
자리에	-11.517
땀	-11.517
땅	-11.517
짠	-11.517
해결	-11.5171
깨달음	-11.5171
춥	-11.5171
인형	-11.5173
다정한	-11.5175
나쁘	-11.5177
▁전하면	-11.5177
불편	-11.5181
이혼이	-11.5181
갚	-11.5182
▁깨달	-11.5182
여우	-11.5183
부려	-11.5184
▁생각할수	-11.5184
선택할	-11.5186
어쩌	-11.5187
허전하	-11.5187
씻	-11.5188
짝사랑하는	-11.5188
삼	-11.5189
한달	-11.5191
에휴	-11.5192
▁싫어하나	-11.5193
받아들	-11.5193
낫네	-11.5196
절약	-11.52
알아봐	-11.52
이쁜	-11.5201
단수	-11.5203
온대	-11.5204
시작할	-11.5205
투자	-11.5207
이상한	-11.5208
직하	-11.5208
제발	-11.5208
기술이	-11.5209
아니었나	-11.5212
먼	-11.5212
배우는	-11.5212
막말	-11.5215
독서	-11.5215
사랑한다면	-11.5216
외로움	-11.5219
헤아	-11.5219
꿨	-11.522
배우자	-11.5222
좋아하는데	-11.5227
편하고	-11.5231
뽑	-11.5232
일주일이	-11.5233
헷갈	-11.5234
▁느낀	-11.5234
하루에도	-11.5236
이혼	-11.5239
▁받으	-11.5244
▁잃	-11.5249
생각날	-11.5251
▁죽는	-11.5253
헤어	-11.5255
나올	-11.5255
행복하게	-11.5256
맞춰가	-11.5257
울적	-11.5258
주차	-11.5258
어야죠	-11.526
있다	-11.5262
은거	-11.5266
붙는	-11.5267
코스	-11.5269
▁구멍	-11.5269
신가요	-11.5273
심장	-11.5274
▁직업	-11.5284
▁질거	-11.5287
보이	-11.5287
시켜야	-11.5291
걱정이	-11.5295
사랑하기	-11.5296
하루에	-11.53
미루	-11.5304
어린	-11.5305
야근이	-11.5307
말로	-11.5308
심리	-11.5311
들었어	-11.5311
쓸데없	-11.5318
주제	-11.5319
꿈에서	-11.5324
▁프	-11.5332
▁표현할	-11.5333
말하는	-11.5333
성향	-11.5334
▁확인하	-11.5339
▁말아보	-11.534
기술	-11.5344
의욕	-11.5348
힘이	-11.5351
▁싫은가	-11.5353
▁날에	-11.5354
돌아오	-11.5354
부담되	-11.5356
▁기억들	-11.5358
사랑하나	-11.5359
▁모르니	-11.5367
화장하	-11.5367
포근	-11.5371
말하지	-11.5372
남기	-11.5372
야할지	-11.5374
일요일	-11.5375
이루	-11.5377
▁복전하	-11.5377
잘해야	-11.5385
젠	-11.5388
▁덤덤해	-11.539
친구로	-11.5393
치과	-11.5398
재미있는	-11.5399
나긴	-11.5401
만나자는	-11.5401
살기	-11.5402
가족이	-11.5405
▁안맞	-11.5405
놓아주	-11.5409
▁거래	-11.5409
위험할	-11.5411
밀어	-11.5416
▁익숙	-11.5424
사주	-11.5424
먹는	-11.543
못하겠어	-11.5433
이해	-11.5433
헛헛하	-11.5433
찾	-11.5435
스타일이	-11.5436
▁다녀오	-11.5439
▁이별했	-11.5442
알고	-11.5447
제로	-11.5457
쁜	-11.5461
▁밉	-11.5462
당신에게	-11.5463
상처를	-11.5466
사람이다	-11.5466
이상형이	-11.547
아지길	-11.5473
남보다	-11.5477
기운을	-11.5478
▁수학여행	-11.5479
▁머릿	-11.5481
이미	-11.5485
근한	-11.5486
안되	-11.5486
▁늙어	-11.5491
로우니	-11.5493
▁적극적이	-11.5493
루	-11.5499
▁안됐	-11.5501
▁생각했	-11.5501
지쳐	-11.5504
▁추스	-11.5505
람을	-11.5517
▁잘생겼	-11.552
살고	-11.5524
▁반가워	-11.5524
믿는	-11.5534
어지지	-11.5535
없다가	-11.554
▁영화보	-11.5548
을거	-11.5549
갔네요	-11.555
마지막이	-11.5551
조급하	-11.5555
▁진심이	-11.5558
다치	-11.556
길러	-11.556
고치고	-11.5564
데이트하기	-11.5565
맥	-11.5569
▁아쉬움	-11.5573
이직	-11.5574
▁되시	-11.5574
▁질문	-11.5575
▁하셔야	-11.5576
▁쟁취하	-11.5577
▁밤인	-11.5582
환	-11.5586
▁니	-11.5586
▁심심하다	-11.5588
▁써야	-11.559
폭풍	-11.559
났으면	-11.5593
그치	-11.5593
마셔	-11.5593
▁권	-11.5596
▁흔적이	-11.5599
놓으	-11.5599
▁바보라	-11.5602
▁어떠	-11.5604
을거야	-11.561
▁선물해	-11.5611
안하는	-11.5614
▁불효	-11.562
▁두셨	-11.562
▁스타	-11.5621
불가	-11.5624
▁신청해	-11.5626
습기	-11.5627
▁대단	-11.5629
당황했	-11.5631
언제가	-11.5631
▁늙	-11.5635
쩌	-11.5635
감성적	-11.5637
▁갖는	-11.5638
귄	-11.564
▁컸	-11.5641
십	-11.5643
행복이	-11.5643
똥	-11.5644
현	-11.5645
끗	-11.5645
킨	-11.5648
▁태어났	-11.565
▁자유로워	-11.565
▁엮	-11.565
▁씌	-11.565
▁음	-11.565
▁끓	-11.565
예뻐해	-11.565
괜찮은거	-11.5651
험해	-11.5651
쑥	-11.5652
첨	-11.5652
▁희생	-11.5652
▁밝	-11.5652
탄	-11.5652
앗	-11.5652
▁컴	-11.5652
뚝	-11.5652
찢	-11.5652
텔	-11.5653
▁렌	-11.5653
▁비행기	-11.5653
▁어울릴	-11.5653
탐	-11.5653
댓	-11.5653
l	-11.5653
▁무뚝뚝해	-11.5653
권이	-11.5653
덩	-11.5653
릭	-11.5653
웽	-11.5653
윙	-11.5653
▁깬	-11.5653
▁날카로워	-11.5653
▁북받쳐	-11.5653
균	-11.5653
넹	-11.5653
녔	-11.5653
띰	-11.5653
렉	-11.5653
뿅	-11.5653
웁	-11.5653
찹	-11.5653
챘	-11.5653
흡	-11.5653
▁기획사	-11.5653
▁김치볶음밥	-11.5653
▁뺏	-11.5653
▁서툴어	-11.5653
▁폰겜	-11.5653
▁풍부	-11.5653
닦	-11.5653
%	-11.5653
;	-11.5653
CC	-11.5653
D	-11.5653
O	-11.5653
P	-11.5653
X	-11.5653
go	-11.5653
▁감정컨트롤	-11.5653
▁거리두기	-11.5653
▁건강검진	-11.5653
▁관절염	-11.5653
▁교직이수	-11.5653
▁규	-11.5653
▁금사빠	-11.5653
▁깜깜	-11.5653
▁노처녀	-11.5653
▁논문	-11.5653
▁동문서답	-11.5653
▁두근두근	-11.5653
▁들켰	-11.5653
▁롤	-11.5653
▁모태솔로	-11.5653
▁묻	-11.5653
▁부딪히	-11.5653
▁블랙박스	-11.5653
▁빡빡	-11.5653
▁뽀뽀	-11.5653
▁상견례	-11.5653
▁샐러드	-11.5653
▁섞	-11.5653
▁소풍	-11.5653
▁숏컷	-11.5653
▁식욕폭발	-11.5653
▁실험실	-11.5653
▁썰	-11.5653
▁예식장	-11.5653
▁웨딩	-11.5653
▁웨딩드레스	-11.5653
▁의사표시	-11.5653
▁재택근무	-11.5653
▁전기장판	-11.5653
▁젊	-11.5653
▁조명빨	-11.5653
▁주저리주저리	-11.5653
▁쥐꼬리	-11.5653
▁짬뽕	-11.5653
▁춘곤증인가	-11.5653
▁취뽀	-11.5653
▁컨트롤	-11.5653
▁켠	-11.5653
▁클스마스	-11.5653
▁탄탄	-11.5653
▁텁텁	-11.5653
▁피어싱	-11.5653
▁햇볕	-11.5653
▁험담	-11.5653
▁헤헤	-11.5653
▁호박씨	-11.5653
▁화풀이	-11.5653
걍	-11.5653
괘씸하	-11.5653
귤	-11.5653
깃	-11.5653
꽂	-11.5653
꿩	-11.5653
넛	-11.5653
넥	-11.5653
뇨	-11.5653
눴	-11.5653
닭	-11.5653
돌아섰	-11.5653
뒹	-11.5653
뚱	-11.5653
랭	-11.5653
룰	-11.5653
룸	-11.5653
룽	-11.5653
맹	-11.5653
메이크업	-11.5653
뮤	-11.5653
밭	-11.5653
벨	-11.5653
불륜	-11.5653
붓	-11.5653
뷔	-11.5653
빽	-11.5653
삔	-11.5653
샘	-11.5653
섣부르	-11.5653
섯	-11.5653
섹	-11.5653
쇠	-11.5653
스몰웨딩	-11.5653
씰룩	-11.5653
옛	-11.5653
익숨함	-11.5653
젝	-11.5653
줍	-11.5653
쥬	-11.5653
즙	-11.5653
징글	-11.5653
짤	-11.5653
쨌	-11.5653
찡	-11.5653
쳇	-11.5653
층	-11.5653
컷	-11.5653
템	-11.5653
▁괴로웠을	-11.5653
▁반배정	-11.5653
▁정동진	-11.5653
c	-11.5653
▁가르쳐	-11.5653
▁깐깐	-11.5653
▁깼	-11.5653
▁낙엽	-11.5653
▁띵	-11.5653
▁마찬가지	-11.5653
▁부딪혀	-11.5653
▁사투리	-11.5653
▁얇	-11.5653
▁옮	-11.5653
▁중소기업	-11.5653
▁지겹	-11.5653
▁쪘	-11.5653
▁찾아갔습니다	-11.5653
▁콕콕	-11.5653
▁탄생	-11.5653
▁행동일수도	-11.5653
죄송해	-11.5653
▁고구마	-11.5653
▁꼴	-11.5653
▁나쁨	-11.5653
▁덮	-11.5653
▁들이댔	-11.5653
▁씨앗	-11.5653
▁애매모호	-11.5653
▁처량하	-11.5653
▁헌팅	-11.5653
▁훈	-11.5653
곱씹	-11.5653
깅	-11.5653
버렸나	-11.5653
뻤	-11.5653
섬유	-11.5653
솜	-11.5653
쑤	-11.5653
찔러	-11.5653
▁견딜	-11.5653
▁슈퍼문이	-11.5653
▁쌍커풀	-11.5653
▁으악	-11.5653
;;,	-11.5653
▁거슬려	-11.5653
▁돌싱	-11.5653
▁식도염	-11.5653
▁조교하면	-11.5653
▁황사	-11.5653
그리웠나	-11.5653
왼	-11.5653
▁근황	-11.5653
▁댓글	-11.5653
▁메시지	-11.5653
▁진부한	-11.5653
▁쪽팔	-11.5653
▁술주정	-11.5653
▁카풀	-11.5653
▁해결방안	-11.5653
뽀송	-11.5653
▁스킨	-11.5653
▁양면과	-11.5653
▁넘어질뻔	-11.5653
▁태몽	-11.5653
겉모습	-11.5653
▁헤어졋	-11.5653
▁핸드	-11.5653
▁포근포근	-11.5653
▁감미로	-11.5653
▁체육	-11.5653
▁허무해	-11.5653
▁서먹해	-11.5653
▁가라앉혀	-11.5653
▁드러내	-11.5653
걸레질	-11.5653
구분짓	-11.5653
▁유세부	-11.5653
알뜰	-11.5653
▁소홀	-11.5654
▁렌즈	-11.5654
▁처방	-11.5654
▁중간중간	-11.5654
▁호텔	-11.5654
하소연	-11.5654
▁뻔뻔	-11.5654
▁폭식	-11.5654
▁광탈	-11.5654
▁초조해	-11.5654
▁문화센터	-11.5654
▁일반적이	-11.5654
▁애써봐	-11.5654
▁팔뚝	-11.5654
▁담담하	-11.5654
▁스킨쉽	-11.5654
▁어장관리	-11.5654
▁텅비	-11.5654
▁대리님	-11.5654
▁출국	-11.5654
경제력	-11.5654
▁부작용	-11.5654
댄디	-11.5654
▁팔찌	-11.5654
▁건물주	-11.5654
수십번	-11.5654
▁물건	-11.5654
▁멀미	-11.5654
▁선연하	-11.5654
▁대충	-11.5654
▁원망스럽	-11.5654
▁기뻐해	-11.5654
▁소액	-11.5654
▁영화보재	-11.5654
▁쳐다봄	-11.5654
부담된다	-11.5654
어째서	-11.5654
▁눌러	-11.5654
▁독학하	-11.5654
▁국경	-11.5654
▁폭식증	-11.5654
▁복합적	-11.5654
▁퇴사	-11.5655
▁놀이터에	-11.5655
▁마음가짐	-11.5655
▁그만할래	-11.5655
▁짜증난다	-11.5655
▁짝사랑이었네	-11.5655
▁괴로운	-11.5655
▁답변	-11.5655
▁단톡에	-11.5655
▁변명거리	-11.5655
▁주저리	-11.5655
▁헤어졌을때	-11.5655
▁허전해	-11.5655
▁뜬금	-11.5655
▁쓸모	-11.5655
왔다갔다	-11.5655
▁떠나갔네	-11.5655
▁꽃바구니	-11.5655
▁문콕	-11.5655
▁무뎌져	-11.5655
▁타입인	-11.5655
▁후덜덜	-11.5655
▁후련해졌	-11.5655
▁살려줘	-11.5655
▁한심하네	-11.5655
▁감추는	-11.5655
▁양다리	-11.5655
▁다음날	-11.5655
▁고시생	-11.5655
▁인형뽑기	-11.5656
▁강해지	-11.5656
▁머물	-11.5656
합시다	-11.5656
▁야구장	-11.5656
▁비교돼	-11.5656
▁지옥이네	-11.5656
존경	-11.5656
▁맞출까	-11.5656
▁삐져	-11.5656
▁씁쓸하네	-11.5656
▁잊었다	-11.5656
▁입소문	-11.5656
▁잠식시키	-11.5656
▁앞서서	-11.5656
▁잊어버려	-11.5656
빌어먹을	-11.5656
▁대충했	-11.5656
순위	-11.5656
▁무색해지네	-11.5656
▁데려달라고	-11.5657
▁먹먹함	-11.5657
▁구걸하	-11.5657
▁끝냈습니다	-11.5657
▁내려놔	-11.5657
▁꼬셔	-11.5657
▁수상한데	-11.5657
▁부담스러운데	-11.5657
▁사치인	-11.5657
▁숨쉬	-11.5657
▁성급	-11.5657
▁일어난	-11.5657
년동거	-11.5657
▁되어갑니다	-11.5658
잡히네	-11.5658
▁친추	-11.5658
▁잡담	-11.5658
▁기름값	-11.5658
▁돌아온	-11.5658
▁필요했을텐데	-11.5658
▁끝인거겠죠	-11.5658
▁영역	-11.5658
▁비왔으면	-11.5658
▁떠올라	-11.5658
▁씌었나봐	-11.5658
우니	-11.5658
▁말았네	-11.5658
▁뽑아	-11.5658
▁영원했으면	-11.5658
▁서운한거	-11.5658
▁시누	-11.5658
▁바보짓	-11.5658
잊기싫은	-11.5658
▁진담	-11.5659
▁엊그	-11.5659
▁다가온	-11.5659
▁촉이	-11.5659
▁자야하는데	-11.5659
▁청강	-11.5659
▁외박	-11.5659
▁괴롭혀	-11.5659
▁떠나갔어	-11.5659
난처	-11.5659
▁탓인지	-11.5659
▁공허하네	-11.5659
아이구	-11.566
쳐올	-11.566
▁불러준	-11.566
▁확실해졌	-11.566
▁매순간	-11.566
▁찾으	-11.566
▁골인	-11.566
▁잔인하네	-11.566
▁시절	-11.566
▁신입	-11.5661
▁데려다줬는데	-11.5661
국물	-11.5661
▁해낸	-11.5661
▁새롭	-11.5661
될것같	-11.5661
▁가혹	-11.5661
▁끊었으면	-11.5661
▁잊어야한다는	-11.5661
대부분	-11.5661
▁애키우	-11.5661
▁남은걸까	-11.5661
▁긴장돼	-11.5661
투덜	-11.5661
▁못받	-11.5661
▁예전처럼	-11.5662
통이	-11.5662
▁받아드리	-11.5662
▁못믿겠	-11.5662
▁장난친	-11.5662
▁바래다	-11.5662
▁여기까지였나	-11.5662
▁산이네	-11.5662
▁초초	-11.5663
▁취급	-11.5663
▁솔직했으면	-11.5663
▁예민해져	-11.5663
▁따위	-11.5663
▁주름	-11.5663
냈는데	-11.5663
▁학교생활	-11.5663
▁개당황	-11.5663
▁고백해도될까	-11.5664
▁먹먹	-11.5664
주룩	-11.5664
동아리에	-11.5664
▁이용당	-11.5664
▁대학교	-11.5664
▁해결해줄	-11.5664
▁비례	-11.5664
원하던	-11.5665
▁싫었는데	-11.5665
▁잠들기	-11.5665
▁컸으면	-11.5665
▁아휴	-11.5665
▁떠났습니다	-11.5665
▁태어났으면	-11.5665
불타오르	-11.5665
▁원두	-11.5665
▁착각일까	-11.5665
환해	-11.5666
주눅들	-11.5666
▁신기해	-11.5666
▁귀엽대	-11.5666
▁달라질까	-11.5666
▁작별	-11.5667
▁"4	-11.5667
킬	-11.5667
▁지침	-11.5667
갱신	-11.5668
▁버려달라고	-11.5668
발등	-11.5668
▁끝냈는데	-11.5668
▁돌아다니	-11.5668
▁기계	-11.5669
▁절망적	-11.5669
변덕스러운	-11.5669
받아들여야할	-11.5669
▁정리되었길	-11.5669
▁경과	-11.5669
▁냄새날	-11.5669
▁열받아서	-11.5669
▁맞추려고	-11.5669
▁엉망	-11.5669
언제부터인지	-11.5669
▁맞는거겠죠	-11.567
▁냉정할	-11.567
▁퇴근시간	-11.567
▁부담돼	-11.567
▁소용	-11.567
▁하품	-11.5671
주정도	-11.5671
▁아플까	-11.5671
▁나오지	-11.5671
▁괜찮았는데	-11.5672
▁봐야겠다	-11.5672
하기로했	-11.5672
▁돌아올거	-11.5672
크림	-11.5672
▁쌓아	-11.5672
달반	-11.5672
▁사갈까	-11.5673
▁잊고싶다	-11.5673
▁어디있을까	-11.5673
▁식단	-11.5673
▁은퇴후	-11.5673
떠보	-11.5673
▁심란	-11.5673
▁가족같은	-11.5674
▁눈빛	-11.5674
▁무서운건	-11.5674
보네	-11.5674
키니	-11.5674
▁놓쳤다	-11.5674
학번	-11.5675
▁사랑했다는	-11.5675
▁않았을텐데	-11.5675
▁깨졌는데	-11.5675
찬하	-11.5676
▁시켜줘	-11.5676
▁사라질까	-11.5676
▁비추	-11.5676
▁간지러	-11.5676
▁몸매	-11.5676
▁나날이었	-11.5676
▁결재	-11.5676
▁받았습니다	-11.5677
뜨문	-11.5677
▁파혼했어	-11.5677
▁또라이	-11.5677
▁울었어	-11.5678
▁차리래	-11.5678
미칠꺼	-11.5678
▁겁이나	-11.5678
▁임신	-11.5678
▁싶었는데	-11.5679
꾸룩	-11.5679
▁듣고싶어	-11.5679
▁만나고왔어	-11.5679
▁돌아간	-11.568
릴까	-11.568
가운데	-11.568
▁털어	-11.568
▁발렌타인데이인데	-11.568
▁파마	-11.568
▁솔로야	-11.568
▁순간들이	-11.568
▁지키기	-11.5681
▁한쪽	-11.5682
개월간의	-11.5682
▁떨어진	-11.5683
▁보름	-11.5683
▁삼주	-11.5683
▁힘든거네	-11.5683
▁안되는건가	-11.5683
▁답일까	-11.5683
▁방구	-11.5684
▁시린	-11.5684
▁털어버	-11.5684
▁떨어졌	-11.5685
던곳	-11.5685
▁돌봐	-11.5686
해본적	-11.5686
▁회의감	-11.5687
▁불효자	-11.5687
▁주체할	-11.5687
▁오늘밤	-11.5688
▁결혼생활	-11.5688
▁결혼해야할까	-11.5688
명언	-11.5688
▁사랑꾼	-11.5688
▁판단하지	-11.5688
▁면세	-11.5689
▁설레발	-11.5689
▁느끼나	-11.5689
▁무난	-11.5689
▁이번주	-11.5689
바구니	-11.5689
▁쓰디	-11.569
크게	-11.569
▁레고	-11.569
▁올려봅니다	-11.569
▁잘생긴	-11.5691
출할	-11.5692
▁화났	-11.5694
들어도	-11.5694
▁취향인데	-11.5694
▁순진	-11.5694
▁은퇴	-11.5695
개월동안	-11.5695
▁그런건지	-11.5695
▁마음이란게	-11.5695
따르	-11.5696
초반	-11.5696
▁떠오르네	-11.5697
▁사겼는데	-11.5697
▁완벽해지	-11.5697
▁먹여주나	-11.5697
▁담아	-11.5697
▁후회돼	-11.5698
관에	-11.5698
인척	-11.5699
근무	-11.57
▁낫겠	-11.57
▁죽고싶	-11.5701
▁필요없어	-11.5701
겟죠	-11.5701
▁안돌아오나	-11.5701
▁온천	-11.5702
▁전남자친구	-11.5702
▁만나지말	-11.5702
▁보조	-11.5702
▁피해자	-11.5703
▁몇번	-11.5703
무덤덤한데	-11.5704
▁졸리	-11.5704
▁사이트	-11.5705
▁화살	-11.5705
웠으면	-11.5705
무뎌진	-11.5705
▁다음주	-11.5705
▁긴여	-11.5705
▁이것만	-11.5706
▁죽음	-11.5706
환상	-11.5707
▁해주기	-11.5707
덤덤하게	-11.5708
▁오후	-11.5708
▁노답이	-11.5708
▁생일이야	-11.5708
직감	-11.5708
▁기부	-11.5709
▁느끼게	-11.571
진행중	-11.571
▁그런거지	-11.5712
▁괜찮아지길	-11.5713
▁오르고	-11.5713
친구들	-11.5713
▁쓰여	-11.5714
▁알아버렸	-11.5715
▁힘드네ᅮ	-11.5716
액션	-11.5716
▁약이라는	-11.5716
▁깨지고	-11.5717
▁같았나	-11.5717
리스	-11.5717
된다는	-11.5718
▁들었는데	-11.5718
모닝	-11.5719
▁배부르	-11.5719
▁적응해	-11.572
이별하신	-11.5722
건들이	-11.5723
▁남아있나	-11.5724
잊으	-11.5724
▁어쩌죠	-11.5724
▁심심하다고	-11.5725
▁헤어지신	-11.5725
느껴진다	-11.5725
올릴까	-11.5726
▁사줄까	-11.5727
▁잘지내고	-11.5728
스럽다	-11.5728
▁썼는데	-11.5728
▁사랑스럽	-11.5728
▁찾아오길	-11.5728
▁멋있어	-11.5729
헤어졌으니까	-11.5729
▁붙어	-11.573
리마	-11.573
동성애	-11.573
▁그놈	-11.5732
▁갈구	-11.5732
▁생겼대	-11.5733
갔네	-11.5733
▁면	-11.5733
▁가출	-11.5733
▁심정	-11.5733
▁같을까	-11.5734
▁안오	-11.5735
▁전화하기	-11.5735
▁이겨내기	-11.5735
▁차임	-11.5735
▁들어줄래	-11.5735
▁쓰이네	-11.5736
▁사랑이였	-11.5736
▁장수	-11.5737
생에	-11.5738
▁쳐다보	-11.5738
▁후련해	-11.5738
▁자유로워질까	-11.5739
▁감당이	-11.5739
▁철벽치	-11.574
▁찾아볼까	-11.5741
▁개인	-11.5742
▁위안	-11.5743
▁지워버리	-11.5743
▁구상	-11.5744
▁모질	-11.5744
▁초기	-11.5746
쓰담	-11.5746
▁무사	-11.5748
▁무뎌졌	-11.5748
▁꾸는데	-11.5748
자제하는	-11.5748
걸어다니	-11.5748
▁사실일	-11.5749
▁아프니까	-11.5749
친구에게	-11.5749
▁마디	-11.575
▁위대한	-11.575
여행지에서	-11.575
▁모른	-11.5751
▁흐음	-11.5752
▁그렇겠지	-11.5753
▁먹방	-11.5754
겨울에	-11.5757
고쳐	-11.5757
▁소통	-11.5757
▁나이먹	-11.5758
할꺼야	-11.5759
▁엿같	-11.576
▁힘드신	-11.5761
▁무너졌	-11.5761
▁봄방학	-11.5763
당사자만	-11.5765
망이지	-11.5765
기네	-11.5766
▁나올까	-11.5766
▁짝사랑중	-11.5766
▁메일	-11.5766
▁질린다	-11.5767
▁휘둘리	-11.5768
▁회의	-11.5768
▁정상인가	-11.577
▁불만만	-11.577
미안함	-11.5772
▁털어내	-11.5773
▁무색하게	-11.5773
▁상메에	-11.5776
용서	-11.5776
할까봐	-11.5776
▁솔로인	-11.5777
▁해야겠어	-11.5778
▁답장해	-11.5778
부끄러	-11.5778
회복되	-11.5779
▁모자	-11.5779
▁제사	-11.5779
▁기차	-11.578
▁정리해야지	-11.5781
▁흘렀는데	-11.5782
▁높이	-11.5784
▁노래들	-11.5785
그분과	-11.5787
▁나오는데	-11.579
▁본인만	-11.579
▁다시만나	-11.579
▁안되겠지만	-11.5791
내키는	-11.5792
▁놀려	-11.5793
▁외로울	-11.5793
운명적	-11.5793
▁없었나봐	-11.5794
실수했다	-11.5794
▁화나고	-11.5797
▁불안한	-11.5799
▁지내는데	-11.58
인간적	-11.58
수수한	-11.58
▁끝이보	-11.5801
▁못잊을	-11.5802
▁보이는데	-11.5802
▁잊어가	-11.5803
▁일주일째	-11.5804
▁오늘부	-11.5807
▁질리게	-11.5807
놓은	-11.5807
추세	-11.5807
▁이별할때	-11.5807
▁설레게하	-11.5809
▁꺼질	-11.5809
▁오긴	-11.5814
▁뭘해도	-11.5814
▁못하나봐	-11.5817
▁맘대로	-11.5818
어질	-11.5818
▁단어	-11.5819
▁동거중	-11.5819
사가	-11.5819
공감되	-11.5819
참아왔	-11.582
▁내려놓으면	-11.5823
▁있다는데	-11.5828
직한	-11.5829
휴우	-11.583
▁젖어	-11.5831
▁취직이	-11.5833
▁힘드나	-11.5833
▁생활비	-11.5835
▁매달리	-11.5836
▁티비	-11.5839
▁양심	-11.5839
데이인데	-11.5841
▁이별하려	-11.5841
▁전화할	-11.5841
▁시켰	-11.5842
▁도자기	-11.5842
▁이루어질	-11.5844
일째인데	-11.5845
않으려고	-11.5845
▁잘지내고있	-11.5847
▁이별이야기	-11.5848
▁누구니	-11.5848
▁밉다	-11.5848
▁지웠	-11.585
▁머릿속에	-11.5852
▁찰랑	-11.5855
▁초라해	-11.586
▁온다면	-11.5861
▁불안하	-11.5863
하던가요	-11.5864
▁삐	-11.5866
▁밑	-11.5867
생각하기	-11.5868
두분이	-11.5871
▁썩	-11.5874
▁씁쓸	-11.5876
▁필요할까	-11.5877
▁먹었나봐	-11.5877
▁술이야	-11.5878
▁떨어지지	-11.588
바싹	-11.5881
▁말했으면	-11.5883
쓰레기통	-11.5884
▁없었어	-11.5885
▁푸석	-11.5885
▁꼈어	-11.5885
▁억울	-11.5886
▁수순	-11.5886
▁불쌍	-11.5886
▁착해	-11.5887
▁치킨	-11.5887
▁부모	-11.5888
▁한마디	-11.5888
▁집사	-11.5889
▁냉정해	-11.5889
▁감수	-11.5889
가입	-11.5889
세우	-11.589
▁책보	-11.589
▁오나	-11.589
거같네	-11.589
▁주절	-11.5892
▁근질	-11.5892
▁힘들줄	-11.5892
정량	-11.5892
▁기운내	-11.5892
▁휴유증	-11.5892
▁피시방	-11.5893
그립지만	-11.5894
▁힘드셨	-11.5894
▁낮술	-11.5895
답답하신가	-11.5895
▁모양	-11.5895
▁바람둥이	-11.5897
▁홀	-11.5899
▁찾아갔네	-11.5899
▁나쁜놈	-11.5899
▁그후	-11.5899
▁자금	-11.5901
▁길거리에	-11.5901
▁입맛없	-11.5902
▁당했습니다	-11.5903
▁봤으면	-11.5904
처음만	-11.5905
▁받았나	-11.5905
▁것이겠죠	-11.5905
▁심난	-11.5906
싶어요	-11.5906
▁대쉬해	-11.5907
▁이후	-11.5907
는건가	-11.5908
▁아니었나	-11.5908
▁예를	-11.5908
▁의미일까요	-11.5909
▁남이죠	-11.5909
▁속지말	-11.591
▁환장	-11.591
▁감기약	-11.5911
아리	-11.5911
▁지금까지	-11.5911
▁연기	-11.5915
▁끈	-11.5916
예상	-11.5916
라구	-11.5919
▁놀라	-11.592
▁남녀	-11.5921
▁안내는	-11.5921
보내주려	-11.5922
▁장난치	-11.5922
▁차라	-11.5923
▁세월이	-11.5923
착이	-11.5926
좋으면서	-11.5928
~~,	-11.5929
꼬시지	-11.5934
▁한달인데	-11.5935
▁억	-11.5935
▁여친과	-11.5935
▁이야기하고	-11.5936
▁응원해주면	-11.5936
▁너덜너덜해	-11.5938
▁다가가기	-11.594
▁매정	-11.5943
▁벗어	-11.5944
내면	-11.5944
▁떠나보내	-11.5946
▁구해야	-11.5946
고쳤	-11.5946
▁성숙해지	-11.5947
▁의심하지	-11.5947
▁카톡하는	-11.5948
▁멀어진다는	-11.5948
사랑해요	-11.5948
▁낀	-11.5948
▁신경쓰인	-11.5951
사람에	-11.5952
▁잘못이지	-11.5957
▁흔들	-11.5958
▁똑똑	-11.5959
▁사줄	-11.5959
했을	-11.5961
▁오니	-11.5962
▁못잊는	-11.5966
▁화내는	-11.597
잊혀지려	-11.5971
▁외로워서	-11.5971
▁신기	-11.5972
섭섭하	-11.5973
▁잘해줘서	-11.5973
▁라는	-11.5978
▁듬	-11.5978
잘해준	-11.598
▁비싸다	-11.598
잊어보려고	-11.5982
▁술기운	-11.5983
려야	-11.5985
애석	-11.5986
적하지	-11.5987
▁기분이야	-11.599
▁황당해	-11.5992
쓰는	-11.5993
▁털	-11.5995
고통	-11.6001
야하나봐	-11.6003
어보	-11.6003
▁잘했다	-11.6006
▁사람이었	-11.6006
지망	-11.6006
▁되돌리	-11.6006
아무일	-11.601
▁어떤거	-11.6012
▁끝나네	-11.6012
잘라	-11.6015
▁미루는	-11.6016
기능	-11.6017
▁끈이었	-11.6017
▁알지만	-11.6023
▁덜해	-11.6023
▁아프지만	-11.6025
▁감당	-11.6026
비꼬는	-11.6028
▁보드	-11.6031
▁보수적	-11.6031
▁속지	-11.6034
▁아프죠	-11.6036
▁직업이	-11.6036
▁다른반	-11.6041
▁사랑했는데	-11.6044
▁하트	-11.6046
전할	-11.6051
▁가까워지	-11.6058
아른거	-11.607
▁않겠지	-11.6071
▁훈훈하	-11.6074
유발	-11.6074
▁경우에	-11.6075
▁무뎌지는	-11.6082
기면	-11.6083
▁일상으로	-11.6084
▁받아들여요	-11.6093
▁달래	-11.6097
▁뿌리	-11.6104
민가	-11.6106
▁잊혀지네	-11.6106
▁확	-11.6106
▁친절하	-11.6108
▁은퇴해야	-11.6115
▁이별인가봐	-11.6115
▁차단하	-11.6117
성이	-11.6117
▁조심해야겠	-11.6121
▁원망하	-11.6123
▁노력한	-11.6125
▁살다	-11.6126
생긴	-11.6129
▁가볼까	-11.613
▁없음	-11.6135
▁둬	-11.6136
▁카톡하지	-11.6137
▁힘들대	-11.6143
▁대신	-11.6143
▁짱나	-11.6146
▁잘지내	-11.6152
▁헛헛하	-11.6161
▁가는거	-11.6162
▁지쳐가네	-11.6165
▁해주	-11.6165
▁날이야	-11.6167
▁불안	-11.6168
▁좋아하는건가	-11.6176
▁축	-11.6177
▁사라지	-11.6178
▁전하	-11.618
말로만	-11.6183
▁추우니	-11.6185
▁안열	-11.6186
▁붙잡으려	-11.6187
▁투자하는	-11.6188
꿈같	-11.6189
서글	-11.619
▁아파할	-11.6191
인과	-11.6197
것에	-11.6197
▁주차	-11.6205
▁광	-11.6206
말이라	-11.6214
법이	-11.6217
마시러	-11.6218
공부한	-11.6219
▁패	-11.6222
음식	-11.6223
▁빙	-11.6225
▁굳	-11.6225
걸리겠어	-11.6227
▁유학간	-11.623
▁예비	-11.6231
거같은데	-11.6236
▁과식했	-11.6237
▁챙겨줄	-11.6238
자사람친구	-11.6241
▁못자고	-11.6241
보고싶다	-11.6245
▁방향	-11.6248
▁좌절	-11.6249
▁촬영	-11.6249
▁실패	-11.6249
타이	-11.625
참을	-11.6251
▁탈모	-11.6255
수라	-11.626
▁인터넷	-11.6261
▁키스	-11.6262
▁손편지	-11.6266
▁미쳤	-11.6266
되도	-11.6267
▁헌신하	-11.6269
나에게	-11.6272
했잖아	-11.6273
▁모르겠지	-11.6273
▁정해져	-11.6274
▁구두	-11.6274
행복해지	-11.6275
▁쓰다	-11.6275
▁어느정도	-11.6275
▁엄청나	-11.6277
애정	-11.6279
▁애야	-11.6282
▁전여친이	-11.6285
여름	-11.6287
▁붙잡을	-11.6287
▁영화보자	-11.629
한거니	-11.6304
▁깨졌	-11.6309
▁취업하	-11.6309
▁단수	-11.631
▁존중하	-11.631
중고	-11.6311
▁거는	-11.6318
▁불렀	-11.6319
▁줬다	-11.6319
▁잘라야	-11.632
▁번복	-11.6321
▁연애끝	-11.6325
▁취향이	-11.6328
한순간에	-11.6328
샤워해	-11.6331
▁못하네	-11.6331
이성이	-11.6334
잡으려고	-11.6335
곳에	-11.6336
▁존재하	-11.6337
▁낸다	-11.6341
만이라	-11.6342
미안해하	-11.6342
▁세포	-11.6345
▁깊이	-11.6349
▁모르나봐	-11.6349
▁정리하려	-11.6358
아무말	-11.6362
▁기억에	-11.6366
▁놔주	-11.6366
긴했는데	-11.6368
▁타로	-11.6374
▁끝내는	-11.6374
일이야	-11.6376
▁잘된	-11.6381
▁커지기	-11.6386
척이	-11.6386
부족하	-11.6392
▁그사람은	-11.6398
▁하는건가	-11.6399
▁못잊는거	-11.6399
▁잠겼	-11.64
▁내장	-11.6402
챙겼	-11.6407
▁다듬	-11.6411
▁짜증나게	-11.6411
배우	-11.6411
▁궁금한게있	-11.6414
▁막혔	-11.6416
생각났	-11.6417
▁한사람	-11.642
▁해외여행가	-11.643
▁때문일까	-11.6434
짝사랑에서	-11.6437
▁일이네	-11.6437
것만	-11.6438
▁선물할	-11.6443
▁역할	-11.6446
▁만나러가	-11.6451
▁이해못	-11.6452
▁아끼는	-11.6452
싫	-11.6461
▁후련할거	-11.6463
▁풀어주	-11.6466
▁죄인	-11.6468
▁안한	-11.6471
반짝	-11.6474
▁못내는	-11.6477
▁보냈	-11.6478
▁정리해야할	-11.6479
알바해보	-11.6483
▁마음가는	-11.6484
를까	-11.6488
슬프	-11.6492
▁가라	-11.65
트인	-11.65
▁첫사랑인	-11.6503
내야하나	-11.6505
별의	-11.6507
▁그만둬야	-11.6507
상해	-11.6508
▁같기도	-11.6508
▁부러	-11.651
▁귀여	-11.6514
▁타이밍인	-11.6515
▁강요하	-11.6517
▁운명인	-11.6518
▁비워	-11.6522
▁없었겠	-11.6523
▁내맘같	-11.6528
정상	-11.6532
▁녹	-11.6535
▁걱정되	-11.6536
해봤어요	-11.6538
▁여부	-11.6538
▁근	-11.654
▁사랑이었	-11.6541
▁반복될까	-11.6542
▁이별이었	-11.6544
▁왕따인	-11.6549
▁생각나서	-11.6551
▁독서	-11.6552
▁롱	-11.6552
▁말려	-11.6552
혼전	-11.6555
▁응	-11.6559
되기	-11.656
▁할래	-11.6565
▁이별했어	-11.6565
먹어보	-11.6577
▁놈이	-11.6579
긴이별	-11.6582
충전기	-11.6585
▁틈	-11.6587
▁쌈	-11.6587
▁처음이라	-11.6592
▁아니였	-11.6593
▁싫어할	-11.6595
▁못잊겠	-11.6604
▁시작할	-11.6605
▁먼저하는	-11.6624
▁적절	-11.6635
▁결정했	-11.6636
겼다	-11.6636
고프다	-11.6637
▁까먹지	-11.6643
▁염탐하	-11.6647
과제	-11.6647
▁구별	-11.6651
만두	-11.6656
▁심각	-11.6657
▁질질	-11.6659
▁정성	-11.666
▁폭	-11.666
라진	-11.6661
▁투	-11.6662
▁지쳐가	-11.6667
▁조금이	-11.6669
부질없는	-11.6671
▁이해하	-11.6672
▁걷는	-11.6681
▁다녀온	-11.6681
▁떨리네	-11.6685
채나	-11.6691
▁견디기	-11.6696
구만	-11.6705
기회	-11.672
▁키워보	-11.6722
▁머	-11.6725
동을	-11.6728
▁울적하	-11.6729
▁올라오	-11.6736
▁묻어두는	-11.6741
▁쿨하	-11.6743
▁달력	-11.6743
▁존중하는	-11.6746
▁씻기	-11.6752
▁어색할까	-11.6761
▁만큼만	-11.6772
▁따듯해	-11.6776
▁메리	-11.678
정치	-11.6782
▁친구사이	-11.679
▁일주일이	-11.6794
▁줄이고	-11.6797
표인	-11.6806
답답했	-11.6808
▁짝사랑하	-11.6815
▁기다려보	-11.6816
▁모르지	-11.6818
생각나	-11.6819
▁많은걸	-11.6819
▁모의	-11.6822
▁행복하지	-11.6831
돌아보	-11.6835
느리	-11.6851
나가	-11.6853
▁척도	-11.687
▁빈	-11.6875
▁하는걸	-11.6875
▁놓쳤	-11.6878
물리	-11.6878
▁가리	-11.6889
▁최악이	-11.6892
▁사랑합니다	-11.6898
▁햇	-11.6898
▁아련하	-11.6903
▁멀어	-11.6903
▁것에	-11.6905
▁지우려	-11.6914
▁안돼나	-11.6922
▁숨기	-11.6928
▁나빠졌	-11.6934
▁견	-11.6935
같	-11.6939
▁비참하	-11.6939
▁중이	-11.694
▁위로받	-11.6941
▁잠들	-11.6943
▁이쁘	-11.695
▁익숙해졌	-11.695
있죠	-11.6953
자식	-11.696
▁이별후에	-11.697
▁기복	-11.6973
쉬어	-11.6979
▁S	-11.6982
▁잡기	-11.6995
돋을	-11.7006
▁구경	-11.7007
▁생각한다	-11.7007
▁아쉽	-11.7011
▁애틋	-11.7014
▁기억안	-11.7014
편	-11.702
▁처음이	-11.7025
상처들	-11.7027
▁꽝이	-11.7029
지우는게	-11.7047
▁안해야	-11.7047
▁포기하려	-11.7049
올려달	-11.7049
분들께	-11.705
▁커피향	-11.7051
▁프사가	-11.7056
▁아니었나봐	-11.7063
기다려보	-11.7066
▁노력해야	-11.7072
정확하	-11.7082
▁행동을	-11.7085
▁겨울에	-11.7086
▁만들어주	-11.7096
▁했더	-11.7101
▁직장인이	-11.7104
▁들려	-11.7109
로라	-11.7112
▁바본	-11.7113
됐으면	-11.712
▁성숙해	-11.7121
감각	-11.7123
▁투자라	-11.7125
▁정으로	-11.7126
사랑이었으	-11.7126
▁차렸을	-11.7128
▁언	-11.7135
▁여자야	-11.7136
나네	-11.7136
하라	-11.7155
▁잊어야해	-11.7163
▁클럽가	-11.7165
▁두려운가	-11.7173
▁연애상담	-11.7174
여친	-11.7176
▁전부였	-11.7178
생각입니다	-11.718
내줄게	-11.7183
▁대상이	-11.7184
▁생겼는	-11.7187
▁왕	-11.7195
▁잠수이별인	-11.7208
▁직	-11.7213
다는것	-11.7214
▁할일	-11.7216
배려	-11.7227
나온	-11.7228
▁헤어진다	-11.7233
갈래	-11.7234
▁시작하기	-11.7236
해졌나봐	-11.724
사고	-11.7246
▁입장	-11.7262
물이라	-11.727
▁초대하	-11.7276
▁했었	-11.7276
▁제자리	-11.7278
▁바람이	-11.7278
▁간에	-11.7279
▁가수	-11.7283
▁놓아줬	-11.7283
▁쉽지않	-11.7285
상화	-11.7288
적을	-11.729
▁부담스러워해	-11.7294
▁다쳤	-11.7299
▁못했는	-11.7302
있는데	-11.7303
가도	-11.7307
▁불행해	-11.7314
확인	-11.7317
적어	-11.7318
▁습관이라	-11.7319
천하	-11.7322
이너	-11.7327
▁울었	-11.7327
았다	-11.7337
▁들었	-11.736
▁꿈이었	-11.737
학원에	-11.7373
▁차별받	-11.738
▁필수	-11.7381
...,	-11.7384
건너	-11.7397
▁상처받아	-11.7403
▁찍은	-11.7404
조언부탁	-11.7408
▁구하는	-11.7411
버리기	-11.7418
▁서운하겠	-11.7429
비해	-11.7434
▁높이는	-11.7438
▁매달렸	-11.7439
덤덤해졌	-11.7447
▁오래걸	-11.7453
▁보고싶어요	-11.7457
▁했을까	-11.7462
▁리액션	-11.7464
▁있으신	-11.7474
필요없	-11.7476
▁궁	-11.749
▁피곤하겠	-11.7491
▁다가갈	-11.7491
▁단계라	-11.7494
는거같아	-11.7512
▁자유시간	-11.7524
▁막막	-11.7535
▁단톡방에	-11.7549
▁너랑	-11.7552
▁살았다	-11.7555
못해	-11.7583
사람친구	-11.7592
▁지키는	-11.7605
▁놓으려	-11.7612
있는건지	-11.762
▁나을가	-11.7621
▁갑작스러	-11.7621
100	-11.7625
점이	-11.7626
월해	-11.7643
오늘이	-11.7647
▁편식	-11.767
정성	-11.7681
살릴	-11.7692
급하	-11.7698
의자	-11.7698
서점에	-11.7698
▁좋아보여	-11.7705
▁철벽이	-11.7707
ᄒ	-11.7712
사랑에서	-11.772
▁살인	-11.7744
▁내릴까	-11.7747
뭐냐	-11.7748
▁실망했	-11.7755
▁저장할	-11.776
▁참아야겠	-11.7764
▁삼가	-11.777
▁잊어야겠	-11.777
▁별이	-11.7776
▁하고싶어	-11.7787
▁식상	-11.7795
끝이라고	-11.7796
사랑이란	-11.7815
날이	-11.783
▁안해서	-11.7846
▁못나	-11.7846
▁냉정하	-11.7851
들겠지	-11.7863
▁걷다	-11.7864
▁사랑만	-11.792
▁궁금할	-11.7922
하자는	-11.7927
새장	-11.7944
▁망설여지	-11.7944
▁못하니	-11.7948
후련	-11.7957
▁중독	-11.796
▁부르는	-11.7964
▁그지	-11.7964
사귀자	-11.797
으려고	-11.7983
▁떠나요	-11.7985
▁차단한	-11.7986
꺼야	-11.7986
▁거절인	-11.8009
었을까	-11.8019
▁욕먹	-11.802
▁놓았	-11.8037
▁떠나보	-11.8039
져야	-11.8044
달래	-11.8047
▁밥도	-11.8062
인상	-11.8067
▁많을까	-11.8071
어찌보	-11.8076
하셨나	-11.8095
▁체	-11.8101
▁밤이네	-11.8103
못된	-11.8107
▁백	-11.8116
▁마셨어	-11.8125
▁생각해봐	-11.8134
방심	-11.814
▁어머	-11.8146
▁나오는	-11.8155
▁일기	-11.8164
하려나	-11.8166
▁지나갔네	-11.8171
는걸까	-11.818
▁반이라	-11.818
▁풀렸다	-11.8201
▁실수하	-11.8201
▁터지겠	-11.8206
▁봐봐	-11.821
▁표현해주	-11.8214
상처받았	-11.8217
정말끝이	-11.8221
인이	-11.8223
▁붙였	-11.8234
갈까	-11.8241
▁의자	-11.8282
▁오래타	-11.8286
려지	-11.8301
▁남긴	-11.8305
▁변할까	-11.8316
걱정되겠	-11.8325
...	-11.8327
▁절친이	-11.8335
▁필요해보	-11.8341
▁돌아왔	-11.8373
▁꿈이라	-11.8402
▁반하	-11.8409
거였네	-11.8433
▁남을까	-11.8438
라이	-11.8443
▁건강하	-11.8443
▁쌓이	-11.8447
의지	-11.8447
어진	-11.845
▁방심	-11.8451
▁반이	-11.8453
나랑	-11.8464
겨울	-11.8472
▁도서관에	-11.8479
고의	-11.8486
▁영상	-11.8499
▁전해지	-11.8513
연애하다	-11.8516
편하	-11.8522
왔으면	-11.8524
고있었는데	-11.8526
다네	-11.8565
▁타나봐	-11.8571
▁해가	-11.8574
지려고	-11.8575
쓰기	-11.859
▁보름달이	-11.8602
나쁜건지	-11.8606
답이야	-11.8618
▁관심있는	-11.862
시간만큼	-11.8628
고가	-11.8648
힘드시	-11.8671
▁기억나	-11.8675
▁운동하자	-11.8677
르는	-11.8706
▁터졌	-11.8711
로운	-11.8713
▁잔소리	-11.8723
▁당신만	-11.8724
깔끔하	-11.8739
▁군대가	-11.8793
30	-11.8796
▁대하는	-11.8805
기간	-11.8809
돌이	-11.8831
먹었다	-11.8835
잘못으로	-11.8837
다는걸	-11.8847
▁색	-11.8848
▁준다	-11.8849
▁건들	-11.8849
▁술마시면	-11.8851
슬퍼	-11.8867
▁공시생이	-11.887
진정하	-11.8873
▁건네	-11.8878
뻔했	-11.8882
올거	-11.8889
▁게임하	-11.8891
▁헤어지겠	-11.8921
▁혼자라는	-11.8926
▁그리	-11.8929
▁힘겨	-11.8946
~~~	-11.895
▁생겼다는	-11.8951
▁운동해	-11.8961
▁오늘로	-11.8965
▁이별할	-11.8966
▁달리	-11.8967
▁오래가	-11.8979
극복하	-11.8986
끔	-11.9017
것인가	-11.9038
▁고백해보	-11.9041
▁몰랐네	-11.9057
와주	-11.9071
▁지켜야	-11.9077
그여자	-11.9083
▁잘못했다	-11.9083
▁나약하	-11.9095
▁피곤할	-11.9096
▁모임이	-11.9097
▁이마	-11.9098
으시는	-11.912
▁결혼준비	-11.9125
사랑하	-11.9125
▁지내자	-11.9126
▁끝내려	-11.9136
▁결혼이	-11.9143
▁급	-11.9144
거겠지	-11.9145
▁없을거	-11.9147
▁환승이	-11.9154
▁중요한가	-11.9159
▁여자에	-11.9159
▁그러려	-11.9162
▁바라보	-11.9163
▁보자는	-11.9173
한건지	-11.9177
그러니	-11.9187
▁것인가	-11.9188
확실	-11.9189
다른일	-11.9196
▁마주보	-11.9196
▁좋아하면서	-11.9214
▁청소하	-11.9224
▁살거	-11.9226
▁ᄏ	-11.9255
▁아침이에	-11.9271
▁좋아했	-11.9276
▁가네	-11.9282
적으	-11.93
▁마지막이	-11.9324
이러니	-11.933
▁준비해야	-11.933
주의	-11.9344
▁얼마전	-11.9349
▁가득한가	-11.9368
관계인가	-11.9392
이었나	-11.9394
복잡하	-11.9395
▁알겠	-11.9396
▁차였	-11.9402
서서	-11.9434
올라	-11.9437
▁비슷한가	-11.9457
▁일일	-11.9462
려오네	-11.9471
중한	-11.9486
▁불타올	-11.9487
▁순간에	-11.9488
▁현재	-11.9499
▁만들었	-11.9504
▁꼼꼼	-11.9542
▁불타	-11.9558
히는	-11.9565
▁싸움이	-11.9575
▁헤어진건	-11.9585
감당	-11.9592
▁만날수	-11.9608
▁시간들	-11.9635
이상하지	-11.964
▁신청했	-11.9646
▁힘든건	-11.9649
▁편안	-11.9655
할지	-11.9655
만족	-11.9655
별이에요	-11.9656
▁끝나가	-11.9673
인가보다	-11.9686
▁경험	-11.9687
▁연습하	-11.969
앞이	-11.9708
닫고	-11.9718
▁아닌것	-11.9729
능력	-11.973
까먹었	-11.9741
▁소중하	-11.9761
▁경험해보	-11.9766
해줄까	-11.9784
▁되버렸	-11.979
으면서	-11.9799
▁끝났다	-11.9804
포기	-11.9819
▁샤워하	-11.9827
▁차단했	-11.9846
▁사랑하는건	-11.986
했더	-11.986
▁긴장하	-11.9869
▁잊지마	-11.9877
▁이사가	-11.9892
오려나	-11.9896
▁못하는거	-11.9899
같아요	-11.9908
채워	-11.9965
냈	-11.9969
▁내길	-11.9972
로워	-11.9973
만하는	-11.9993
원한	-12.0012
▁운동하면	-12.0014
▁몇시간	-12.0036
어렵	-12.0063
▁하자	-12.0064
▁비교	-12.0068
해드리	-12.0068
▁선택했	-12.0078
긴다	-12.0088
했다는	-12.0101
▁갔다왔	-12.0144
▁생각했을	-12.0155
▁움	-12.0175
▁현실적	-12.0177
▁사전	-12.0183
▁혼자있	-12.0191
들지만	-12.0196
▁같았	-12.0202
▁두려	-12.021
▁내편	-12.0215
▁한달됐	-12.0223
데도	-12.0226
기대하면	-12.0234
되겠지	-12.0237
은것같	-12.0246
아파하	-12.0255
싶어지네	-12.0275
재밌겠	-12.0314
같죠	-12.0318
▁뒤숭숭	-12.0333
긴가	-12.0345
▁왜이러	-12.0352
기예	-12.0354
▁인스타에	-12.0356
▁케	-12.0371
▁들리네	-12.0372
▁결혼준비하	-12.0375
▁사랑받	-12.0377
음악이	-12.0437
왔을	-12.0447
는건지	-12.0468
▁가득한	-12.0468
▁깨지	-12.0471
▁차단이	-12.0472
▁비가오니	-12.048
된거	-12.0489
받아서	-12.0499
▁풀었	-12.0525
▁의외인	-12.0531
▁중요하겠지	-12.0536
▁잘못했다는	-12.0538
▁운명인가	-12.0539
▁밥먹	-12.054
기다려	-12.0541
▁돌아보	-12.0549
됐습니다	-12.055
▁따뜻하	-12.0554
▁결혼식이	-12.0567
▁질려	-12.0569
었다는	-12.058
아온	-12.0585
▁고백이	-12.0598
▁연애할	-12.0599
▁겨울이	-12.0617
잊혀져가	-12.0621
▁무시했	-12.063
▁들어주	-12.0634
▁대하	-12.0647
물어가	-12.0669
▁회사가	-12.0669
려달라고	-12.0675
상대로	-12.0681
▁우는	-12.0683
▁휴지	-12.0693
아볼	-12.0703
보고싶어	-12.0719
▁문제네	-12.0719
하겠지	-12.0723
정확	-12.0738
▁이성이	-12.0742
▁일반	-12.0771
▁흐르네	-12.0776
남자들	-12.0778
어버리	-12.0779
▁조급하	-12.078
▁자게	-12.0782
▁친구들과	-12.0786
▁극복한	-12.0803
였네	-12.0804
돌아	-12.0809
줄래	-12.085
▁떠나야겠	-12.0871
궁금하네	-12.0877
담하	-12.0878
안나	-12.0881
황당하	-12.0921
싫으	-12.0925
▁이해해줄	-12.0927
▁만납	-12.093
실망	-12.094
맞	-12.0951
▁자만	-12.096
사람과	-12.0974
▁오락가락하	-12.0979
만족하	-12.0989
▁우선이	-12.0996
▁맞는건	-12.1005
드는데	-12.1011
▁인정해야할	-12.1013
▁놀리	-12.1019
▁않음	-12.1028
▁올거	-12.1043
▁이해할	-12.1044
▁멋있는	-12.1049
제길	-12.1077
▁냉정	-12.1086
▁도네	-12.109
아물어	-12.1091
▁바람난거	-12.1101
▁집착인	-12.1103
▁맞은	-12.1106
▁주기	-12.1113
▁평가해	-12.1122
가나쁜건지	-12.1127
▁낫네	-12.1128
▁여행가는	-12.1131
틀어	-12.1136
▁미치네	-12.114
좋지	-12.1143
▁생각나기	-12.1152
무덤덤해	-12.1161
신을	-12.1163
▁불편하	-12.1167
아쉽지	-12.1168
▁보내왔	-12.1172
▁못하겠네	-12.1181
간에	-12.1187
▁불면증인가	-12.1207
▁온거	-12.1208
▁일년같	-12.1213
▁돌리고	-12.1214
▁보내버렸	-12.1236
▁발전하	-12.124
자만	-12.1272
▁돌아가면	-12.1283
▁제자리걸음이	-12.1311
아쉽	-12.1322
자는	-12.135
▁예뻐졌	-12.1359
▁받으려	-12.1389
거지같이	-12.1403
하겠	-12.1408
▁복잡하네	-12.1409
산책하	-12.1422
▁있을게	-12.1423
▁끝내야	-12.1425
▁망설여지는	-12.1426
▁다가가야	-12.1457
▁잊어주	-12.1464
▁못잊	-12.1478
중에	-12.15
다더니	-12.1512
드는	-12.1513
▁내꺼	-12.1519
▁취직하고	-12.1535
▁사내에	-12.1562
▁학생이	-12.1564
▁싫어졌	-12.1573
▁올랐	-12.1613
▁두려워지	-12.1616
▁물가	-12.1618
▁지속	-12.1626
▁싶으	-12.1637
의해	-12.1641
▁뭘해야	-12.1648
▁밀당해	-12.1654
째인데	-12.1665
후회되	-12.1682
다니면	-12.1688
었음	-12.1691
네ᄒ	-12.1693
▁연락하고싶	-12.1694
해지는	-12.1695
▁단거	-12.1723
▁관리해	-12.174
▁사귀다	-12.1747
셨을	-12.1757
히나	-12.178
▁보내려	-12.1814
▁되셨	-12.1822
가져	-12.1828
거래	-12.1833
낸	-12.1851
▁인정해	-12.1855
어졌어	-12.1857
짝사랑일	-12.186
있으	-12.1862
▁힘들어도	-12.1884
▁욕하	-12.1895
▁되었다	-12.1898
않아	-12.1918
▁쓴다	-12.1924
▁스킨십하고	-12.1929
▁단톡방	-12.1936
보려고	-12.1954
▁동거해도	-12.1964
▁구하	-12.1993
말이	-12.1994
였다	-12.2
봐야	-12.2004
▁싫어하	-12.2025
▁저장	-12.2034
잡	-12.2038
▁부담되	-12.2047
좋을	-12.2048
▁그렇다는	-12.205
▁시간이었겠	-12.206
▁리액션해	-12.2067
시간동안	-12.207
▁맞았네	-12.2099
같았	-12.212
~~~,	-12.2131
▁날도	-12.2133
맞는다면	-12.214
▁여자사람	-12.2163
했겠	-12.2171
▁잊었는	-12.2178
▁되었어	-12.2199
▁철벽	-12.2199
▁길다	-12.221
▁무덤덤	-12.224
부탁드려	-12.2242
▁병신인	-12.2253
▁보내야	-12.2294
기니	-12.2297
▁알아요	-12.2332
▁변했	-12.2339
번에	-12.2341
느	-12.2343
▁든	-12.2344
▁생각했나	-12.2347
▁사람일까	-12.2353
끌리	-12.236
같은데	-12.2377
▁답답한가	-12.2383
▁연애하	-12.2419
연애인데	-12.2431
▁더럽	-12.2449
오는데	-12.2462
▁초대해	-12.2482
▁지우지	-12.2496
이였	-12.2511
▁찾아가보	-12.2527
힘들어	-12.2543
중인	-12.2548
익숙함	-12.2561
▁날이에	-12.2616
다면서	-12.2618
떠나려	-12.2622
▁붙잡아보	-12.2625
▁연애상담해	-12.2636
나고	-12.2643
▁선에	-12.2646
▁안고	-12.266
▁데이트하	-12.2688
▁연락하고싶어	-12.2718
랐	-12.272
▁가야겠	-12.273
덤덤해지는	-12.2734
▁타야	-12.2741
듯해	-12.2749
는다는건	-12.2768
▁지하철	-12.277
▁꽝	-12.2775
힘들겠어	-12.2777
사귀면서	-12.2797
돼요	-12.2801
▁돋	-12.2814
아질	-12.2819
상했	-12.2821
을수	-12.2844
실수하	-12.2855
당히	-12.2864
한듯	-12.2867
▁그렇다	-12.2872
주신	-12.2876
갔	-12.2883
▁남았나	-12.2886
▁간사	-12.2934
해야하는	-12.2939
행복했	-12.2944
렸을까	-12.295
▁직장인	-12.2983
해봐	-12.2993
것이	-12.3011
▁쓰이겠	-12.3013
▁들어보	-12.3026
▁두려운	-12.3027
▁참아야	-12.3042
▁잘하	-12.3043
▁내면	-12.3088
▁올려달	-12.3119
▁미쳐	-12.312
▁갔을	-12.3131
단순하	-12.3135
알바	-12.3141
▁어색	-12.3149
면서도	-12.3157
▁나나봐	-12.3158
된걸까	-12.3162
▁다치	-12.3167
준비하는	-12.318
어야지	-12.32
여행이	-12.3202
헤어져야하는	-12.3213
말해	-12.3237
▁즐	-12.3255
일에	-12.3268
▁진심인	-12.3271
졌나봐	-12.3306
고픈	-12.3319
이해해주	-12.3352
▁싸웠는	-12.3356
▁수준이	-12.3363
▁이사하	-12.3366
해가는	-12.3367
소극적	-12.3374
힘드네	-12.339
켜	-12.3415
초대하	-12.3418
녀한테	-12.3427
▁휴학하	-12.3434
독한	-12.3456
▁끝인거	-12.3471
▁흘	-12.3479
그대로인	-12.3481
떠	-12.3491
▁가봐	-12.3496
졌다	-12.35
▁갠톡하	-12.3514
모르	-12.3525
해보시는	-12.3538
▁미안해하	-12.3538
복잡	-12.3544
▁달째	-12.3562
해보	-12.3567
수고	-12.359
▁힘내라	-12.3591
▁요가	-12.3594
▁저음	-12.3601
▁끊기는	-12.3603
한가	-12.3604
▁전화해	-12.3613
▁벗으	-12.3623
▁힘들기	-12.3627
▁걱정해	-12.3642
내는	-12.3644
생	-12.3647
본지	-12.3652
▁마음속에	-12.3662
▁변명이	-12.3687
▁반복될	-12.3692
해주면	-12.3693
한가봐	-12.3694
해진	-12.37
모르겠어	-12.3705
▁어색할	-12.3712
▁쓸쓸	-12.3714
▁창업해	-12.3726
▁나아졌다	-12.3731
▁난다	-12.3733
▁천일	-12.3769
당했	-12.377
▁전화하면	-12.378
좋겠다	-12.3805
▁있는건	-12.381
그러다	-12.3812
▁백업	-12.3814
▁못가	-12.3845
못하고	-12.3845
▁묻어두	-12.3846
▁알게되	-12.3847
잊혀지	-12.3864
가네	-12.3892
▁청춘	-12.3892
▁결혼할까	-12.3895
타면	-12.3912
잘했	-12.3919
▁데이	-12.3919
▁네달	-12.3921
▁부럽네	-12.3926
짰다	-12.3928
▁궁금한게	-12.3932
겼나봐	-12.3944
▁잊은	-12.3948
려서	-12.3955
▁갑작스	-12.3957
▁갈거	-12.3958
은것만	-12.3961
▁필요한가	-12.3963
▁아끼	-12.3964
▁이시간	-12.3981
▁계속해	-12.3992
왔	-12.3993
▁사랑이었을	-12.4007
▁그런거	-12.4014
러가	-12.402
떨	-12.4022
▁안난다	-12.4031
▁만났네	-12.4033
▁가져봐	-12.4037
▁잊혀	-12.404
▁못생	-12.4042
굴	-12.4044
▁먹으니	-12.405
▁선택하	-12.405
가능할	-12.4058
▁재미있을	-12.4058
막	-12.4066
크리스마스	-12.4067
강요하는	-12.4071
났	-12.4071
▁인사해	-12.4074
든든	-12.4089
나갔으면	-12.4099
▁딸	-12.4103
어주지	-12.4107
▁끝이라	-12.4116
빠	-12.4128
▁필요하다	-12.4146
▁덤덤	-12.4157
알았는데	-12.4174
았나	-12.4197
움에	-12.4197
▁농구	-12.4199
▁때리	-12.4204
▁말해줄	-12.4206
▁소개팅이	-12.4206
▁친구같	-12.4216
▁헌신	-12.4224
좋아해	-12.4225
짝남한테	-12.4232
▁덧	-12.4237
둬	-12.4239
▁깨어	-12.426
해주세	-12.426
▁얘기하	-12.4279
관리하	-12.4284
났나봐	-12.4286
▁없애야	-12.4291
써	-12.4297
타일러	-12.4308
펴	-12.431
사니	-12.4312
▁출근이	-12.4319
창이	-12.4344
은걸까	-12.4344
주라	-12.436
야하는	-12.4363
상황	-12.4367
▁줄어	-12.4369
는대로	-12.4384
벽	-12.4389
내보세요	-12.4417
안부	-12.4423
앞에	-12.4433
▁해봤어	-12.4436
▁꿈에나	-12.444
어리	-12.4441
▁동거하는	-12.4447
운명같	-12.4451
▁집착인가	-12.4462
드나	-12.4465
해준	-12.4466
친구라	-12.4498
힘들었	-12.4501
말아	-12.4518
헤어졌습니다	-12.4541
▁로	-12.4544
▁나에	-12.4547
느낌	-12.4548
▁방법이겠	-12.4577
▁않을거	-12.4577
▁받을까	-12.4579
▁무기력하	-12.4599
▁놓아보	-12.4601
밀	-12.4611
▁다되가는	-12.4624
장난	-12.4633
▁느끼	-12.4633
이뤄	-12.4635
달에	-12.4642
적당	-12.4645
▁훈훈	-12.4647
대하면	-12.4652
해야할	-12.4663
과일	-12.4665
▁잡혀	-12.4676
브	-12.4677
놀아	-12.4684
진지한	-12.4686
나갈까	-12.4686
견해	-12.4688
평	-12.469
▁사귀지	-12.4692
있니	-12.4696
귀찮	-12.4698
시겠	-12.4698
▁일어나보	-12.4703
드디어	-12.4704
▁시켜야	-12.4704
시험	-12.4705
위해	-12.4718
공개	-12.4725
교	-12.4728
▁데려다주	-12.4733
▁공허함	-12.4735
질까	-12.4741
보수적이	-12.4745
▁무뎌	-12.4745
않았	-12.4747
약속	-12.475
불안하	-12.4753
효	-12.4762
찾기	-12.477
일기	-12.4773
▁공허	-12.4776
핑	-12.4777
상관	-12.4777
벗어	-12.4778
흔들	-12.4789
해야겠네	-12.479
덕	-12.4793
듣	-12.4794
가능한	-12.4799
르지	-12.4801
▁않으	-12.4802
듬	-12.4809
▁후폭풍인가	-12.481
▁술마	-12.4823
▁현실에	-12.4823
했었	-12.4824
등	-12.4826
춘	-12.4829
쳤	-12.4831
지켜	-12.4832
▁잡으려	-12.484
미쳤	-12.4843
같다가도	-12.4848
차리	-12.4849
▁될거	-12.4851
꼼꼼	-12.4852
첫	-12.4853
오빠	-12.4854
▁못내	-12.4854
▁죽었나	-12.4858
찾아보	-12.4862
현상	-12.4863
큼	-12.4864
쓰레기	-12.4864
짜증나	-12.4865
▁멀었나	-12.4866
가능성	-12.4866
섭섭	-12.4877
▁잊어보려	-12.4879
워질거	-12.4884
지나갈	-12.4886
마시	-12.4887
않으니	-12.4888
미세먼지	-12.489
세월	-12.4894
▁보듬어	-12.4895
새벽	-12.4896
여자친구와	-12.4902
▁잤나	-12.4904
끊었	-12.4908
깊	-12.4912
데려다	-12.4915
흘렀네	-12.4917
▁얘기할	-12.4919
친구사이	-12.4919
아졌어	-12.4919
려질	-12.4923
얘기	-12.4923
귀찮아	-12.4924
상관없	-12.4924
안되는	-12.4927
▁났나	-12.4929
됐네	-12.4929
한잔	-12.4934
낀	-12.4934
없애	-12.4934
▁얼었나	-12.4935
권태기	-12.4937
갔는데	-12.494
졸	-12.494
잇	-12.494
이기적이	-12.4941
깔	-12.4941
꾹	-12.4941
정이야	-12.4942
놓아줄	-12.4943
셔야죠	-12.4945
깜	-12.4949
희망	-12.4955
철벽이	-12.4957
▁너덜너덜	-12.4958
드라마	-12.496
▁비비	-12.4962
이런건	-12.4963
불러	-12.4963
변	-12.4964
▁이주	-12.4964
연락하고	-12.4965
그랬	-12.4965
그리워지	-12.4967
악	-12.4969
쥐	-12.4977
▁괜찮았	-12.4979
마주치	-12.4979
좋아해주는	-12.4979
쳤나	-12.498
만나기로	-12.4981
서운한	-12.4981
떨어져	-12.4982
나가나	-12.4985
▁많았겠	-12.4985
공허	-12.4985
헤어졌네	-12.4988
힘듭니다	-12.4989
힘든가봅니다	-12.4989
성적	-12.4989
▁곁	-12.499
쁘더라	-12.4991
조심스	-12.4991
멈추	-12.4995
만났	-12.4996
있으신가	-12.4999
묻어두는	-12.5
존	-12.5001
소식	-12.5002
회복	-12.5003
멋	-12.5006
알아보	-12.5006
7	-12.5007
않네	-12.5014
편할	-12.5015
바꾸	-12.5016
칼	-12.5016
▁잡아보	-12.5018
살아야	-12.5018
▁있었겠	-12.502
머릿속	-12.5021
표현해	-12.5022
쐬	-12.5022
8	-12.5022
소개	-12.5024
끝난	-12.5026
오락가락하	-12.5027
잊기	-12.5027
괴로	-12.5029
이루어	-12.5038
지났네	-12.5045
정류장	-12.5045
▁잘됐	-12.5047
착각이	-12.5047
나아졌	-12.5048
두려운	-12.5048
떠나보내	-12.5049
홀	-12.5049
후유증이	-12.505
우울해	-12.5051
잤어	-12.5053
두번	-12.5055
바람둥이	-12.5057
길거리에	-12.5057
포기해야	-12.5058
명절	-12.5058
환장	-12.506
취직	-12.506
되셨	-12.5061
귀찮은	-12.5061
구멍이	-12.5061
직구	-12.5061
탔	-12.5061
새출발	-12.5063
▁안되지	-12.5063
아련하	-12.5064
없을까	-12.5064
무뎌지는	-12.5064
쓴	-12.5064
부담스러울	-12.5065
의심하지	-12.5065
휴유증	-12.5065
피시방	-12.5065
힘드셨	-12.5065
익숙해져	-12.5066
답답할	-12.5066
싱숭생숭하	-12.5066
넌	-12.5067
익숙해질	-12.5067
상태	-12.5068
멀리	-12.5069
▁대쉬	-12.5069
당했습니다	-12.5069
점심시간에	-12.507
기울이	-12.5071
구분	-12.5072
프라이버시	-12.5073
낮술	-12.5073
어려울	-12.5073
싫은	-12.5074
외국어	-12.5074
무거워	-12.5075
빠져	-12.5075
잊고싶	-12.5077
▁번이	-12.5077
깨달았	-12.5077
▁손톱	-12.5077
한마디	-12.5078
불공평	-12.5078
선물해주	-12.5078
노력해	-12.5079
불쌍	-12.508
참견	-12.508
베	-12.508
좋지만	-12.5081
표정	-12.5081
도대체	-12.5081
월요일	-12.5082
넘었는데	-12.5083
친절한	-12.5083
비밀연애	-12.5084
억울	-12.5084
비싼	-12.5086
결혼준비	-12.5086
해지기	-12.5086
축복	-12.5087
반가워요	-12.5087
치킨	-12.5088
허전함	-12.5088
최근	-12.5089
여러명	-12.509
공간	-12.5091
객관적	-12.5092
훔쳐보	-12.5092
필름	-12.5092
무언가	-12.5092
나쁜놈	-12.5093
그리울	-12.5094
괜찮다면	-12.5094
술한잔	-12.5095
프로필	-12.5095
슬픔	-12.5095
답답해서	-12.5096
있더라	-12.5096
자장가	-12.5098
씁쓸	-12.5099
쌩얼	-12.5099
주말에	-12.51
다툼	-12.51
가늠	-12.51
평온	-12.51
▁챙겨주는	-12.5101
▁탈퇴했	-12.5101
인거죠	-12.5101
꼈어	-12.5101
닮아	-12.5102
옳	-12.5104
넓	-12.5108
썩	-12.5108
뒷	-12.5109
삐	-12.5122
밑	-12.5125
낳	-12.5131
찼	-12.5131
흔	-12.5134
냉	-12.5137
흠	-12.5139
떼	-12.5139
쭉	-12.5139
밟	-12.5139
쫄	-12.5144
쿨	-12.515
농	-12.5159
몰	-12.518
람	-12.5415
흘	-12.5435
벼	-12.5548
긋	-12.5563
쁠	-12.5589
봇	-12.5604
엉	-12.5611
쁘	-12.5615
혹	-12.5618
립	-12.5627
련	-12.563
꼈	-12.5633
혔	-12.5635
딛	-12.5636
렀	-12.5636
쩔	-12.5639
램	-12.564
맙	-12.5641
듭	-12.5643
황	-12.5643
닿	-12.5644
빴	-12.5646
낭	-12.5647
컥	-12.5647
깝	-12.5647
춤	-12.565
콤	-12.565
톱	-12.5651
댄	-12.5651
턴	-12.5652
뜰	-12.5652
긍	-12.5652
칭	-12.5652
욜	-12.5652
몽	-12.5652
졋	-12.5653
묵	-12.5653
겉	-12.5653
률	-12.5653
익	-12.5653
딜	-12.5653
냄	-12.5653
딘	-12.5653
쎄	-12.5653
령	-12.5653
첩	-12.5653
콘	-12.5653
팍	-12.5653
퓨	-12.5653
쓰	-12.8806
쪘	-13.9255
짬	-13.9256
젊	-13.9257
옮	-13.9258
얇	-13.9259
씸	-13.926
씰	-13.9261
썰	-13.9262
숏	-13.9263
섰	-13.9264
섣	-13.9265
섞	-13.9266
샐	-13.9267
뽕	-13.9268
뺏	-13.9269
볕	-13.927
륜	-13.9271
띵	-13.9272
덮	-13.9273
댔	-13.9274
논	-13.9275
꼴	-13.9276
깼	-13.9277
깬	-13.9278
괘	-13.9279
겜	-13.928
o	-13.9281
g	-13.9282
홧	-13.9283
홈	-13.9284
헹	-13.9285
헐	-13.9286
텅	-13.9287
텀	-13.9288
턱	-13.9289
쿵	-13.929
측	-13.9291
짼	-13.9292
엿	-13.9293
엊	-13.9294
얽	-13.9295
앱	-13.9296
숫	-13.9297
묘	-13.9298
몬	-13.9299
렐	-13.93
랙	-13.9301
랖	-13.9302
뜬	-13.9303
떴	-13.9304
됬	-13.9305
눕	-13.9306
눌	-13.9307
꿰	-13.9308
꽝	-13.9309
깰	-13.931
갱	-13.9311
훔	-13.9312
핫	-13.9313
텁	-13.9314
컸	-13.9315
촬	-13.9316
총	-13.9317
짰	-13.9318
좌	-13.9319
웹	-13.932
밉	-13.9321
몫	-13.9322
멘	-13.9323
맺	-13.9324
맴	-13.9325
릇	-13.9326
뚫	-13.9327
넷	-13.9328
꽉	-13.9329
꼰	-13.933
겪	-13.9331
갠	-13.9332
C	-13.9333
헌	-13.9334
폼	-13.9335
팠	-13.9336
팀	-13.9337
탓	-13.9338
켰	-13.9339
왠	-13.934
엮	-13.9341
씌	-13.9342
쏠	-13.9343
쏟	-13.9344
쁨	-13.9345
볍	-13.9346
렜	-13.9347
렛	-13.9348
긁	-13.9349
흑	-13.935
헥	-13.9351
틋	-13.9352
툼	-13.9353
퀴	-13.9354
찜	-13.9355
젯	-13.9356
썹	-13.9357
쌍	-13.9358
슈	-13.9359
쉴	-13.936
묻	-13.9361
릎	-13.9362
롤	-13.9363
둠	-13.9364
돋	-13.9365
늠	-13.9366
낚	-13.9367
곱	-13.9368
휘	-13.9369
툴	-13.937
켠	-13.9371
징	-13.9372
쌩	-13.9373
싼	-13.9374
낙	-13.9375
끓	-13.9376
객	-13.9377
훈	-13.9378
짱	-13.9379
젖	-13.938
웬	-13.9381
얻	-13.9382
씁	-13.9383
섬	-13.9384
뽀	-13.9385
뢰	-13.9386
렬	-13.9387
땡	-13.9388
늙	-13.9389
낄	-13.939
찔	-13.9391
띄	-13.9392
닮	-13.9393
검	-13.9394
앉	-13.9395
샤	-13.9396
벚	-13.9397
맡	-13.9398
뤄	-13.9399
랫	-13.94
딪	-13.9401
겹	-13.9402
헬	-13.9403
잃	-13.9404
옥	-13.9405
빡	-13.9406
밝	-13.9407
렘	-13.9408
깎	-13.9409
곁	-13.941
n	-13.9411
컴	-13.9412
뛰	-13.9413
넣	-13.9414
낮	-13.9415
규	-13.9416
걔	-13.9417
씹	-13.9418
렌	-13.9419
닫	-13.942
썼	-13.9421
슷	-13.9422
딸	-13.9423
꼼	-13.9424
귈	-13.9425
잤	-13.9426
뉴	-13.9427
뀔	-13.9428
웨	-13.9429
녁	-13.943
뀌	-13.9431
깍	-13.9432
N	-13.9433
획	-13.9434
텨	-13.9435
셀	-13.9436
됩	-13.9437
눠	-13.9438
걷	-13.9439
엽	-13.944
샀	-13.9441
삭	-13.9442
쌓	-13.9443
싱	-13.9444
멈	-13.9445
권	-13.9446
희	-13.9447
밍	-13.9448
꿔	-13.9449
틱	-13.945
북	-13.9451
쇼	-13.9452
섭	-13.9453
끄	-13.9454
벗	-13.9455
숭	-13.9456
헷	-13.9457
잖	-13.9458
읽	-13.9459
낫	-13.946
뎌	-13.9461
멀	-13.9462
렵	-13.9463
득	-13.9464
녕	-13.9465
깐	-13.9466
엇	-13.9467
빌	-13.9468
흐	-13.9469
끊	-13.947
괴	-13.9471
퇴	-13.9472
승	-13.9473
랜	-13.9474
밌	-13.9475
덤	-13.9476
픔	-13.9477
핸	-13.9478
똑	-13.9479
풍	-13.948
슴	-13.9481
뭔	-13.9482
뻐	-13.9483
씀	-13.9484
닐	-13.9485
풀	-13.9486
챙	-13.9487
죽	-13.9488
험	-13.9489
격	-13.949
엄	-13.9491
럼	-13.9492
떤	-13.9493
슨	-13.9494
걱	-13.9495
겼	-13.9496
택	-13.9497
닌	-13.9498
접	-13.9499
랄	-13.95
봅	-13.9501
럴	-13.9502
억	-13.9503
떻	-13.9504
렇	-13.9505
졌	-13.9506
찮	-13.9507
받	-13.9508
습	-13.9509
혼	-13.951
헤	-13.9511
않	-13.9512
싶	-13.9513
없	-13.9514
