▁	-2.53239
<s>	0
</s>	0
<unk>	0
▁<	-3.04928
>	-3.04928
s	-3.18806
▁the	-3.31194
,	-3.52471
.	-3.53433
end	-3.71449
start	-3.72991
ed	-4.05099
▁a	-4.09164
▁to	-4.15819
▁of	-4.26386
▁in	-4.34487
▁and	-4.38542
y	-4.41562
ing	-4.43047
▁said	-5.1243
▁s	-5.15913
d	-5.2417
▁that	-5.26714
▁be	-5.27854
▁on	-5.28444
▁for	-5.29373
e	-5.37357
ly	-5.3944
▁is	-5.51481
m	-5.545
▁was	-5.58482
▁with	-5.60058
▁it	-5.72806
▁he	-5.80771
▁at	-5.83266
n	-5.85833
▁fro	-5.9498
▁an	-5.96412
▁by	-6.03297
▁has	-6.06207
▁as	-6.07634
▁have	-6.10241
en	-6.14361
▁his	-6.1546
▁are	-6.17968
▁but	-6.20391
▁were	-6.24847
▁year	-6.27812
a	-6.30669
▁who	-6.32268
ies	-6.32409
▁not	-6.33207
▁will	-6.3474
▁u	-6.40505
st	-6.44309
▁w	-6.45491
▁cnn	-6.49677
▁after	-6.51419
▁had	-6.53921
▁t	-6.561
▁people	-6.56112
▁their	-6.58205
about	-6.60513
▁her	-6.66228
▁more	-6.67145
▁this	-6.68426
er	-6.69515
▁i	-6.70001
▁new	-6.73282
▁president	-6.75198
r	-6.76213
▁she	-6.76316
▁we	-6.76336
hich	-6.76531
two	-6.77901
▁one	-6.78094
al	-6.7846
▁or	-6.78879
▁its	-6.83039
▁up	-6.83476
es	-6.85747
t	-6.86401
▁than	-6.87592
ma	-6.88416
▁official	-6.89783
▁say	-6.90917
▁other	-6.91121
lso	-6.92177
▁government	-6.94482
▁police	-6.94795
▁would	-6.94928
▁out	-6.94932
o	-6.99865
▁when	-7.0013
▁over	-7.03638
▁day	-7.04466
▁man	-7.04877
▁last	-7.05532
▁some	-7.05677
▁time	-7.06904
man	-7.10423
ld	-7.11921
▁you	-7.12839
▁all	-7.13649
▁no	-7.14232
▁there	-7.14983
▁200	-7.16291
ce	-7.1742
▁first	-7.17667
▁al	-7.19728
▁into	-7.20431
▁state	-7.21417
▁1	-7.21853
▁according	-7.24867
▁world	-7.26136
▁can	-7.27046
▁call	-7.2835
▁week	-7.28916
▁percent	-7.29134
i	-7.29898
▁000	-7.31739
▁go	-7.32663
▁oba	-7.33541
ion	-7.33835
▁north	-7.3462
▁tuesday	-7.35126
▁country	-7.35467
▁monda	-7.36062
▁if	-7.36129
▁could	-7.36489
▁united	-7.37555
▁again	-7.37744
▁thre	-7.37913
ish	-7.39526
▁million	-7.42405
cause	-7.43181
▁south	-7.44129
▁month	-7.45495
▁most	-7.46859
▁sunday	-7.47145
in	-7.47395
▁m	-7.47718
▁clinton	-7.484
▁like	-7.49406
▁so	-7.49683
on	-7.50192
▁what	-7.50545
▁b	-7.51116
▁wed	-7.51893
esday	-7.52222
▁before	-7.52707
▁near	-7.52799
th	-7.53568
▁attack	-7.54968
▁where	-7.55417
▁states	-7.56957
sday	-7.57039
▁old	-7.57206
▁do	-7.5783
▁spokes	-7.58143
▁militar	-7.58212
▁2	-7.58911
▁group	-7.58924
▁china	-7.59798
▁home	-7.59836
ese	-7.60056
ve	-7.60476
▁kill	-7.60497
▁high	-7.61234
▁thur	-7.61611
▁him	-7.61943
▁reported	-7.62464
▁any	-7.62519
▁off	-7.62575
▁korea	-7.62611
▁re	-7.64255
▁report	-7.64305
▁child	-7.64414
▁since	-7.64682
▁minister	-7.65361
▁back	-7.66001
▁how	-7.66017
▁may	-7.67395
▁force	-7.6852
ation	-7.68639
▁party	-7.70003
▁iraq	-7.70092
▁show	-7.70179
▁whil	-7.71037
▁city	-7.71244
z	-7.71359
▁includ	-7.71544
▁dur	-7.71565
hose	-7.72115
▁them	-7.72916
▁national	-7.73691
▁us	-7.73863
▁my	-7.73907
▁now	-7.74524
▁nation	-7.75199
▁four	-7.75336
▁just	-7.75536
▁our	-7.76245
▁under	-7.77011
▁made	-7.78138
▁3	-7.78297
▁former	-7.78568
▁american	-7.78984
able	-7.79147
▁down	-7.79408
ary	-7.79551
▁long	-7.79959
▁part	-7.80487
ren	-7.80799
▁statement	-7.81064
▁10	-7.81825
▁through	-7.83011
▁un	-7.83212
▁japan	-7.83376
▁want	-7.83453
▁election	-7.83788
tween	-7.84177
▁area	-7.86434
▁p	-7.86617
▁securit	-7.86681
▁take	-7.86932
an	-7.8759
▁war	-7.88561
2	-7.89336
▁work	-7.90217
▁news	-7.90857
▁death	-7.91183
▁international	-7.91256
round	-7.91527
▁leader	-7.92251
▁make	-7.92394
▁help	-7.92559
▁did	-7.9296
▁authorit	-7.93494
ember	-7.93512
▁right	-7.93612
▁5	-7.94102
0	-7.94492
land	-7.94857
▁found	-7.95098
▁lea	-7.96469
▁korean	-7.96742
▁house	-7.97669
▁democratic	-7.97777
▁large	-7.9841
ial	-7.98586
▁being	-7.99319
▁bush	-7.9959
▁campaign	-7.99727
▁see	-7.99999
out	-8.00052
▁every	-8.00764
▁still	-8.0097
ic	-8.01382
uch	-8.01395
▁five	-8.01486
6	-8.01903
▁site	-8.02053
other	-8.02194
▁get	-8.02552
▁need	-8.02587
h	-8.02752
5	-8.02993
▁brit	-8.03474
p	-8.03739
▁fire	-8.03769
▁recent	-8.04135
l	-8.04473
▁agenc	-8.05704
nuclear	-8.05865
▁car	-8.06526
▁close	-8.06536
c	-8.06699
ity	-8.06731
▁place	-8.06897
▁prime	-8.06955
▁second	-8.07122
▁come	-8.07622
▁way	-8.08393
▁york	-8.08396
▁well	-8.08507
▁hour	-8.08912
▁pakistan	-8.09042
▁won	-8.09155
est	-8.09286
▁public	-8.09361
▁court	-8.09367
▁six	-8.09757
▁even	-8.09956
▁late	-8.1023
▁sever	-8.10339
▁lead	-8.11498
▁believe	-8.11648
▁4	-8.13292
▁open	-8.14647
▁famil	-8.15014
▁support	-8.15067
▁talk	-8.15285
ers	-8.1539
▁vote	-8.16337
ether	-8.16389
▁human	-8.16494
ment	-8.16508
company	-8.16663
▁price	-8.16825
▁sen	-8.16847
▁set	-8.16969
gan	-8.17654
is	-8.17867
▁plan	-8.18212
▁next	-8.18348
very	-8.1837
▁women	-8.18632
▁chin	-8.18796
▁use	-8.18826
▁arm	-8.19821
▁power	-8.20122
▁issue	-8.20613
8	-8.2108
▁took	-8.21346
▁air	-8.21497
▁both	-8.21637
▁oil	-8.21669
▁30	-8.21943
▁your	-8.22056
▁good	-8.22097
▁case	-8.2251
▁20	-8.22577
▁de	-8.22594
▁friday	-8.23021
▁think	-8.23279
▁market	-8.23577
▁region	-8.23581
▁6	-8.23652
f	-8.2367
such	-8.23719
▁died	-8.23994
▁should	-8.24133
▁number	-8.24174
▁result	-8.24473
le	-8.24802
▁london	-8.25076
▁office	-8.25206
▁service	-8.25379
▁play	-8.26
▁arrest	-8.26294
▁program	-8.26454
▁members	-8.26473
▁release	-8.26505
▁k	-8.26805
▁return	-8.2691
▁head	-8.27539
▁turn	-8.27853
▁john	-8.28149
▁press	-8.28171
▁don	-8.28687
▁top	-8.28815
▁know	-8.29059
▁mccain	-8.29089
▁remain	-8.29089
▁washington	-8.29404
▁follow	-8.29567
▁add	-8.30044
▁charge	-8.30183
▁health	-8.30401
▁troop	-8.30676
▁among	-8.30682
▁run	-8.30822
▁point	-8.30837
▁left	-8.3099
▁countr	-8.31613
▁political	-8.32403
▁look	-8.32587
▁billion	-8.32723
▁change	-8.32868
▁c	-8.33045
and	-8.33276
▁night	-8.33391
▁grow	-8.33399
▁name	-8.33801
▁saturday	-8.33929
one	-8.3403
▁ministr	-8.3426
expected	-8.34379
3	-8.34496
▁injur	-8.34604
▁water	-8.34631
▁white	-8.34656
▁f	-8.34842
▁general	-8.34926
▁men	-8.35179
▁far	-8.35505
▁ago	-8.35679
▁iraqi	-8.36017
▁earlie	-8.36461
thing	-8.36593
▁french	-8.3729
▁capital	-8.37373
▁earl	-8.37394
4	-8.37556
later	-8.37578
um	-8.37959
▁continue	-8.37999
▁hospital	-8.38036
▁order	-8.38345
ever	-8.38682
▁food	-8.38774
▁try	-8.38823
ty	-8.38984
▁few	-8.39026
▁life	-8.39173
▁worker	-8.40239
▁foreign	-8.40369
▁199	-8.40543
▁chief	-8.4077
▁11	-8.4112
▁concern	-8.41123
▁win	-8.41287
▁own	-8.41328
▁bei	-8.42156
▁problem	-8.43278
day	-8.43483
us	-8.43512
▁count	-8.4399
u	-8.44021
son	-8.44356
▁record	-8.44373
▁center	-8.44798
▁hit	-8.45095
▁effort	-8.4548
▁me	-8.45814
▁bar	-8.46053
ame	-8.46109
ton	-8.46193
▁ask	-8.46321
w	-8.46567
▁dead	-8.46576
jing	-8.46813
▁face	-8.46951
▁100	-8.47001
▁came	-8.47165
▁minute	-8.47353
▁major	-8.47428
▁game	-8.47749
▁these	-8.48074
▁web	-8.48088
▁afghan	-8.48111
▁allow	-8.48151
▁team	-8.48905
▁real	-8.49064
▁best	-8.49179
▁train	-8.49601
▁protest	-8.49629
raf	-8.49692
▁visit	-8.49876
▁per	-8.50034
▁department	-8.50037
▁inform	-8.50086
▁media	-8.50412
▁universit	-8.50642
▁system	-8.50999
▁candidate	-8.51207
▁school	-8.514
▁clear	-8.51601
1	-8.51671
▁mean	-8.51851
▁wh	-8.52293
▁march	-8.52403
▁along	-8.52562
▁half	-8.53029
▁meeting	-8.53079
▁officer	-8.53421
▁increase	-8.53592
▁video	-8.53592
▁iran	-8.53625
▁15	-8.53641
▁12	-8.53697
self	-8.53758
▁gas	-8.5384
▁miles	-8.54008
▁bas	-8.54107
▁appear	-8.54389
▁olympic	-8.54401
▁opposition	-8.54811
9	-8.54926
istan	-8.55152
▁past	-8.55587
▁50	-8.55621
▁great	-8.55625
age	-8.55781
▁put	-8.55796
▁small	-8.56037
▁hill	-8.56178
▁wound	-8.5645
▁local	-8.5645
▁base	-8.56457
▁does	-8.56788
ntil	-8.56929
▁delegate	-8.57281
away	-8.57671
▁suspect	-8.57755
▁musha	-8.57887
▁bank	-8.58049
▁claim	-8.5812
known	-8.58173
▁primar	-8.5829
▁business	-8.58542
▁film	-8.58632
▁announc	-8.58636
▁free	-8.59291
▁main	-8.59487
▁8	-8.5953
▁third	-8.59818
▁internet	-8.59819
▁young	-8.59902
▁economic	-8.60006
cy	-8.60176
▁econom	-8.6018
read	-8.60263
▁40	-8.60704
each	-8.60791
▁law	-8.6082
▁secretar	-8.61066
▁engl	-8.61118
▁province	-8.61282
ack	-8.61397
▁jan	-8.61414
▁sign	-8.61682
▁decision	-8.61983
▁student	-8.61983
▁german	-8.61985
▁leaders	-8.61986
▁move	-8.62186
▁border	-8.62422
▁led	-8.62774
▁soldier	-8.62875
▁hand	-8.62946
▁final	-8.63153
▁fight	-8.63244
▁associate	-8.63305
taken	-8.63404
▁race	-8.63825
▁keep	-8.64307
▁post	-8.64456
▁islam	-8.64665
▁hope	-8.65203
cross	-8.65222
te	-8.65277
▁estimate	-8.66002
ive	-8.66008
or	-8.66051
▁offer	-8.66415
▁thousand	-8.66917
▁emergenc	-8.66926
▁israel	-8.67241
▁violen	-8.67256
▁conference	-8.67378
hutto	-8.67438
▁union	-8.67756
▁northern	-8.67868
▁reach	-8.68038
▁space	-8.68235
▁deal	-8.68666
▁european	-8.68799
▁side	-8.69293
▁israeli	-8.69382
▁weapon	-8.70188
▁big	-8.70346
▁consider	-8.70382
▁killing	-8.70439
▁rule	-8.70584
▁must	-8.70757
▁give	-8.71127
▁operation	-8.71194
▁woman	-8.71272
▁question	-8.71626
▁eight	-8.71675
▁line	-8.7186
▁se	-8.71885
▁bomb	-8.72426
▁palestinian	-8.72592
▁director	-8.72609
k	-8.72612
▁outside	-8.72917
▁star	-8.73059
▁seven	-8.7308
▁demand	-8.73081
▁france	-8.73193
re	-8.73426
▁station	-8.7349
▁job	-8.7356
ten	-8.73702
▁source	-8.74063
▁control	-8.74251
coming	-8.7451
▁18	-8.747
▁street	-8.74708
▁town	-8.74746
▁person	-8.75
ous	-8.75057
▁rebel	-8.7507
▁held	-8.75311
▁shot	-8.75336
ng	-8.75407
▁term	-8.75545
▁cha	-8.7588
▁supporter	-8.75953
▁full	-8.76081
head	-8.7613
▁mak	-8.76288
▁black	-8.76527
▁baghda	-8.76563
▁tak	-8.76662
▁hard	-8.76746
▁calif	-8.77071
▁defense	-8.77581
orni	-8.77598
ta	-8.77789
▁dec	-8.77991
▁light	-8.7813
ch	-8.78133
▁19	-8.78386
▁comment	-8.7863
▁study	-8.78665
▁strong	-8.78721
▁building	-8.79037
▁short	-8.79108
▁newspaper	-8.79127
▁become	-8.79127
▁cut	-8.7923
▁russian	-8.7939
go	-8.79403
▁southern	-8.79675
ally	-8.79707
▁hundred	-8.80171
▁girl	-8.8018
▁cost	-8.80385
▁find	-8.80646
▁attempt	-8.80698
▁morning	-8.81086
▁include	-8.81224
▁qa	-8.81231
▁victim	-8.81759
▁computer	-8.81781
▁cit	-8.81869
▁live	-8.81918
▁target	-8.82294
▁movie	-8.82382
ry	-8.82407
▁compani	-8.82771
▁immediate	-8.82831
▁possibl	-8.82834
▁hold	-8.82899
▁commission	-8.82902
▁victor	-8.83106
▁travel	-8.83168
▁west	-8.83195
▁plann	-8.83224
▁republican	-8.83389
▁confirm	-8.83443
▁develop	-8.837
▁14	-8.84053
uar	-8.84114
▁co	-8.84537
▁condition	-8.85012
▁level	-8.85014
▁agree	-8.85024
▁red	-8.85815
ship	-8.85896
woman	-8.8597
▁safe	-8.8598
▁scientist	-8.86119
▁russia	-8.86395
▁never	-8.86718
▁brita	-8.87102
▁strike	-8.87115
▁bill	-8.87337
▁ga	-8.87343
g	-8.87525
▁thing	-8.87635
▁fe	-8.87775
ber	-8.87777
▁disease	-8.87805
▁22	-8.88118
to	-8.88174
▁global	-8.88378
▁speak	-8.88445
▁9	-8.88528
went	-8.88732
▁fall	-8.88865
500	-8.89004
▁heart	-8.89047
el	-8.89051
▁reporter	-8.89087
▁too	-8.8934
▁research	-8.89343
▁park	-8.89474
▁821	-8.89521
▁action	-8.89661
ar	-8.90084
▁suicide	-8.90106
▁hav	-8.90592
▁television	-8.90685
▁total	-8.90741
▁nov	-8.90796
ne	-8.90796
▁wide	-8.90812
▁voter	-8.909
▁america	-8.9098
▁stop	-8.91178
co	-8.9123
▁cause	-8.91267
▁animal	-8.9127
▁sea	-8.91332
ra	-8.91337
▁releas	-8.91446
▁militant	-8.91852
▁little	-8.91852
▁might	-8.91853
▁future	-8.92443
▁hotel	-8.92446
▁16	-8.92554
▁watch	-8.92831
▁launch	-8.9302
▁east	-8.93039
▁committee	-8.93042
▁investigation	-8.93066
▁sex	-8.9309
▁24	-8.93507
▁airport	-8.93639
▁turkey	-8.93642
▁paris	-8.93675
▁india	-8.94157
less	-8.94158
▁13	-8.94197
▁central	-8.94241
▁organization	-8.94251
▁carry	-8.94279
▁island	-8.94282
▁peace	-8.94552
▁interview	-8.94581
ard	-8.95297
▁share	-8.95377
▁aid	-8.95584
▁working	-8.95851
▁rate	-8.95926
▁less	-8.95998
▁federal	-8.96128
▁goal	-8.96661
ough	-8.9678
▁walk	-8.96869
lost	-8.96886
▁key	-8.975
▁member	-8.97823
▁current	-8.97932
▁incident	-8.97932
▁couple	-8.97939
▁money	-8.97953
▁accus	-8.97969
▁better	-8.98008
▁ap	-8.98021
▁tri	-8.98178
▁test	-8.9849
▁dozen	-8.98562
▁age	-8.98745
nmar	-8.98886
▁previous	-8.99194
▁serious	-8.99194
▁happen	-8.99242
▁san	-8.99292
▁toward	-9.00053
▁poll	-9.00136
▁coast	-9.0024
▁warn	-9.0036
▁decade	-9.00475
▁cris	-9.00493
▁front	-9.00618
▁judge	-9.00655
▁technolog	-9.0089
▁join	-9.01038
▁25	-9.01179
▁pakistani	-9.01427
▁season	-9.01452
▁nomination	-9.01779
▁event	-9.02025
▁mid	-9.02332
▁florid	-9.0242
though	-9.02614
▁phone	-9.02846
yet	-9.02952
▁doctor	-9.03078
▁ban	-9.03171
▁break	-9.03337
▁search	-9.03362
by	-9.03545
▁room	-9.03692
▁body	-9.0372
▁resident	-9.0374
▁terrorist	-9.03805
▁read	-9.03841
▁suggest	-9.04341
▁60	-9.04459
▁pay	-9.04966
▁energ	-9.05071
▁fuel	-9.0508
▁alleged	-9.05189
▁due	-9.05213
▁turk	-9.05281
▁mother	-9.05372
▁act	-9.055
▁flight	-9.05689
▁texas	-9.05754
▁senator	-9.05764
▁got	-9.05996
abe	-9.06052
▁lot	-9.06072
▁bring	-9.06283
▁vehicle	-9.06434
▁administration	-9.07122
▁foot	-9.07264
▁leave	-9.07411
▁angel	-9.07413
ness	-9.07437
▁wif	-9.07514
ance	-9.07756
▁dollar	-9.0781
▁civilian	-9.07814
▁view	-9.07898
▁western	-9.0797
▁meet	-9.08017
▁los	-9.08087
▁gold	-9.08289
▁seat	-9.08308
▁process	-9.08394
▁ve	-9.08456
▁ship	-9.08494
▁interest	-9.0868
▁hu	-9.08801
▁anti	-9.08895
▁tibet	-9.09161
▁protect	-9.09172
▁ki	-9.09193
▁risk	-9.09203
▁medical	-9.09205
▁project	-9.0984
▁chance	-9.09913
▁important	-9.09923
▁com	-9.10022
▁here	-9.10064
▁parliament	-9.10562
▁prison	-9.10637
▁sell	-9.10684
▁involv	-9.10715
▁threaten	-9.10831
▁storm	-9.10873
▁pro	-9.11134
▁chair	-9.11344
▁agreement	-9.11367
▁church	-9.11486
▁sept	-9.11579
▁plane	-9.11783
▁threat	-9.11868
▁democrac	-9.12049
▁further	-9.1205
▁davi	-9.12136
ful	-9.1225
▁father	-9.12274
▁blood	-9.12394
▁inside	-9.12447
▁weekend	-9.12906
▁apri	-9.12907
▁provide	-9.12913
▁damage	-9.12947
▁europe	-9.13463
▁saudi	-9.13505
▁cell	-9.13541
side	-9.13564
▁different	-9.13601
bru	-9.13632
▁june	-9.13757
▁popular	-9.1424
wide	-9.14403
hind	-9.14474
ought	-9.14491
amid	-9.14637
▁direct	-9.14747
▁article	-9.1498
▁situation	-9.14981
▁ever	-9.15026
ur	-9.15173
▁cover	-9.1526
▁expect	-9.15317
▁ceremon	-9.15726
▁nine	-9.15873
it	-9.16124
▁bus	-9.16315
▁list	-9.16345
▁liv	-9.16397
▁august	-9.16478
▁council	-9.16478
▁protester	-9.16514
▁lower	-9.16603
▁form	-9.16682
▁friend	-9.16716
▁figure	-9.16788
oul	-9.16829
▁trip	-9.1717
▁sarkozy	-9.17236
▁muslim	-9.17236
▁communit	-9.17409
▁ta	-9.17578
▁cross	-9.17842
▁democrat	-9.17965
▁barrel	-9.18004
▁tell	-9.18112
▁stock	-9.18211
▁kim	-9.18614
▁boy	-9.18645
▁crew	-9.18773
▁lawyer	-9.18776
▁brown	-9.18792
▁complete	-9.18799
▁let	-9.18989
▁bigge	-9.19302
▁seek	-9.19403
▁given	-9.19466
▁suffer	-9.19544
▁crime	-9.19545
▁role	-9.19557
▁attend	-9.19615
▁activit	-9.19847
▁expert	-9.20325
▁prevent	-9.20325
▁senior	-9.20325
▁justice	-9.20326
▁population	-9.20332
▁stay	-9.20344
▁caus	-9.20546
▁son	-9.20835
▁road	-9.20878
▁though	-9.21091
▁tv	-9.2123
▁21	-9.21338
▁product	-9.21439
▁bad	-9.21894
▁financial	-9.21911
▁green	-9.22131
▁award	-9.22209
▁ground	-9.22216
▁daughter	-9.22286
as	-9.22541
▁soon	-9.22564
rice	-9.22726
▁enter	-9.22727
▁stand	-9.23101
▁pass	-9.23326
▁congress	-9.23512
▁embass	-9.23512
▁rival	-9.23512
▁speech	-9.23512
▁robert	-9.2352
▁sent	-9.23551
▁mission	-9.23735
came	-9.2376
way	-9.24031
▁trade	-9.2404
▁policy	-9.2407
▁destroy	-9.24108
▁push	-9.24152
▁broke	-9.24154
▁gen	-9.24249
▁industry	-9.24325
down	-9.24578
▁colombia	-9.24862
▁seem	-9.24868
▁king	-9.25026
▁passenger	-9.25145
▁h	-9.25247
▁runn	-9.25537
eda	-9.25911
▁executive	-9.25975
▁discover	-9.26083
▁paul	-9.26159
ley	-9.26209
▁0	-9.26209
▁address	-9.26389
ham	-9.26429
▁pressure	-9.26509
▁easter	-9.26615
▁serve	-9.2664
een	-9.26662
▁store	-9.26753
▁husband	-9.26805
bi	-9.26814
▁fell	-9.26824
▁crowd	-9.26827
▁almo	-9.26858
▁production	-9.26874
▁contest	-9.26875
▁ex	-9.27076
kyo	-9.27087
▁bombing	-9.2719
▁nominee	-9.27645
▁network	-9.27647
▁evidence	-9.27647
▁ruling	-9.27649
hua	-9.27695
▁village	-9.27757
ither	-9.27813
▁scene	-9.2783
▁receiv	-9.27921
▁conduct	-9.27931
▁polls	-9.2809
ong	-9.28263
▁summer	-9.28493
▁histor	-9.28495
▁gaza	-9.2852
▁affect	-9.28899
▁pick	-9.28933
▁word	-9.28961
▁special	-9.28976
▁ben	-9.29235
▁missing	-9.29257
▁accept	-9.29348
▁detail	-9.29349
▁transport	-9.29351
▁private	-9.29352
▁fund	-9.29469
▁league	-9.29542
▁wall	-9.29758
▁position	-9.29859
▁ho	-9.29879
▁australia	-9.29926
▁serie	-9.30017
oft	-9.30045
▁express	-9.30143
▁missile	-9.3021
▁kind	-9.30223
▁octo	-9.30232
▁sa	-9.30233
▁image	-9.30262
▁ba	-9.30486
ung	-9.31102
▁message	-9.31114
▁kong	-9.31114
▁movement	-9.31139
ist	-9.31326
▁reason	-9.31423
▁tog	-9.31492
ways	-9.31604
▁fee	-9.31863
▁pull	-9.32021
▁inter	-9.32135
▁parent	-9.32301
▁drug	-9.32415
▁difficult	-9.32841
▁focus	-9.32841
▁development	-9.32888
▁link	-9.33194
ia	-9.33426
▁tour	-9.33466
▁board	-9.33492
▁matter	-9.33777
▁plant	-9.33882
▁account	-9.34007
▁mi	-9.34169
▁heavy	-9.34635
▁communist	-9.34636
▁staff	-9.34636
▁feel	-9.34645
▁earth	-9.34653
▁journalist	-9.34758
▁measure	-9.34961
▁prince	-9.35024
▁micros	-9.3532
▁land	-9.35454
▁xin	-9.35526
▁appeal	-9.35544
▁quick	-9.35546
▁title	-9.3555
▁198	-9.35557
▁crack	-9.35567
▁moment	-9.35568
▁rain	-9.35655
▁natural	-9.35664
terior	-9.35674
▁analyst	-9.35757
▁letter	-9.35953
▁gett	-9.36029
▁fan	-9.36118
▁fear	-9.36122
up	-9.36248
▁treat	-9.36448
▁employee	-9.36467
▁rais	-9.36559
▁cat	-9.36621
▁african	-9.36733
▁online	-9.36747
▁care	-9.36757
ian	-9.36772
once	-9.37118
▁crash	-9.37388
▁accident	-9.37395
▁thai	-9.37454
▁rise	-9.37587
▁urg	-9.37647
▁visitor	-9.37653
▁researcher	-9.37672
▁player	-9.37936
ves	-9.37945
▁fact	-9.38261
▁begin	-9.3831
▁similar	-9.38322
▁loss	-9.38322
▁blast	-9.38335
▁cup	-9.38354
▁host	-9.38357
▁thought	-9.38468
▁80	-9.38604
▁match	-9.38758
ri	-9.39075
▁kid	-9.39129
▁ohio	-9.39266
▁ra	-9.39294
▁low	-9.39535
▁rose	-9.39823
▁battle	-9.39928
▁airline	-9.40093
▁poor	-9.40229
▁intelligen	-9.40264
nato	-9.40355
▁met	-9.40445
pent	-9.40662
▁africa	-9.40896
▁lee	-9.41168
▁neighbor	-9.41177
▁carolina	-9.41179
▁pound	-9.41179
▁survey	-9.41179
▁flood	-9.41187
▁refus	-9.4168
▁identifi	-9.41761
▁dar	-9.41775
▁river	-9.41834
▁buy	-9.41835
▁rest	-9.41885
▁arriv	-9.41888
▁asia	-9.42111
▁district	-9.4215
▁sexual	-9.42155
▁create	-9.42181
▁consumer	-9.42272
▁sam	-9.42619
putin	-9.42914
▁step	-9.43088
▁pennsylvania	-9.4313
▁mug	-9.43155
▁schedul	-9.43357
▁certain	-9.43516
▁toll	-9.43552
▁exchange	-9.43631
wood	-9.43989
▁personal	-9.44004
▁idea	-9.44092
truck	-9.44105
▁opening	-9.44508
yang	-9.44528
▁effect	-9.45103
▁george	-9.45121
▁middle	-9.45121
▁centur	-9.45129
▁treatment	-9.45152
▁occurr	-9.45181
▁29	-9.4526
▁mass	-9.45611
▁mov	-9.45674
▁asian	-9.45732
▁saw	-9.45912
▁approv	-9.46064
▁dail	-9.46073
▁square	-9.46132
▁burn	-9.4619
▁gain	-9.46244
▁kurd	-9.46266
▁driver	-9.46678
▁spoke	-9.46817
▁lift	-9.46948
▁majorit	-9.46951
ney	-9.4696
et	-9.47039
▁apparent	-9.47152
▁deliver	-9.47997
▁music	-9.48064
▁j	-9.48119
▁ll	-9.48205
▁harr	-9.48255
▁why	-9.4826
▁bid	-9.4831
▁ka	-9.48341
pain	-9.48561
nois	-9.48823
▁fail	-9.49064
▁slow	-9.49081
▁coalition	-9.49224
▁lawmaker	-9.49226
▁pop	-9.49291
▁tourist	-9.49295
▁elect	-9.49424
▁trad	-9.49866
▁size	-9.49874
▁draw	-9.50117
▁bomber	-9.50156
▁marine	-9.50184
▁detain	-9.50267
▁summit	-9.50276
▁initial	-9.50279
▁delay	-9.503
▁civil	-9.5031
ter	-9.50333
▁lives	-9.50356
▁camp	-9.50381
low	-9.50409
▁bod	-9.50562
▁mark	-9.50606
▁vice	-9.50651
▁31	-9.50808
▁23	-9.50827
special	-9.50943
▁publish	-9.51046
▁carri	-9.51064
▁discuss	-9.51276
▁attorney	-9.5134
▁museum	-9.5134
▁suspend	-9.5134
▁investigator	-9.51414
▁300	-9.51509
▁relations	-9.51549
▁avoid	-9.51573
spite	-9.51654
x	-9.51674
▁murder	-9.51991
night	-9.52
▁sentence	-9.52018
la	-9.52043
▁beat	-9.52181
▁date	-9.52285
▁access	-9.52311
▁document	-9.52385
▁availab	-9.52415
▁patient	-9.52424
▁rock	-9.5243
▁environmental	-9.52446
▁vi	-9.52468
▁pe	-9.52534
▁story	-9.52623
▁tree	-9.52643
▁26	-9.52658
▁course	-9.53026
▁la	-9.53211
bo	-9.53228
▁contain	-9.53303
▁design	-9.53339
▁birth	-9.53502
▁explosion	-9.53503
▁relationship	-9.53503
▁somali	-9.53504
▁recover	-9.53506
▁rare	-9.53528
▁present	-9.53559
rising	-9.53605
▁manager	-9.53614
▁non	-9.53883
where	-9.54398
▁association	-9.54601
▁royal	-9.54604
▁weather	-9.54621
▁independent	-9.54706
▁sales	-9.54769
liban	-9.54778
▁indian	-9.55214
▁wor	-9.55484
▁relat	-9.55636
▁bear	-9.55683
▁satellite	-9.55712
▁contact	-9.55713
▁reject	-9.55713
▁limit	-9.55723
▁truck	-9.55742
▁am	-9.55882
ine	-9.56225
▁terroris	-9.56549
▁book	-9.56562
▁rescue	-9.56609
▁despi	-9.56615
▁28	-9.56633
▁gather	-9.56767
▁attention	-9.56836
▁kilometer	-9.56836
▁michael	-9.56836
▁territor	-9.56836
▁common	-9.56839
▁jail	-9.56841
▁hostage	-9.5686
▁australian	-9.57208
▁legal	-9.57462
▁love	-9.57529
ware	-9.57532
▁jon	-9.57534
▁model	-9.57581
▁van	-9.57649
▁canno	-9.57721
▁lack	-9.57998
▁camera	-9.58016
▁tibetan	-9.58041
▁wear	-9.58046
▁provid	-9.5806
00	-9.58227
▁normal	-9.58234
rude	-9.58354
▁declar	-9.58661
▁driv	-9.58684
▁con	-9.58847
▁warning	-9.58983
▁contract	-9.59028
▁request	-9.59122
▁kosov	-9.59122
▁female	-9.59122
▁leav	-9.59176
▁average	-9.59255
▁single	-9.59346
▁ne	-9.59359
▁sure	-9.59462
▁nav	-9.59464
am	-9.59475
▁mo	-9.59503
▁illi	-9.5953
▁speed	-9.59579
▁done	-9.59703
▁35	-9.5986
▁block	-9.59887
▁drive	-9.60124
▁ice	-9.60232
▁restaurant	-9.60285
▁prosecutor	-9.60288
▁brother	-9.603
whil	-9.6055
▁dr	-9.60768
▁grand	-9.61202
▁abo	-9.61203
ern	-9.61253
▁ital	-9.61324
▁social	-9.61371
▁arab	-9.61445
▁helicopter	-9.61461
▁illegal	-9.61461
▁afternoon	-9.61461
▁annual	-9.61461
▁aircraft	-9.6147
▁deput	-9.61471
▁southeast	-9.61476
ant	-9.61492
▁unit	-9.61568
▁screen	-9.61581
▁describ	-9.61731
▁colombian	-9.61872
▁forest	-9.61874
yong	-9.61875
using	-9.61898
2001	-9.61967
▁mountain	-9.62016
hi	-9.62227
▁del	-9.62333
▁super	-9.62439
▁credit	-9.62652
▁demonstration	-9.62657
▁boat	-9.62657
▁rally	-9.62685
▁o	-9.62728
▁gate	-9.62731
▁moon	-9.62795
at	-9.62803
stead	-9.62895
▁factor	-9.62908
▁understand	-9.62958
▁separate	-9.63032
▁ver	-9.63043
▁jo	-9.63218
ie	-9.63318
▁pen	-9.63393
▁experience	-9.63479
▁sun	-9.63556
▁stage	-9.63661
▁nor	-9.63817
b	-9.6385
▁approach	-9.63856
▁response	-9.63856
▁torch	-9.63867
▁virginia	-9.63867
▁iranian	-9.63881
▁customer	-9.64057
▁critical	-9.64178
▁color	-9.64196
ez	-9.6443
▁friends	-9.64459
▁creat	-9.64992
▁zimbabwe	-9.65033
▁earthquake	-9.65076
id	-9.652
▁ball	-9.65429
▁labor	-9.65697
▁45	-9.66012
▁fill	-9.66084
▁challenge	-9.66104
▁themsel	-9.6616
▁particular	-9.6631
▁quot	-9.66332
▁paper	-9.66342
rought	-9.66379
▁bin	-9.6671
▁drink	-9.66795
▁decided	-9.66864
▁receive	-9.6715
▁kenya	-9.67276
▁spread	-9.6733
▁deep	-9.67342
▁period	-9.67486
▁success	-9.67516
▁respond	-9.67555
▁professor	-9.67561
▁sold	-9.6758
▁insist	-9.6764
▁raise	-9.67728
▁commander	-9.67756
▁club	-9.67764
▁joint	-9.67779
▁trial	-9.67791
▁nothing	-9.67877
▁round	-9.6826
▁stopp	-9.68329
▁mail	-9.68392
time	-9.68481
▁clean	-9.6851
▁independen	-9.68706
▁require	-9.68718
▁convict	-9.68761
▁republic	-9.68785
▁quarter	-9.68826
▁value	-9.68831
▁giant	-9.68839
▁significant	-9.68903
▁snow	-9.68913
▁data	-9.68914
▁winn	-9.68921
▁holding	-9.69125
na	-9.69584
▁compar	-9.69817
▁nepal	-9.70108
▁societ	-9.70108
▁exile	-9.70116
▁writ	-9.70116
▁wait	-9.70119
▁radio	-9.70128
▁actor	-9.70203
▁prize	-9.70261
▁english	-9.70292
▁committ	-9.70365
▁warm	-9.70581
▁hop	-9.70718
▁gun	-9.70737
often	-9.70789
▁broadcast	-9.71044
ner	-9.71085
▁continu	-9.71306
azir	-9.71467
▁blue	-9.71485
aba	-9.71497
▁produce	-9.71587
▁solution	-9.71591
▁jer	-9.7171
ory	-9.71825
▁remark	-9.71887
▁peter	-9.72229
▁georgia	-9.72429
▁rich	-9.7248
▁born	-9.72495
rt	-9.72541
▁fly	-9.72614
▁mexic	-9.72624
▁eu	-9.72655
▁establish	-9.72723
▁shiite	-9.72723
▁mosco	-9.72724
▁activist	-9.72729
▁negotiation	-9.72744
▁relative	-9.72744
▁ran	-9.72765
▁finish	-9.72908
▁sale	-9.72966
▁planet	-9.72973
▁jul	-9.73002
ak	-9.73189
▁farmer	-9.73204
▁pai	-9.73602
▁class	-9.73699
ana	-9.73775
▁leg	-9.73936
▁conflict	-9.74056
▁increasing	-9.74056
▁monitor	-9.74056
▁opportunit	-9.74056
▁electronic	-9.74056
▁double	-9.7406
▁beginning	-9.74061
bc	-9.74208
▁aim	-9.74247
▁debate	-9.74272
▁mind	-9.74343
▁dropp	-9.74346
win	-9.74411
▁necessar	-9.74465
▁forward	-9.745
▁shooting	-9.74522
▁severe	-9.74612
▁secret	-9.74733
▁buil	-9.74811
▁spend	-9.74838
▁fine	-9.75109
▁traffic	-9.75152
▁supplie	-9.75221
▁rape	-9.75233
▁soft	-9.75362
▁check	-9.754
town	-9.75407
▁ambassador	-9.75408
▁impact	-9.75409
▁adult	-9.75409
▁dispute	-9.7541
▁actual	-9.75415
▁zone	-9.75425
ami	-9.75438
▁investor	-9.75442
▁le	-9.75476
▁raid	-9.75498
ran	-9.75521
▁abuse	-9.75524
▁citizens	-9.75588
body	-9.75654
▁perve	-9.75672
▁traditional	-9.7575
il	-9.75847
▁christ	-9.76031
▁operat	-9.76072
▁touch	-9.76258
▁lad	-9.76259
▁miss	-9.76304
▁showing	-9.76579
pp	-9.76682
▁condemn	-9.76777
▁criminal	-9.76777
▁singapore	-9.76777
▁sound	-9.76778
▁learn	-9.76779
▁francis	-9.76781
▁capture	-9.76782
▁peaceful	-9.76803
▁resign	-9.76815
▁g	-9.76852
▁guard	-9.77072
new	-9.77279
▁jun	-9.7743
▁investigat	-9.7745
▁surger	-9.77654
board	-9.77686
▁span	-9.77901
▁benefit	-9.78166
▁superdelegate	-9.78166
▁holiday	-9.78168
▁giv	-9.78169
▁richard	-9.7818
▁admitt	-9.7822
▁represent	-9.783
▁electric	-9.78463
▁worth	-9.78483
za	-9.78488
▁riot	-9.78559
▁partie	-9.78641
▁cent	-9.79049
▁201	-9.79054
▁institute	-9.79575
▁sudan	-9.79576
▁maintain	-9.79577
rote	-9.79591
▁supreme	-9.79591
▁index	-9.79624
▁page	-9.79712
▁400	-9.79729
▁vot	-9.799
▁die	-9.80089
ba	-9.80261
▁honor	-9.80266
▁track	-9.80456
▁intend	-9.8057
▁indonesia	-9.80715
▁ii	-9.8089
▁hous	-9.80909
▁field	-9.80985
▁custod	-9.81003
▁iowa	-9.81004
▁potential	-9.81005
▁window	-9.81005
▁fair	-9.81013
▁michi	-9.81016
▁relay	-9.81021
▁spear	-9.81027
▁option	-9.81032
▁usual	-9.81035
▁jet	-9.81055
▁engineer	-9.81186
▁range	-9.81229
▁probabl	-9.81231
▁save	-9.81306
ro	-9.81474
▁cars	-9.81752
▁build	-9.81902
▁90	-9.82008
▁promise	-9.82156
▁venezuela	-9.82168
ani	-9.8222
▁reduce	-9.82391
▁bur	-9.8243
▁reform	-9.82442
▁responsibilit	-9.82452
▁difference	-9.82453
▁defeat	-9.8246
▁choice	-9.82464
▁else	-9.82473
▁port	-9.82691
▁finding	-9.82855
▁winner	-9.82866
▁highway	-9.83053
rom	-9.83554
▁arabia	-9.83634
ical	-9.83747
▁dis	-9.83766
▁tax	-9.83864
▁supply	-9.83923
▁quake	-9.83924
▁jump	-9.83926
▁sanction	-9.83927
▁chica	-9.83929
▁italian	-9.83938
ahoo	-9.83941
▁education	-9.83972
▁fish	-9.83973
▁agent	-9.84236
gone	-9.84269
▁pre	-9.84342
▁na	-9.84688
▁deni	-9.85089
▁32	-9.85249
▁material	-9.85407
▁college	-9.85416
▁prompt	-9.85416
▁assembl	-9.85429
▁fast	-9.85453
▁announcement	-9.85457
▁corp	-9.85679
▁hama	-9.85683
▁sh	-9.85768
▁holly	-9.85786
ell	-9.85913
diana	-9.86065
▁premier	-9.86338
▁facilit	-9.86718
▁scor	-9.86835
▁brazil	-9.86922
▁soviet	-9.86931
▁cancel	-9.86934
▁author	-9.86942
▁massive	-9.86957
▁item	-9.87045
▁parliamentar	-9.87047
ger	-9.87107
kept	-9.87128
▁et	-9.87231
▁tension	-9.87315
ium	-9.87559
bon	-9.87916
▁sub	-9.88044
▁cruise	-9.88257
▁route	-9.88379
▁communication	-9.88475
▁adviser	-9.88518
▁export	-9.88529
▁meter	-9.88563
berg	-9.88579
▁pa	-9.88605
▁climat	-9.88675
▁original	-9.88755
drid	-9.88822
▁l	-9.88911
▁beach	-9.89027
▁ring	-9.89058
▁hear	-9.89136
di	-9.89304
▁evening	-9.89421
ko	-9.89463
▁card	-9.8981
ester	-9.89861
▁amount	-9.90025
baki	-9.90029
▁language	-9.90032
▁progress	-9.90032
▁neighborhood	-9.90036
▁dress	-9.90039
▁commercial	-9.90039
▁device	-9.9004
▁marriage	-9.90046
ssein	-9.90046
▁type	-9.90046
▁standard	-9.90056
▁boost	-9.90094
▁violent	-9.90467
▁slight	-9.90591
▁guilt	-9.90674
▁huge	-9.90808
▁mil	-9.90875
ov	-9.91023
▁writer	-9.91356
▁hearing	-9.91386
▁assault	-9.91619
▁explosive	-9.91619
▁surprise	-9.91619
▁reveal	-9.9162
▁presum	-9.9163
▁mile	-9.91633
▁northeast	-9.91641
kk	-9.91646
▁worrie	-9.91665
▁protection	-9.91766
▁flights	-9.9179
▁36	-9.91911
▁po	-9.92018
▁bo	-9.92044
▁drop	-9.92176
▁bird	-9.92515
▁shari	-9.92541
hire	-9.92571
▁sharp	-9.93029
▁pain	-9.93097
▁euro	-9.93153
▁shop	-9.93186
▁individual	-9.93232
▁telephone	-9.93232
▁palace	-9.93233
▁punish	-9.93249
▁code	-9.93251
▁sometime	-9.93343
▁pack	-9.93354
▁42	-9.93662
▁el	-9.93787
▁produc	-9.93797
ent	-9.93815
▁hands	-9.9387
▁rod	-9.94015
▁controll	-9.94245
▁eye	-9.94329
▁net	-9.94428
iz	-9.9448
ther	-9.94495
▁command	-9.94616
▁addition	-9.94658
▁li	-9.94812
▁piece	-9.94869
▁vessel	-9.94872
▁entire	-9.94872
▁voice	-9.94874
▁allegation	-9.94877
▁specific	-9.9488
▁performance	-9.94882
50	-9.94886
▁cancer	-9.94925
▁adopt	-9.9493
▁firm	-9.94941
▁discussion	-9.94971
▁600	-9.95
▁decline	-9.9502
▁blame	-9.95053
▁additional	-9.95093
spread	-9.95198
▁cast	-9.95393
▁studie	-9.95396
▁fighter	-9.9546
line	-9.95823
▁industrial	-9.95897
▁ali	-9.95944
▁51	-9.95949
▁bridge	-9.95957
▁wild	-9.9598
▁determine	-9.96043
rdon	-9.96251
▁owner	-9.96262
▁affair	-9.96538
▁corrupt	-9.96538
▁boycott	-9.96539
▁review	-9.96541
▁disaster	-9.96548
▁dangerous	-9.9655
▁brain	-9.96556
▁150	-9.96557
▁alert	-9.96567
▁dutch	-9.96569
▁appearance	-9.96586
▁kenne	-9.96623
▁diplomatic	-9.96646
▁ky	-9.96762
▁mayor	-9.96831
▁terror	-9.96881
▁kenyan	-9.9692
▁shar	-9.96945
▁ro	-9.97046
▁fears	-9.97209
▁convention	-9.97267
▁fac	-9.97321
▁refugee	-9.97424
ca	-9.97475
▁nicol	-9.97685
▁hurt	-9.97803
▁describe	-9.97844
▁quit	-9.97896
ier	-9.97922
▁impos	-9.97973
▁bit	-9.9806
▁cabinet	-9.98234
▁regard	-9.98234
▁qualit	-9.98234
▁style	-9.98236
▁behavior	-9.98238
▁management	-9.98246
▁fil	-9.9829
▁sp	-9.98307
▁extend	-9.98343
▁su	-9.98382
▁caucuse	-9.98549
▁relie	-9.98814
ler	-9.98991
house	-9.9902
true	-9.99027
▁trouble	-9.99079
▁formal	-9.99428
no	-9.99584
▁regime	-9.99952
▁magazine	-9.99957
▁virtual	-9.99957
▁example	-9.99957
▁leban	-9.99957
▁cyclone	-9.99959
▁oscar	-9.99959
▁freedom	-9.99963
▁fifth	-9.99979
▁seed	-9.99982
▁investment	-10.0003
men	-10.0003
ism	-10.0019
▁arrive	-10.0023
▁venezuelan	-10.003
da	-10.0035
▁defend	-10.0055
▁fa	-10.0057
rai	-10.0057
▁rocket	-10.0105
▁senat	-10.0108
▁tear	-10.0109
ling	-10.0123
▁user	-10.0135
▁cap	-10.0152
▁announce	-10.0153
▁polic	-10.0162
aught	-10.0169
▁wrong	-10.017
▁headquarter	-10.0171
▁straight	-10.0171
▁tournament	-10.0171
▁abandon	-10.0171
▁enjoy	-10.0171
▁spirit	-10.0171
▁responsibl	-10.0171
▁resolution	-10.0172
▁exit	-10.0173
▁rough	-10.0174
▁declaration	-10.0178
rack	-10.0178
▁import	-10.0179
▁stone	-10.0188
▁waste	-10.0189
▁38	-10.0189
lew	-10.0212
▁brief	-10.0224
▁struggl	-10.0266
▁williams	-10.0268
▁lake	-10.0275
▁art	-10.0287
▁spot	-10.0289
oding	-10.0294
▁collapse	-10.0301
nt	-10.0303
▁environment	-10.0324
▁weight	-10.0324
▁egypt	-10.0349
▁frequent	-10.035
▁ticket	-10.035
▁medicine	-10.035
▁taiwan	-10.035
▁ronald	-10.035
▁display	-10.035
rizon	-10.035
▁demonstrator	-10.0351
▁spark	-10.0351
▁referr	-10.0353
▁dark	-10.0355
▁nevad	-10.0356
▁khan	-10.0357
nel	-10.0371
▁advance	-10.0377
▁repeated	-10.0383
▁bang	-10.0394
▁surrounding	-10.0401
▁organizer	-10.0405
▁55	-10.0434
gen	-10.0456
▁witnesse	-10.0479
▁male	-10.0498
▁trail	-10.0501
▁zoo	-10.0501
▁constitution	-10.0502
▁nasa	-10.0511
▁ha	-10.0517
tic	-10.0526
cia	-10.0531
▁alliance	-10.0532
▁failure	-10.0532
▁felt	-10.0533
▁queen	-10.0533
huse	-10.0534
▁winter	-10.0536
▁survivor	-10.0539
▁elector	-10.0572
▁tough	-10.0586
▁secure	-10.0602
▁feature	-10.0603
▁uk	-10.061
▁remove	-10.0611
▁val	-10.0629
▁jame	-10.0631
▁science	-10.0636
▁perform	-10.0651
ors	-10.0664
▁inc	-10.0666
▁mu	-10.0706
▁locat	-10.071
▁respect	-10.0714
▁extreme	-10.0717
▁fraud	-10.0717
▁resort	-10.0717
▁abbas	-10.0717
▁answer	-10.0717
▁rapid	-10.0717
▁hair	-10.0718
pool	-10.0719
chuan	-10.0721
▁auction	-10.0725
▁involve	-10.0726
▁boss	-10.0739
insula	-10.074
overall	-10.0741
ious	-10.0749
▁broad	-10.075
▁eas	-10.0761
▁score	-10.0764
ota	-10.0776
▁file	-10.0801
alone	-10.0804
work	-10.0808
▁remov	-10.0812
be	-10.0818
▁ji	-10.0818
▁determined	-10.0822
ond	-10.083
▁48	-10.0838
western	-10.0849
▁scale	-10.0856
▁drugs	-10.0865
▁nad	-10.0867
▁criticiz	-10.0873
ea	-10.0875
▁resolve	-10.0888
▁massac	-10.0889
▁complain	-10.0895
ado	-10.0898
▁culture	-10.0902
▁content	-10.0905
▁destructi	-10.0905
▁opinion	-10.0905
▁conservative	-10.0905
▁orbit	-10.0906
▁penalt	-10.0906
▁politician	-10.0906
▁twic	-10.0906
▁disney	-10.0906
▁christian	-10.0907
▁kick	-10.0908
▁exist	-10.0908
▁assassination	-10.0909
ble	-10.0917
▁apartment	-10.0918
▁pictures	-10.0924
▁malik	-10.0929
▁basic	-10.0937
▁ko	-10.0939
▁smok	-10.0945
▁rat	-10.0948
▁di	-10.095
▁bag	-10.0955
▁complex	-10.0972
▁runner	-10.0988
▁cold	-10.0999
▁baby	-10.1001
ka	-10.1001
▁gov	-10.1004
tts	-10.1009
▁climb	-10.1017
bel	-10.1019
▁chang	-10.1031
▁critic	-10.1043
▁indiana	-10.1043
▁canad	-10.1048
▁license	-10.1058
▁rail	-10.1069
▁politic	-10.1072
▁citizen	-10.1072
▁nam	-10.1077
ki	-10.1077
▁44	-10.1079
▁character	-10.1096
▁mount	-10.1098
▁resource	-10.1098
▁practice	-10.1098
▁dvd	-10.1098
▁ocean	-10.1098
▁session	-10.1098
▁equipment	-10.1099
▁crucial	-10.1099
alem	-10.1102
▁sadr	-10.1103
▁powerful	-10.1105
▁winds	-10.1106
▁proposal	-10.1108
▁dala	-10.1112
▁da	-10.1114
▁chad	-10.1122
▁memor	-10.1123
▁improve	-10.1124
▁witness	-10.1154
▁che	-10.1157
▁ensure	-10.1168
▁wave	-10.1179
▁propos	-10.1185
▁reserve	-10.1186
▁earn	-10.1201
zza	-10.1212
▁tin	-10.1225
off	-10.1226
sh	-10.1233
▁photograph	-10.1246
▁flow	-10.1257
▁picture	-10.1274
▁52	-10.1285
▁journal	-10.1293
▁ukrain	-10.1293
▁sheriff	-10.1294
▁possibilit	-10.1294
▁studio	-10.1294
▁representative	-10.1294
field	-10.1294
▁regular	-10.1294
▁coach	-10.1294
▁floor	-10.1294
▁vow	-10.1294
▁fellow	-10.1294
▁eventual	-10.1295
▁influence	-10.1295
▁setting	-10.1297
▁roh	-10.1298
▁edward	-10.13
▁farm	-10.1303
▁lama	-10.1315
▁edge	-10.1321
tan	-10.1331
▁champions	-10.1332
▁cuba	-10.1333
▁active	-10.1335
▁famous	-10.1337
▁steps	-10.1339
▁indicat	-10.1344
▁stoo	-10.1349
▁trust	-10.1367
▁sentenc	-10.1368
▁schools	-10.1395
▁allie	-10.1398
rah	-10.1411
▁plot	-10.1411
▁works	-10.1415
▁indicate	-10.1427
▁dog	-10.1431
▁pc	-10.1438
▁shut	-10.1455
▁historic	-10.1455
▁legislat	-10.1458
▁feder	-10.1483
▁competition	-10.1494
▁cash	-10.1494
▁frank	-10.1494
▁governor	-10.1496
▁combat	-10.1497
▁door	-10.15
▁mike	-10.15
▁martin	-10.1505
▁assistan	-10.1511
▁makes	-10.1519
▁modern	-10.1521
▁stake	-10.1528
▁jose	-10.153
▁song	-10.1535
▁career	-10.1541
if	-10.1542
rs	-10.1543
ptive	-10.1548
▁tens	-10.1551
▁bann	-10.1551
▁promis	-10.1552
▁seiz	-10.1586
▁dan	-10.159
▁shift	-10.1609
▁im	-10.1613
ina	-10.1624
mph	-10.1629
▁ib	-10.1641
▁prepared	-10.165
▁employ	-10.1651
▁sky	-10.1654
▁schedule	-10.1671
vill	-10.1691
aks	-10.1694
▁advertis	-10.1698
▁domestic	-10.1698
▁ethnic	-10.1698
▁perfect	-10.1698
▁register	-10.1698
▁trigger	-10.1698
▁error	-10.1698
▁louis	-10.1698
▁shuttle	-10.1698
▁portug	-10.1698
▁pump	-10.1698
▁theater	-10.1703
▁location	-10.1705
▁yang	-10.1706
▁carrie	-10.1708
▁stress	-10.1716
▁northwest	-10.1717
▁mary	-10.1719
right	-10.1725
suu	-10.1731
space	-10.1732
▁delivery	-10.1735
▁mistake	-10.1742
▁sleep	-10.1745
▁effective	-10.1747
▁equal	-10.1775
▁mine	-10.1778
▁producer	-10.1792
▁sense	-10.1793
▁mar	-10.1814
▁wind	-10.1826
ated	-10.184
▁sadd	-10.1864
▁academ	-10.1871
▁replace	-10.1878
▁tight	-10.1885
▁blam	-10.1896
▁flag	-10.1902
▁happy	-10.1906
▁stadium	-10.1906
▁positive	-10.1906
▁condole	-10.1906
▁division	-10.1907
▁halt	-10.1907
▁canadian	-10.1907
construction	-10.1911
▁violation	-10.1911
▁physical	-10.1912
▁columbia	-10.1914
▁faye	-10.1918
ire	-10.192
▁box	-10.1942
▁wen	-10.196
back	-10.1961
▁smoke	-10.1963
▁traveler	-10.1986
▁km	-10.1992
▁whole	-10.2034
▁god	-10.2039
800	-10.2056
▁lose	-10.2081
▁syria	-10.2089
▁33	-10.2106
ribe	-10.2112
▁catholic	-10.2119
▁dialogue	-10.2119
▁magnitude	-10.2119
▁narrow	-10.2119
▁fresh	-10.2119
▁hole	-10.2124
▁guards	-10.2125
▁teacher	-10.2125
▁blow	-10.213
▁favor	-10.2153
gun	-10.2162
▁marri	-10.2166
▁anna	-10.2199
sburg	-10.2216
▁hall	-10.2222
aro	-10.2244
tar	-10.2244
▁presen	-10.2293
▁brun	-10.2296
ol	-10.2304
▁serbia	-10.2308
▁pledge	-10.231
▁extra	-10.2313
▁ju	-10.2313
▁tall	-10.2317
▁declin	-10.232
▁duba	-10.2334
▁agricultur	-10.2336
▁expand	-10.2336
▁explod	-10.2336
▁surface	-10.2336
▁various	-10.2337
▁enem	-10.2337
▁pollut	-10.2337
▁huck	-10.2338
▁successful	-10.2338
▁abdulla	-10.2339
▁execution	-10.2339
▁guest	-10.234
▁generation	-10.234
▁simpl	-10.2343
▁shortage	-10.2345
▁1980	-10.2345
▁196	-10.2347
▁globe	-10.2352
li	-10.2357
▁speci	-10.2357
▁dogs	-10.2362
chi	-10.2363
▁tape	-10.2389
▁version	-10.2389
▁dam	-10.241
▁carrier	-10.2413
angi	-10.2439
led	-10.2449
▁teen	-10.2461
ck	-10.2473
▁gar	-10.2476
table	-10.2494
▁prove	-10.251
▁bangladesh	-10.2537
▁thank	-10.2549
▁object	-10.255
▁prisoner	-10.2553
▁southwest	-10.2554
▁militia	-10.2559
▁transfer	-10.2559
▁tsv	-10.2559
▁pirate	-10.2561
▁wake	-10.2566
▁welcome	-10.2573
▁easi	-10.2574
▁mohamm	-10.2576
▁brand	-10.2585
ha	-10.2593
▁partner	-10.2595
over	-10.2612
▁minor	-10.263
▁doubt	-10.2635
▁mars	-10.264
▁counter	-10.2641
pol	-10.2645
▁chose	-10.2652
▁olme	-10.2659
ho	-10.2662
▁standing	-10.2672
▁rome	-10.2683
▁yu	-10.2709
▁41	-10.2712
▁forecast	-10.272
▁zealand	-10.2736
▁enforce	-10.2749
oline	-10.2755
▁barr	-10.2758
drew	-10.2759
▁thanks	-10.2759
▁entertain	-10.2762
▁dut	-10.2764
ribal	-10.2766
wa	-10.2776
▁attract	-10.2784
▁obtain	-10.2786
▁opponent	-10.2786
▁remote	-10.2786
▁suburb	-10.2786
▁audience	-10.2786
▁shelter	-10.2786
▁actress	-10.2786
▁philippine	-10.2786
▁daniel	-10.2786
▁task	-10.2786
▁criticism	-10.2786
▁crop	-10.2787
▁unlike	-10.2787
▁split	-10.2789
▁heavi	-10.2789
▁alaska	-10.2789
▁tie	-10.2792
▁flame	-10.2797
ga	-10.2801
▁1990	-10.2809
▁roads	-10.2812
▁metal	-10.2815
▁casualt	-10.2817
▁mad	-10.2829
▁band	-10.2841
▁39	-10.2868
iro	-10.2874
▁194	-10.2892
cer	-10.291
▁gu	-10.2914
▁propert	-10.2914
▁artist	-10.2916
▁princes	-10.2918
▁har	-10.2935
do	-10.2943
▁predict	-10.2948
▁wing	-10.2961
▁decide	-10.2989
▁accuse	-10.299
▁withdraw	-10.3007
▁strateg	-10.3013
▁danger	-10.3017
▁athlete	-10.3018
▁profile	-10.3018
▁vitamin	-10.3018
▁panel	-10.302
▁festival	-10.302
▁outbreak	-10.3021
▁insurgent	-10.3023
▁connection	-10.3027
▁disc	-10.3028
▁catch	-10.3028
▁cave	-10.3035
▁pledg	-10.3046
▁46	-10.3049
har	-10.305
▁virus	-10.3053
dney	-10.3055
▁percentage	-10.3058
ei	-10.3067
▁arms	-10.3079
▁era	-10.3093
▁34	-10.3123
can	-10.3158
▁jur	-10.3165
ft	-10.3187
▁manufactur	-10.32
▁finance	-10.3205
▁revolutionar	-10.3205
organ	-10.3212
▁suit	-10.3217
▁pose	-10.3226
hamps	-10.3234
▁64	-10.324
▁disappoint	-10.3256
▁celebrit	-10.3257
▁coffee	-10.3257
▁exhibit	-10.3257
▁plastic	-10.3257
▁subject	-10.3257
▁dream	-10.3257
▁pilot	-10.3257
▁bottle	-10.3257
▁breath	-10.3257
▁kingdom	-10.3257
▁genetic	-10.3257
▁proud	-10.3257
▁65	-10.326
▁restriction	-10.3261
▁fit	-10.3264
▁religious	-10.3268
▁fled	-10.3273
▁machine	-10.3275
▁ca	-10.3277
▁cow	-10.3283
▁dub	-10.329
▁mont	-10.3291
▁rescuer	-10.3305
▁43	-10.3311
▁path	-10.3313
▁hung	-10.3313
ari	-10.3316
▁signal	-10.332
▁roman	-10.3328
most	-10.3337
▁bab	-10.335
▁surviv	-10.335
lor	-10.3357
▁multi	-10.3365
▁cable	-10.3371
▁youth	-10.3388
▁clashe	-10.3401
▁provinc	-10.3404
▁offering	-10.3413
▁ray	-10.3416
lie	-10.3422
▁sw	-10.3452
▁heat	-10.3455
tion	-10.3468
ican	-10.3474
nivers	-10.3483
▁erupt	-10.3494
▁robot	-10.3497
cient	-10.35
▁ecuador	-10.35
▁vietnam	-10.35
▁capacit	-10.35
▁devastat	-10.35
▁colleague	-10.35
▁sector	-10.3503
▁label	-10.3505
▁campus	-10.3506
v	-10.3508
▁chile	-10.3511
▁atmospher	-10.3512
▁bay	-10.3513
▁assistant	-10.3514
▁weaken	-10.3515
▁whale	-10.3517
▁yo	-10.3522
▁soar	-10.3525
▁sister	-10.3527
▁laho	-10.3532
haps	-10.359
▁sports	-10.3591
▁sit	-10.3593
▁54	-10.3602
erson	-10.3652
▁encourage	-10.3659
▁gay	-10.3663
▁margin	-10.3663
ad	-10.3668
▁abu	-10.3668
▁recognize	-10.3712
▁organiz	-10.3717
▁buri	-10.3723
▁assist	-10.3727
▁profit	-10.3729
▁steve	-10.3736
▁dismiss	-10.3738
▁recommend	-10.3746
▁client	-10.375
▁convoy	-10.375
▁degree	-10.375
▁exact	-10.375
▁temperature	-10.375
▁sweet	-10.375
▁ballot	-10.375
▁boyfriend	-10.375
▁channel	-10.375
▁numer	-10.3751
▁remember	-10.3751
▁neck	-10.3751
▁sunni	-10.3751
ensive	-10.3752
▁commitment	-10.3752
ntagon	-10.3754
▁loan	-10.3754
▁teenager	-10.3759
▁complaint	-10.3764
▁choose	-10.3772
▁calm	-10.3776
▁chain	-10.3785
▁singer	-10.3806
▁divers	-10.3807
▁notice	-10.3812
▁painting	-10.3814
▁kar	-10.3815
▁probe	-10.3819
▁si	-10.3821
▁touris	-10.3835
▁beck	-10.3835
▁putt	-10.3837
ino	-10.384
jad	-10.384
enko	-10.3846
▁liver	-10.3849
▁closer	-10.3871
▁pott	-10.3879
light	-10.3894
lo	-10.3919
▁manch	-10.3937
▁ski	-10.3943
▁damag	-10.3948
▁hot	-10.3959
▁symbol	-10.397
que	-10.3977
▁malaysia	-10.3978
▁confiden	-10.3995
▁identify	-10.4007
▁purpose	-10.4007
▁stretch	-10.4007
▁hawaii	-10.4007
▁apple	-10.4007
▁separatist	-10.4007
▁emission	-10.4007
▁enrich	-10.4008
▁dramatic	-10.4008
vili	-10.4008
▁charit	-10.4009
▁tru	-10.401
▁runoff	-10.401
▁delta	-10.401
▁grant	-10.401
▁exercise	-10.4015
▁ceo	-10.4026
▁foundation	-10.4061
▁connect	-10.4062
▁rush	-10.4062
ev	-10.4072
▁br	-10.4084
bed	-10.4106
▁hang	-10.411
aid	-10.4122
▁shock	-10.4142
obi	-10.4143
▁pregnan	-10.4145
ept	-10.4148
▁peru	-10.4156
▁survive	-10.4157
▁isolat	-10.416
▁bright	-10.4164
attle	-10.417
▁cultur	-10.4183
▁53	-10.4205
mobile	-10.4211
hai	-10.4212
▁founder	-10.4213
abilit	-10.4219
▁banks	-10.4239
▁osa	-10.424
▁unclea	-10.4251
▁roll	-10.4256
▁afford	-10.4262
▁presiden	-10.4264
▁print	-10.4265
▁alcohol	-10.4267
▁diplomat	-10.4269
▁jew	-10.427
▁advantage	-10.427
▁alternative	-10.427
▁barcelon	-10.427
▁preliminar	-10.427
▁recession	-10.427
▁wildlife	-10.427
▁diamond	-10.427
▁illness	-10.4271
▁arsenal	-10.4271
▁191	-10.4273
▁peak	-10.4274
▁trapp	-10.4274
▁62	-10.4275
▁highlight	-10.4275
▁infection	-10.4276
▁tiger	-10.4277
fur	-10.4278
ball	-10.4278
▁santa	-10.4279
▁mix	-10.428
▁prepar	-10.428
▁internal	-10.4298
▁arrival	-10.4299
▁chemical	-10.4305
▁mis	-10.4312
▁mouth	-10.4318
▁package	-10.4328
▁berlin	-10.4329
fare	-10.4339
▁structure	-10.4347
▁acknowledg	-10.436
▁emerg	-10.4388
▁struggle	-10.4395
▁restore	-10.44
tra	-10.4416
▁flu	-10.442
ate	-10.442
▁bone	-10.4433
tt	-10.4435
▁statu	-10.4447
bus	-10.4454
▁glass	-10.4476
dev	-10.4478
▁books	-10.4485
▁mor	-10.449
▁escape	-10.449
▁hospitaliz	-10.4493
▁spring	-10.4495
mar	-10.4498
▁aide	-10.453
▁detect	-10.4532
▁gang	-10.4534
▁disappear	-10.4539
▁landslide	-10.454
▁typical	-10.454
▁quiet	-10.454
▁throw	-10.4541
▁speculat	-10.4541
▁cheap	-10.4541
▁temple	-10.4542
▁knee	-10.4543
▁urban	-10.4543
▁urani	-10.4548
ul	-10.4548
▁rank	-10.4548
ting	-10.456
▁meh	-10.4569
mont	-10.4572
istic	-10.4572
▁angr	-10.4574
▁participate	-10.4589
▁pu	-10.459
▁stepp	-10.459
▁lu	-10.46
▁photos	-10.4606
▁feeling	-10.4634
▁speaker	-10.4637
un	-10.4643
▁lung	-10.4644
ual	-10.4649
▁tire	-10.4651
der	-10.468
▁self	-10.4743
inches	-10.4755
▁sri	-10.4764
▁matche	-10.4772
▁forc	-10.4779
▁violat	-10.4782
▁patrol	-10.4782
▁engine	-10.4782
ang	-10.4798
▁simple	-10.4802
▁mahmoud	-10.4818
▁unveil	-10.4818
▁reconciliat	-10.4818
▁rallie	-10.4818
▁yemen	-10.4818
▁dump	-10.4818
▁serving	-10.4818
▁technical	-10.4818
▁inflation	-10.4818
▁regulation	-10.4819
▁motor	-10.4819
▁assessment	-10.4819
▁detonat	-10.4819
▁castro	-10.4819
▁acre	-10.4819
▁jack	-10.482
▁sustain	-10.4821
▁select	-10.4822
▁extremist	-10.4822
▁wonder	-10.4822
▁pitt	-10.4827
▁abilit	-10.483
▁strengthen	-10.4836
▁asp	-10.4857
▁outrage	-10.4869
fall	-10.4873
▁yi	-10.4874
court	-10.4875
▁donor	-10.4881
iana	-10.4882
surance	-10.4885
ella	-10.4904
▁59	-10.4919
ground	-10.4922
▁ear	-10.4929
▁table	-10.4931
▁sponsor	-10.4953
▁pho	-10.4958
▁eyes	-10.4961
▁constitutional	-10.4975
▁il	-10.4988
ab	-10.4993
▁maker	-10.502
▁eat	-10.5026
king	-10.5028
▁ten	-10.5029
▁ram	-10.5031
▁promote	-10.504
red	-10.5047
▁hunt	-10.5048
▁infect	-10.5097
itarian	-10.5102
▁astronaut	-10.5104
▁compound	-10.5104
▁knowledge	-10.5104
▁striking	-10.5104
▁succeed	-10.5104
▁vladimir	-10.5104
▁sudden	-10.5104
▁scandal	-10.5104
▁recall	-10.5104
▁faith	-10.5104
▁technique	-10.5104
▁lawsuit	-10.5104
▁editor	-10.5104
▁creature	-10.5104
▁bullet	-10.5104
▁football	-10.5105
acco	-10.5106
▁nair	-10.5108
▁reaction	-10.5109
▁boom	-10.5112
▁wins	-10.5113
▁switch	-10.5113
▁reading	-10.5115
▁resume	-10.5118
▁shang	-10.5118
htt	-10.512
▁zar	-10.5121
▁bond	-10.5122
▁1994	-10.5123
▁49	-10.5126
▁evacuat	-10.5129
sul	-10.513
▁palm	-10.513
▁lt	-10.5134
▁twin	-10.5137
▁beef	-10.5145
▁escap	-10.5159
▁fo	-10.5173
▁fatal	-10.5182
ud	-10.5207
▁surge	-10.5213
▁95	-10.5224
▁smith	-10.5242
▁pacifi	-10.5247
▁chi	-10.526
ped	-10.5264
omic	-10.5268
jo	-10.5273
nix	-10.5299
▁landing	-10.5327
▁col	-10.5362
eating	-10.5374
dari	-10.5396
▁maxim	-10.5397
▁fashion	-10.5398
▁delegation	-10.5398
▁evolution	-10.5398
▁length	-10.5398
▁unusual	-10.5398
▁currenc	-10.5398
▁salmon	-10.5398
▁routine	-10.5398
precedent	-10.5398
▁strain	-10.5398
hood	-10.54
▁distance	-10.54
▁gallon	-10.5401
▁charles	-10.5401
▁section	-10.5403
▁meat	-10.5403
▁squad	-10.5413
▁195	-10.5413
▁shoe	-10.5423
▁offender	-10.5429
stein	-10.5431
▁explain	-10.5436
▁professional	-10.5442
▁cuban	-10.5444
▁plate	-10.5454
▁gree	-10.5464
pover	-10.5466
witz	-10.5467
▁lin	-10.5473
▁du	-10.5475
ark	-10.5479
▁listen	-10.5485
▁clon	-10.5495
▁fat	-10.5505
water	-10.5509
ap	-10.5531
ke	-10.5533
▁william	-10.5535
ze	-10.5542
▁cb	-10.5546
▁moo	-10.5557
▁settle	-10.5558
▁lind	-10.5565
ied	-10.5571
▁clo	-10.5581
▁marked	-10.5584
▁kidnapp	-10.5585
▁freed	-10.559
▁th	-10.5598
lady	-10.5612
▁sport	-10.5627
ural	-10.5636
▁organ	-10.5645
▁mart	-10.5649
▁guide	-10.5677
seas	-10.5689
▁holy	-10.569
▁gunm	-10.5692
▁govern	-10.5696
▁budget	-10.5701
▁divorce	-10.5701
▁glacier	-10.5701
▁kuwait	-10.5701
▁reflect	-10.5701
▁revenue	-10.5701
▁invasion	-10.5701
▁method	-10.5701
▁favorite	-10.5701
▁desert	-10.5701
▁income	-10.5702
▁jungle	-10.5702
▁stole	-10.5702
▁coup	-10.5703
▁volcano	-10.5703
▁controversial	-10.5703
▁asset	-10.5705
▁shark	-10.5706
▁corner	-10.5707
▁economist	-10.5708
▁defendant	-10.5709
▁firefighter	-10.571
▁worry	-10.5712
▁laurea	-10.5713
▁sort	-10.5715
▁digital	-10.5716
▁jak	-10.5718
▁skill	-10.5721
wise	-10.5731
▁intens	-10.5733
▁install	-10.5737
▁pair	-10.5739
▁teh	-10.5741
▁compete	-10.5741
▁foreigner	-10.5742
▁min	-10.5743
▁none	-10.5745
▁cheer	-10.5747
▁yard	-10.5748
▁beating	-10.5749
▁56	-10.5751
live	-10.5757
▁tob	-10.5774
ansa	-10.5777
▁skin	-10.5795
▁wine	-10.5804
arachi	-10.5805
mi	-10.5831
▁feed	-10.5835
book	-10.5839
lein	-10.5842
soo	-10.5847
▁handle	-10.587
▁lewi	-10.5872
j	-10.5872
ja	-10.5891
ow	-10.5902
▁ahmadi	-10.5914
▁shape	-10.5923
▁argentin	-10.5926
▁expens	-10.5929
▁wage	-10.5931
beth	-10.5938
▁bak	-10.5956
ru	-10.5956
▁fed	-10.5967
ties	-10.5981
▁taxe	-10.5995
oil	-10.5997
▁hol	-10.5998
▁except	-10.6006
▁tank	-10.6009
▁knock	-10.601
▁250	-10.6011
▁conversation	-10.6013
▁sheikh	-10.6013
▁ultimate	-10.6013
▁michel	-10.6013
▁vacation	-10.6013
▁function	-10.6013
▁captain	-10.6014
▁variet	-10.6014
▁await	-10.6014
▁egyptian	-10.6015
▁prett	-10.6015
▁reactor	-10.6016
▁monk	-10.6018
nature	-10.6019
▁edition	-10.602
plus	-10.6021
▁vast	-10.6024
▁renew	-10.6025
erdog	-10.6031
▁69	-10.6036
▁vat	-10.6045
▁bell	-10.6055
▁tee	-10.6062
▁harm	-10.6067
put	-10.6089
▁row	-10.609
▁waters	-10.6096
mo	-10.6101
▁maria	-10.6111
tube	-10.6128
▁declare	-10.6129
ain	-10.6137
▁investigate	-10.6141
▁trend	-10.6161
▁coordinat	-10.6177
▁wealth	-10.6196
▁ark	-10.6198
▁wood	-10.6201
▁hero	-10.6211
▁gi	-10.622
cut	-10.6243
▁mate	-10.6255
▁urge	-10.6256
▁lay	-10.6259
▁attacker	-10.626
llah	-10.6262
we	-10.6271
losing	-10.6275
▁mer	-10.6279
▁rafa	-10.6284
▁hat	-10.6287
▁improv	-10.6287
▁fin	-10.6289
▁shopp	-10.6299
▁petr	-10.6299
ir	-10.6305
hud	-10.6306
▁restrict	-10.6329
ippi	-10.633
▁engag	-10.6334
▁anonym	-10.6334
▁surveill	-10.6336
▁aftershock	-10.6336
▁categor	-10.6336
▁journey	-10.6336
▁muscle	-10.6336
▁pilgrim	-10.6336
▁convert	-10.6336
▁identit	-10.6336
▁cartoon	-10.6336
▁strict	-10.6336
akash	-10.6337
▁gulf	-10.6337
▁elder	-10.6337
▁championship	-10.6337
▁cool	-10.6338
▁innocent	-10.6339
▁flee	-10.634
▁inspector	-10.6341
▁pattern	-10.6344
▁lo	-10.6344
▁withdrawal	-10.6352
▁dissident	-10.6352
▁cafe	-10.6354
▁ride	-10.6356
▁gap	-10.6359
▁gathering	-10.6359
▁institution	-10.6368
▁oust	-10.637
▁overwhelming	-10.637
▁nominat	-10.6374
▁serbian	-10.638
▁settlement	-10.6383
▁mississ	-10.6384
cal	-10.6389
▁anger	-10.6394
▁prop	-10.6402
▁balance	-10.6406
▁cooper	-10.6406
▁ker	-10.6413
ik	-10.6416
▁stabili	-10.6416
mate	-10.642
▁scot	-10.6428
▁rang	-10.644
athrow	-10.6452
▁kidnapping	-10.6467
ure	-10.647
▁diet	-10.6487
▁debr	-10.6512
▁restor	-10.6513
aq	-10.6534
▁jim	-10.6538
▁shore	-10.6541
▁acknowledge	-10.6556
▁sha	-10.6556
▁ni	-10.6569
▁celebrat	-10.6573
▁belong	-10.6576
▁spy	-10.6578
▁trader	-10.6587
▁crossing	-10.66
ira	-10.6601
▁participat	-10.661
▁photo	-10.6614
▁manag	-10.6627
▁91	-10.6628
▁depend	-10.6631
▁lanka	-10.6638
ize	-10.664
▁worse	-10.6646
▁strength	-10.6647
ix	-10.6651
▁priva	-10.6667
▁buddhist	-10.6669
▁egg	-10.6669
▁envoy	-10.6669
▁permanent	-10.6669
▁procedure	-10.6669
▁scientific	-10.6669
▁vaccine	-10.6669
▁venue	-10.6669
▁sweep	-10.6669
▁monarch	-10.6669
▁debut	-10.6669
▁ordinar	-10.6669
▁toxic	-10.667
▁thomas	-10.667
▁loyal	-10.667
▁dinner	-10.6672
▁debt	-10.6674
▁deadline	-10.6674
▁negotiator	-10.6674
▁memorial	-10.6675
▁corporation	-10.6675
▁lord	-10.6676
ph	-10.6678
▁slipp	-10.6678
▁native	-10.6686
▁wedding	-10.6686
opec	-10.669
kok	-10.6692
▁fortune	-10.6693
▁kent	-10.6695
▁negotiate	-10.6698
▁replac	-10.6711
indi	-10.6716
▁collection	-10.6721
▁ab	-10.674
▁las	-10.6749
harto	-10.6754
▁soc	-10.6754
ron	-10.6757
▁complicat	-10.6758
▁haven	-10.677
gh	-10.6772
▁blaze	-10.6774
keeper	-10.678
▁pr	-10.6783
▁priorit	-10.6786
▁frame	-10.6806
▁pursu	-10.681
well	-10.6818
▁cloth	-10.6833
▁ramo	-10.6844
▁cd	-10.6852
▁master	-10.686
▁boe	-10.6878
sean	-10.6878
▁henr	-10.6881
▁stem	-10.6889
▁tech	-10.6906
ence	-10.691
▁shoot	-10.6917
broad	-10.6919
▁purchase	-10.6933
▁swed	-10.6935
▁battl	-10.6943
hattan	-10.6945
▁oppos	-10.6947
▁champion	-10.6947
▁patric	-10.6955
▁wish	-10.6956
ted	-10.6956
▁stalin	-10.6959
▁heads	-10.6967
ick	-10.697
▁chao	-10.6975
iya	-10.6982
▁divid	-10.6982
▁pet	-10.6983
▁99	-10.699
▁lie	-10.6991
▁collect	-10.7
▁grave	-10.7005
agan	-10.701
▁detention	-10.7014
▁luxur	-10.7014
▁mccorm	-10.7014
▁transplant	-10.7014
▁guarantee	-10.7014
▁concert	-10.7014
▁familiar	-10.7014
▁dalla	-10.7014
▁girlfriend	-10.7014
▁toilet	-10.7014
▁libert	-10.7014
▁stephen	-10.7014
▁reduction	-10.7015
▁reference	-10.7015
▁disappearance	-10.7016
▁jackson	-10.7017
▁rawal	-10.7017
▁fix	-10.7017
▁auto	-10.7018
▁carlo	-10.702
▁bull	-10.7023
▁railway	-10.7026
▁han	-10.7033
▁inch	-10.7039
ci	-10.705
▁musical	-10.7053
▁steven	-10.7054
▁hide	-10.7064
▁runway	-10.7067
▁merc	-10.7068
▁stands	-10.7077
▁140	-10.7079
▁ok	-10.7092
▁celebrate	-10.7108
▁lock	-10.7112
▁historical	-10.7115
▁react	-10.7117
omar	-10.7118
▁oppose	-10.7132
▁cult	-10.7136
▁mur	-10.7139
▁mon	-10.7141
va	-10.7143
bar	-10.7147
erland	-10.7148
▁operate	-10.7148
lanta	-10.7162
▁cre	-10.7171
ersey	-10.7184
▁proper	-10.7185
olar	-10.7193
▁guy	-10.7198
▁charg	-10.7208
▁ti	-10.7211
iego	-10.7211
▁ag	-10.7212
eath	-10.7213
▁storie	-10.7214
dc	-10.7216
▁sch	-10.722
▁58	-10.7234
lin	-10.7255
craft	-10.7268
▁fox	-10.7282
arra	-10.7283
▁op	-10.7285
cute	-10.7287
ou	-10.7329
▁expos	-10.7331
▁treasur	-10.7349
▁writing	-10.7349
▁cons	-10.736
▁fernand	-10.7362
▁truth	-10.7368
▁deploy	-10.7368
▁weigh	-10.7369
▁abdul	-10.737
▁giuli	-10.7371
▁unfortunate	-10.7371
▁circumstance	-10.7371
▁crocodile	-10.7371
▁experiment	-10.7371
▁mortgage	-10.7371
▁emirate	-10.7371
▁cleric	-10.7371
▁clinic	-10.7371
▁panama	-10.7371
▁inquest	-10.7372
▁chels	-10.7372
▁monkey	-10.7372
▁drama	-10.7372
▁wireless	-10.7373
▁brazilian	-10.7373
viel	-10.7373
▁endorsement	-10.7374
▁vega	-10.7374
▁tropic	-10.7374
▁iron	-10.7377
▁eliza	-10.7378
▁garden	-10.7381
▁retir	-10.7382
ll	-10.7384
▁medal	-10.7392
▁cargo	-10.7393
▁approve	-10.7395
▁copy	-10.7396
kin	-10.7402
▁86	-10.7403
ni	-10.7405
▁luck	-10.741
ral	-10.7414
▁viewer	-10.7435
▁corporat	-10.7439
pl	-10.7447
▁striker	-10.7452
▁par	-10.7453
▁weak	-10.747
▁string	-10.7472
▁authoriz	-10.7501
▁hyun	-10.7509
▁120	-10.7511
ization	-10.7517
▁bound	-10.754
▁med	-10.7585
▁laws	-10.7606
▁x	-10.7609
he	-10.7617
▁villa	-10.7625
▁mal	-10.7627
gue	-10.7636
ux	-10.7663
arta	-10.7665
▁ku	-10.767
▁mous	-10.7686
enna	-10.7693
▁overcom	-10.7702
him	-10.7705
▁uni	-10.7709
▁dominat	-10.7718
lain	-10.7726
▁impose	-10.773
▁ru	-10.7734
▁mel	-10.7736
▁bureau	-10.7742
▁caution	-10.7742
▁immigrat	-10.7742
▁relax	-10.7742
▁uniform	-10.7742
▁veteran	-10.7742
▁clinch	-10.7742
▁denounc	-10.7742
▁cigarette	-10.7742
▁drove	-10.7742
▁tennesse	-10.7742
▁laptop	-10.7742
▁rumor	-10.7742
▁album	-10.7742
▁orlean	-10.7742
▁stall	-10.7742
▁element	-10.7742
▁cease	-10.7742
▁shirt	-10.7742
▁priest	-10.7743
▁bitter	-10.7743
▁motion	-10.7745
▁sailor	-10.7746
▁barrier	-10.7746
▁tower	-10.7747
▁leftist	-10.7753
▁indication	-10.7753
▁mourn	-10.7754
▁lowest	-10.7755
▁note	-10.7756
▁reduc	-10.7757
▁mill	-10.7761
▁deployment	-10.7763
▁requir	-10.7764
▁expectation	-10.7765
▁61	-10.777
▁brad	-10.7779
▁gmt	-10.7787
▁66	-10.7788
▁firing	-10.7792
▁odd	-10.7793
▁retailer	-10.7793
▁yes	-10.7815
ig	-10.7831
fp	-10.7835
▁aware	-10.7839
▁pol	-10.7839
▁ge	-10.784
▁hir	-10.7841
ement	-10.7851
▁referend	-10.7852
▁stag	-10.7855
▁root	-10.7858
▁generate	-10.7861
▁pan	-10.787
▁handl	-10.7881
▁mr	-10.7881
▁rockets	-10.7886
▁abus	-10.7887
col	-10.7889
▁ease	-10.7896
han	-10.791
▁tool	-10.7912
▁hug	-10.7924
▁hasn	-10.7931
betan	-10.7936
ah	-10.7941
older	-10.7943
▁anticipat	-10.795
her	-10.7955
ification	-10.7962
▁lui	-10.7967
▁demonstrate	-10.7973
ut	-10.7977
ok	-10.7981
▁excit	-10.7983
▁colli	-10.7993
▁citi	-10.8001
▁argue	-10.8003
▁flower	-10.8005
▁habitat	-10.8017
▁pleas	-10.8019
▁temporar	-10.8021
▁id	-10.8024
▁qu	-10.8034
ef	-10.8061
▁custom	-10.8062
▁torture	-10.8062
▁chip	-10.8076
▁consult	-10.8082
dish	-10.8091
af	-10.8105
look	-10.8107
▁disrupt	-10.812
▁assassinat	-10.8121
▁tip	-10.8124
▁engage	-10.8125
▁dinosaur	-10.8126
▁dispatch	-10.8126
▁guerrilla	-10.8126
▁immigrant	-10.8126
▁implement	-10.8126
▁multiple	-10.8126
▁surrender	-10.8126
▁volunteer	-10.8126
▁googl	-10.8126
▁obvious	-10.8126
▁ambitio	-10.8126
▁clark	-10.8126
▁conservation	-10.8126
▁steel	-10.8126
▁terminal	-10.8127
▁radical	-10.8127
▁beaut	-10.8127
▁gibbon	-10.8128
▁upset	-10.8128
▁torre	-10.8128
▁impossibl	-10.8128
edict	-10.8129
▁petrole	-10.8129
▁batter	-10.8129
▁solid	-10.813
▁amnes	-10.813
▁moga	-10.8131
▁1950	-10.8135
▁federation	-10.8135
▁shout	-10.8136
▁hopeful	-10.8136
▁mention	-10.8138
▁operator	-10.8143
▁branch	-10.8146
380	-10.8149
▁dow	-10.8151
estate	-10.8155
ants	-10.8158
nc	-10.8159
▁transition	-10.8162
▁au	-10.8163
▁pos	-10.8163
▁rudd	-10.8165
▁ash	-10.8167
▁judicia	-10.8168
▁andrew	-10.8173
▁failing	-10.8191
nhap	-10.8193
▁wolf	-10.8214
▁ire	-10.8222
▁je	-10.8225
▁classic	-10.823
▁argu	-10.8249
ver	-10.8251
▁soil	-10.8258
dna	-10.8267
▁joe	-10.8267
▁chase	-10.8268
▁via	-10.8269
che	-10.8277
▁conclud	-10.8277
▁900	-10.828
mond	-10.8283
val	-10.8291
standing	-10.8303
▁ranking	-10.8304
▁rep	-10.8311
▁cutt	-10.8316
▁follower	-10.8318
▁bri	-10.835
▁featur	-10.8369
▁earning	-10.8372
llo	-10.8383
bu	-10.8401
im	-10.8401
▁hindu	-10.8403
▁hid	-10.8419
▁endors	-10.8422
▁tradition	-10.8424
▁fun	-10.8435
▁gene	-10.8435
ging	-10.8449
▁write	-10.8456
▁guil	-10.8462
▁63	-10.8463
ional	-10.8466
▁invit	-10.8467
▁shara	-10.8471
▁whit	-10.8475
▁negotiat	-10.8479
▁consum	-10.8484
ongo	-10.8488
▁pitch	-10.85
▁pres	-10.85
stream	-10.8506
rigue	-10.8516
▁apolog	-10.8523
abul	-10.8523
▁appoint	-10.8524
▁apart	-10.8524
▁attribut	-10.8526
▁campbell	-10.8526
▁hybrid	-10.8526
▁principle	-10.8526
▁quarterfinal	-10.8526
▁bottom	-10.8526
▁autonom	-10.8526
▁mosque	-10.8526
▁antarctic	-10.8526
▁endanger	-10.8526
▁confess	-10.8526
▁orange	-10.8526
▁conclusion	-10.8526
▁constant	-10.8526
▁escalat	-10.8526
▁gift	-10.8527
▁absolute	-10.8527
▁flash	-10.8528
▁float	-10.8528
▁specialist	-10.8531
▁contrast	-10.8534
▁evacuation	-10.8537
▁bowl	-10.854
▁shell	-10.8541
▁confident	-10.8542
▁eric	-10.8543
▁apologiz	-10.8544
▁argument	-10.8549
▁introduc	-10.8553
▁carac	-10.8554
▁85	-10.8558
▁plead	-10.8563
▁meaning	-10.8565
▁combin	-10.8566
▁unknown	-10.8569
▁contribute	-10.8569
▁surg	-10.857
▁clothe	-10.8572
▁malaysian	-10.8572
▁observer	-10.8573
room	-10.8574
upper	-10.8574
▁dry	-10.858
▁stroke	-10.8581
▁wheel	-10.8581
▁issu	-10.8583
▁wire	-10.8587
▁pace	-10.8589
▁rio	-10.859
▁banner	-10.8596
▁dia	-10.8598
▁grew	-10.8618
▁photographer	-10.863
▁shipp	-10.8634
▁fri	-10.864
▁avi	-10.8647
▁kissing	-10.8647
▁kath	-10.8662
▁tim	-10.8667
▁achieve	-10.8671
shi	-10.8674
▁pole	-10.868
▁fever	-10.8682
▁nak	-10.8686
▁hawk	-10.869
▁clash	-10.8694
▁shap	-10.8705
cef	-10.8708
eva	-10.8715
▁bacteria	-10.8726
▁kiss	-10.8758
▁lion	-10.8765
ford	-10.8769
▁wal	-10.877
ture	-10.877
▁owners	-10.8773
nch	-10.8776
▁dat	-10.8805
au	-10.881
▁minorit	-10.8814
itzer	-10.8821
▁surround	-10.8822
het	-10.8825
25	-10.8852
ago	-10.8857
tter	-10.8864
▁spin	-10.8882
▁moral	-10.8897
oney	-10.8902
▁ze	-10.8912
▁austria	-10.8913
▁liter	-10.8913
▁wash	-10.8914
pov	-10.8925
▁abduct	-10.8936
▁invest	-10.8937
▁spill	-10.8939
▁aggressive	-10.8943
delphi	-10.8943
▁benchmark	-10.8943
▁genocid	-10.8943
▁mccann	-10.8943
▁negative	-10.8943
▁semifinal	-10.8943
▁testimon	-10.8943
▁coincide	-10.8943
▁brutal	-10.8943
▁yellow	-10.8943
▁courage	-10.8943
▁displac	-10.8943
▁cloud	-10.8943
▁liquid	-10.8943
▁landscape	-10.8943
▁agenda	-10.8944
▁clock	-10.8944
▁steal	-10.8944
▁confus	-10.8945
▁mask	-10.8946
▁careful	-10.8949
▁fierce	-10.8949
▁1960	-10.895
▁pursue	-10.8951
▁novel	-10.8952
▁realize	-10.8953
▁closing	-10.8954
▁ethiopian	-10.8957
▁payment	-10.8961
▁newly	-10.8962
▁portion	-10.8962
▁exploit	-10.8964
▁imp	-10.8967
▁prayer	-10.8967
▁correct	-10.8969
amil	-10.8972
▁accusation	-10.8972
▁impo	-10.8975
▁greet	-10.8977
▁chen	-10.8979
▁oversee	-10.8988
▁chest	-10.9015
▁complet	-10.9017
▁tomb	-10.9017
▁sad	-10.9024
ord	-10.9032
▁imagine	-10.9035
erto	-10.904
▁copie	-10.9043
▁peacekeep	-10.9044
more	-10.9051
▁revolution	-10.9055
therland	-10.9057
▁roof	-10.9075
▁atlantic	-10.9079
▁84	-10.9092
loha	-10.9093
▁spott	-10.9095
▁scar	-10.91
uri	-10.91
▁adam	-10.9108
▁prospect	-10.9113
▁tackle	-10.9119
▁sick	-10.9125
▁mental	-10.913
rowl	-10.914
yama	-10.9144
▁refuge	-10.9147
▁str	-10.9151
iscon	-10.916
▁hitt	-10.9187
▁solve	-10.9203
▁sensitiv	-10.9204
▁plu	-10.9214
▁130	-10.9228
▁ph	-10.9232
▁mc	-10.9252
▁continent	-10.9267
▁load	-10.9285
▁mom	-10.9286
▁68	-10.9289
ila	-10.9292
them	-10.9293
▁airway	-10.9296
▁chris	-10.931
▁mari	-10.9312
▁retail	-10.9317
core	-10.933
▁marks	-10.9334
ehouse	-10.9351
▁gamb	-10.9354
ider	-10.9354
cular	-10.9355
▁basi	-10.9364
▁industri	-10.9366
▁sect	-10.9367
ucky	-10.9368
vic	-10.9368
▁latin	-10.9373
▁flags	-10.9375
▁polar	-10.9375
▁serb	-10.9377
▁asteroid	-10.9378
▁intimidat	-10.9378
▁liberal	-10.9378
▁participant	-10.9378
▁precaution	-10.9378
▁suspension	-10.9378
▁suspicion	-10.9378
▁dolphin	-10.9378
rbach	-10.9378
▁shareholder	-10.9378
▁occupation	-10.9378
▁prosper	-10.9378
▁offense	-10.9378
▁hurri	-10.9378
▁uncover	-10.9379
▁false	-10.9379
▁twenty	-10.9379
▁harsh	-10.9379
▁panda	-10.938
▁smash	-10.938
▁breed	-10.9381
▁frontier	-10.9382
▁reward	-10.9383
▁detainee	-10.9383
▁phila	-10.939
▁spe	-10.9391
▁ways	-10.9392
itting	-10.9392
▁assure	-10.9394
▁stan	-10.9397
▁drought	-10.9398
▁conviction	-10.9401
▁polan	-10.9407
▁slamm	-10.9409
zai	-10.9414
▁worsen	-10.942
ega	-10.9422
cantil	-10.9424
▁riding	-10.9436
born	-10.9443
▁rent	-10.9445
▁drawing	-10.9445
▁cart	-10.9453
▁icon	-10.9454
▁deny	-10.9459
▁terr	-10.9459
ank	-10.9461
▁convince	-10.9461
▁neil	-10.9466
math	-10.9474
▁tun	-10.9474
▁inde	-10.9476
peace	-10.9481
▁manufacturer	-10.9482
▁manage	-10.9483
▁gray	-10.949
▁whal	-10.9493
say	-10.9526
▁statue	-10.9531
▁encourag	-10.9541
▁realit	-10.9542
▁emp	-10.9544
▁bio	-10.9555
▁univers	-10.9557
▁hum	-10.9566
ose	-10.9581
▁testif	-10.9587
van	-10.9588
min	-10.959
ward	-10.959
imed	-10.9598
▁bosto	-10.9606
▁mountains	-10.9613
▁hy	-10.9619
▁intention	-10.9624
titude	-10.9638
▁towns	-10.9662
ette	-10.9664
▁fame	-10.9664
tah	-10.9684
ngue	-10.9713
dam	-10.9739
▁wale	-10.9741
▁caucus	-10.9747
▁ferr	-10.9799
▁grab	-10.9809
▁sacr	-10.9809
aware	-10.9809
▁killer	-10.981
▁strip	-10.981
rico	-10.9814
▁undermine	-10.9826
▁permissi	-10.9828
▁dictator	-10.9832
▁imprison	-10.9832
▁disorder	-10.9832
▁jordan	-10.9832
▁laute	-10.9832
▁recruit	-10.9832
▁recycl	-10.9832
▁skull	-10.9832
▁sovereign	-10.9832
▁submit	-10.9832
▁tissue	-10.9832
▁typhoon	-10.9832
▁wreck	-10.9832
▁fulfill	-10.9832
▁funeral	-10.9832
▁protein	-10.9832
munition	-10.9832
▁excess	-10.9832
▁warrant	-10.9832
▁anchor	-10.9832
▁dawn	-10.9832
▁dedicat	-10.9833
▁snake	-10.9833
▁obligation	-10.9833
▁tunnel	-10.9833
▁initiative	-10.9833
▁inquir	-10.9833
▁calculat	-10.9834
▁roger	-10.9834
▁phase	-10.9834
▁dementi	-10.9834
▁deteriorat	-10.9834
ioxid	-10.9835
▁mini	-10.9835
▁minus	-10.9836
▁coca	-10.9837
▁persist	-10.9837
▁jeff	-10.9838
▁feb	-10.9838
▁thick	-10.984
▁substantial	-10.9842
▁charter	-10.9843
▁forget	-10.9844
▁trace	-10.9844
▁congo	-10.985
▁shin	-10.985
▁81	-10.9854
▁legitimate	-10.9856
▁98	-10.9858
waz	-10.9859
ison	-10.9867
▁mexican	-10.9868
gender	-10.9874
▁rad	-10.9884
aeus	-10.9885
the	-10.9906
▁hunter	-10.9907
▁prepare	-10.9917
ula	-10.9921
▁proceeding	-10.9922
▁indonesian	-10.9926
▁prais	-10.994
▁bolt	-10.9941
▁antoni	-10.9956
▁ahmad	-10.998
▁ja	-10.998
▁dust	-10.9983
▁ke	-10.9987
▁resistan	-10.9993
▁pal	-10.9996
east	-11.0012
▁rap	-11.0012
▁direction	-11.0014
▁pointed	-11.0022
fi	-11.0022
sky	-11.0031
ouri	-11.0037
▁kh	-11.0038
ac	-11.004
▁sin	-11.0041
hal	-11.0084
mon	-11.0085
▁desire	-11.0089
▁seal	-11.009
▁193	-11.0116
▁designate	-11.0123
▁achiev	-11.0134
▁primari	-11.0137
▁optimis	-11.0138
▁zoe	-11.0143
▁def	-11.0171
▁plac	-11.0174
kara	-11.0184
ulous	-11.0208
▁fisherm	-11.0218
▁paint	-11.0231
sus	-11.0232
▁partners	-11.0243
▁sir	-11.0249
pel	-11.0253
▁metropoli	-11.0265
▁moham	-11.0274
▁82	-11.0279
▁unre	-11.0298
▁fr	-11.03
▁wi	-11.0303
▁controvers	-11.0305
▁chicken	-11.0308
▁embarrass	-11.0308
▁extraordinar	-11.0308
▁kuznetsov	-11.0308
▁mirror	-11.0308
▁platform	-11.0308
▁rifle	-11.0308
▁suspicious	-11.0308
▁transform	-11.0308
▁depict	-11.0308
▁rebuild	-11.0308
▁reiterat	-11.0308
▁essential	-11.0308
▁departure	-11.0309
▁embryo	-11.0309
▁haiti	-11.0309
▁pipeline	-11.0309
▁bodyguard	-11.0309
▁thirt	-11.0309
▁entrance	-11.0309
▁concede	-11.0309
▁attach	-11.0309
▁postpone	-11.0309
▁stuff	-11.0309
▁arrangement	-11.031
▁household	-11.031
▁cyber	-11.031
▁download	-11.0311
▁greek	-11.0311
▁strand	-11.0311
▁apply	-11.0311
▁insult	-11.0311
▁confrontation	-11.0312
▁belgi	-11.0313
▁prominent	-11.0313
▁slump	-11.0314
▁crown	-11.0315
▁kidney	-11.0315
▁disruption	-11.0317
▁strategic	-11.0318
▁gross	-11.0319
▁oz	-11.0326
▁timor	-11.0329
▁gear	-11.0331
▁vulnerab	-11.0332
▁dot	-11.0334
▁oh	-11.0338
▁map	-11.0338
▁creation	-11.034
▁sars	-11.0347
gar	-11.0349
ked	-11.0349
▁homeless	-11.035
henin	-11.0352
▁coat	-11.0356
dale	-11.0357
▁bow	-11.0358
▁violate	-11.036
ake	-11.0362
▁corps	-11.0364
▁jane	-11.0367
▁cub	-11.0368
▁shoulder	-11.0372
▁joke	-11.0372
▁proliferat	-11.0374
▁belief	-11.0374
▁donation	-11.0382
▁oreg	-11.0388
fa	-11.0395
▁recogniz	-11.0409
▁financ	-11.0411
▁mrs	-11.0414
▁purchas	-11.0423
▁88	-11.044
▁collaps	-11.044
▁publisher	-11.0444
claren	-11.0444
▁craft	-11.0446
▁peer	-11.0448
▁habit	-11.0448
▁wa	-11.0451
▁plung	-11.0456
▁jay	-11.046
▁arth	-11.0461
▁les	-11.0468
▁vision	-11.0474
jab	-11.0476
iers	-11.0481
▁advise	-11.0487
aki	-11.0493
▁endorse	-11.0498
shore	-11.0502
identifi	-11.0506
half	-11.0511
▁thin	-11.052
▁sand	-11.0528
▁bu	-11.053
▁canne	-11.0543
▁kerr	-11.0568
▁conspira	-11.0574
ala	-11.0578
tearn	-11.0582
losi	-11.0583
ola	-11.0583
tor	-11.0605
▁advi	-11.0613
▁thu	-11.0616
▁nu	-11.0618
cation	-11.0618
▁rating	-11.0626
rome	-11.0633
▁resist	-11.0638
▁undergo	-11.0648
▁ill	-11.0659
▁lab	-11.0681
▁topp	-11.0681
▁shu	-11.0682
▁sao	-11.0706
verish	-11.0709
pont	-11.071
▁sight	-11.0712
▁concept	-11.0719
mlin	-11.0721
fo	-11.0727
▁flat	-11.073
wi	-11.0739
▁kir	-11.0753
▁dropping	-11.0761
▁appropriate	-11.0772
▁theme	-11.0776
▁occur	-11.0778
unt	-11.078
▁philip	-11.0781
du	-11.079
▁connecti	-11.0795
▁teenage	-11.0796
▁gra	-11.0798
▁wrap	-11.08
▁virgin	-11.0804
▁infra	-11.0808
▁enormous	-11.0808
▁expansion	-11.0808
▁expell	-11.0808
▁orthodox	-11.0808
▁pepper	-11.0808
▁rhode	-11.0808
▁spaniard	-11.0808
▁starbuck	-11.0808
▁tattoo	-11.0808
▁verdict	-11.0808
▁airstrike	-11.0808
▁morocc	-11.0808
▁audio	-11.0809
▁application	-11.0809
▁consistent	-11.0809
▁petition	-11.0809
▁potato	-11.0809
▁distribut	-11.0809
▁ahmed	-11.0809
▁vital	-11.0809
▁immun	-11.0809
▁joseph	-11.0809
▁lyric	-11.0809
▁foster	-11.081
▁curb	-11.081
▁billionaire	-11.081
▁duck	-11.081
▁pardon	-11.081
▁appointment	-11.0812
▁musician	-11.0813
▁traged	-11.0813
▁tele	-11.0813
▁santi	-11.0813
turm	-11.0814
▁distribution	-11.0815
horta	-11.0817
▁oxy	-11.0818
▁headline	-11.0819
▁rec	-11.0821
▁successor	-11.0822
▁chant	-11.0824
▁launching	-11.0824
▁execut	-11.0825
▁parade	-11.0826
▁tho	-11.083
▁athen	-11.0831
olo	-11.0831
io	-11.0832
▁fake	-11.0834
▁tanker	-11.0835
▁mac	-11.0836
▁influ	-11.0849
▁nikk	-11.0858
▁emotional	-11.0858
efa	-11.0863
mandu	-11.0864
▁laid	-11.0867
▁bare	-11.0872
long	-11.0872
▁sole	-11.0877
izing	-11.0882
▁bail	-11.0884
▁slate	-11.0884
▁yoo	-11.0884
▁pav	-11.0885
▁eve	-11.0889
▁trick	-11.0891
▁berna	-11.0894
▁nur	-11.0899
▁fatalit	-11.0901
▁nud	-11.0904
tti	-11.0917
air	-11.0921
▁fate	-11.0922
▁shield	-11.0923
▁instance	-11.0927
▁mat	-11.0929
russel	-11.0944
▁hidd	-11.0947
▁guns	-11.0956
napoli	-11.0957
ju	-11.0962
war	-11.0963
▁zu	-11.0972
▁160	-11.0977
▁caffein	-11.0986
▁pich	-11.0988
mer	-11.1021
▁smil	-11.1028
ich	-11.1034
ada	-11.1035
ulos	-11.1052
▁endur	-11.1055
world	-11.1065
▁pacif	-11.1073
ep	-11.1074
ide	-11.1093
▁dai	-11.1107
rin	-11.1108
▁tut	-11.1117
▁embrace	-11.1122
po	-11.1129
▁leak	-11.113
▁conclude	-11.113
ip	-11.1137
▁wav	-11.1143
play	-11.1178
mato	-11.1196
▁reli	-11.1203
udh	-11.1203
fire	-11.1209
▁cal	-11.121
▁accord	-11.1215
▁convinc	-11.1234
▁maj	-11.1241
ioc	-11.1242
▁lat	-11.1242
▁smuggl	-11.1258
▁cho	-11.1277
▁fu	-11.1282
▁closure	-11.1287
▁introduce	-11.1299
ullah	-11.1307
▁apologize	-11.1317
▁cleve	-11.1325
▁v	-11.1328
▁televis	-11.1328
▁prov	-11.133
▁fertil	-11.1334
▁lobby	-11.1334
▁infant	-11.1334
▁adjust	-11.1335
▁aquarium	-11.1335
▁counterpart	-11.1335
▁deficit	-11.1335
▁intercept	-11.1335
▁motorcycle	-11.1335
▁religion	-11.1335
▁surprising	-11.1335
▁tabloid	-11.1335
▁transaction	-11.1335
▁deserve	-11.1335
▁indefinite	-11.1335
▁outdoor	-11.1335
▁definite	-11.1335
▁retaliat	-11.1335
▁defect	-11.1335
▁bloom	-11.1335
▁evil	-11.1335
▁oath	-11.1335
▁absence	-11.1335
▁mcdonald	-11.1335
▁yankee	-11.1335
▁domain	-11.1335
▁alarm	-11.1335
▁mortar	-11.1335
▁saving	-11.1336
▁classifie	-11.1336
ai	-11.1336
▁elaborate	-11.1336
▁dragg	-11.1337
▁taste	-11.1337
▁exclusive	-11.1337
▁neb	-11.1338
▁matsu	-11.1338
▁visa	-11.1339
▁possession	-11.134
▁pig	-11.134
▁albanian	-11.134
▁combination	-11.1341
▁hike	-11.1341
▁bagg	-11.1341
▁astronomer	-11.1341
orrow	-11.1342
▁respective	-11.1342
▁luna	-11.1343
▁replacement	-11.1343
▁celebration	-11.1345
▁massage	-11.1345
▁chamber	-11.1345
▁residence	-11.1349
donald	-11.1352
▁limb	-11.1352
▁mumm	-11.1354
▁hail	-11.1357
▁shipment	-11.136
▁tea	-11.1362
▁grabb	-11.1363
▁christophe	-11.1366
▁treasure	-11.1368
til	-11.1368
▁cage	-11.1373
▁inspir	-11.1378
▁deck	-11.1379
abao	-11.1386
▁divide	-11.1386
ug	-11.1389
erkel	-11.1394
▁promot	-11.1398
▁pat	-11.14
ade	-11.1406
▁entry	-11.1408
▁taxi	-11.1409
▁cooperat	-11.1409
cze	-11.142
om	-11.1438
cent	-11.144
▁micro	-11.1441
otic	-11.1448
ob	-11.146
▁welcom	-11.1461
▁cri	-11.1471
quo	-11.1483
▁hd	-11.1483
▁argentine	-11.1486
ox	-11.1504
▁rever	-11.1504
▁bath	-11.1507
▁comed	-11.1511
▁nanc	-11.1511
▁maru	-11.153
log	-11.1532
▁colon	-11.1538
onga	-11.1541
fda	-11.1562
▁hunting	-11.157
▁comfortabl	-11.1574
den	-11.1576
▁anne	-11.16
▁denie	-11.1604
▁victoria	-11.1604
lum	-11.1605
▁kyo	-11.1607
▁troubl	-11.1613
▁burst	-11.1616
▁format	-11.1618
jiang	-11.1621
held	-11.1622
dian	-11.1632
▁alexand	-11.1642
▁beer	-11.1646
folk	-11.1649
▁blai	-11.1666
ome	-11.167
ura	-11.1674
▁dealing	-11.1676
▁penn	-11.1691
▁bust	-11.1709
▁statistic	-11.1721
▁92	-11.1721
enver	-11.1723
▁dor	-11.1724
▁dak	-11.1738
▁125	-11.1756
lam	-11.1757
wai	-11.1789
▁em	-11.1794
roadway	-11.18
▁swis	-11.18
▁va	-11.18
▁tay	-11.1805
▁swing	-11.1808
▁contribut	-11.1816
burg	-11.1828
▁biolog	-11.184
▁ranch	-11.1846
▁importan	-11.1856
▁aren	-11.186
▁cambodia	-11.1861
▁commit	-11.1861
▁rubb	-11.1866
▁shi	-11.1881
▁shake	-11.1883
▁accidental	-11.1886
▁chart	-11.1886
▁confront	-11.1886
▁approximate	-11.189
arctic	-11.189
▁commodit	-11.189
▁prestig	-11.189
▁ambush	-11.189
▁component	-11.189
▁congratulat	-11.189
▁consequence	-11.189
▁expire	-11.189
▁fossil	-11.189
▁gonzale	-11.189
▁sprawl	-11.189
▁surpass	-11.189
▁kashmir	-11.189
▁sentiment	-11.189
▁laborator	-11.189
▁paralyz	-11.189
▁moderate	-11.189
▁galax	-11.1891
▁thrill	-11.1891
▁eager	-11.1891
▁bedroom	-11.1891
▁psychologist	-11.1891
▁stronghold	-11.1891
▁johan	-11.1892
▁kanda	-11.1892
pact	-11.1893
▁jamie	-11.1893
▁regulator	-11.1894
▁inspection	-11.1894
▁breach	-11.1895
▁emphasiz	-11.1895
▁empty	-11.1896
▁picket	-11.1896
▁tayyi	-11.1896
▁ruin	-11.19
▁preparation	-11.19
▁subway	-11.1903
▁franco	-11.1906
▁bog	-11.1908
▁belt	-11.1908
▁tap	-11.191
▁libyan	-11.1911
▁fleet	-11.1912
▁ideal	-11.1915
grid	-11.1915
raul	-11.1915
▁nice	-11.1916
▁examin	-11.1916
▁kat	-11.1921
▁kre	-11.1923
▁traffick	-11.1924
ife	-11.1925
▁dominate	-11.1926
▁83	-11.1927
▁inaugurat	-11.1932
stam	-11.1934
▁alter	-11.1938
▁rear	-11.1941
▁afr	-11.1941
▁hon	-11.1945
▁suggestion	-11.1947
▁promotion	-11.1949
▁scott	-11.1949
stone	-11.195
▁sheet	-11.1957
▁insurgen	-11.1957
▁patroll	-11.1964
▁tu	-11.1995
ima	-11.2012
nce	-11.2018
▁ir	-11.2021
aska	-11.2029
▁wel	-11.2041
nie	-11.2041
arian	-11.2044
▁sink	-11.2046
▁broadcaster	-11.2051
aga	-11.2057
▁jp	-11.2061
▁resolv	-11.2064
rry	-11.207
ica	-11.2075
▁visibl	-11.2075
30	-11.2076
una	-11.2079
▁trans	-11.2081
▁bra	-11.2084
inho	-11.2097
▁mall	-11.21
▁sl	-11.2122
▁spray	-11.2122
oming	-11.2141
dell	-11.2146
▁dispos	-11.2152
▁bal	-11.2153
iri	-11.2155
let	-11.2159
▁riche	-11.2164
▁pregnanc	-11.2164
ks	-11.2178
▁forum	-11.218
ative	-11.219
onia	-11.2198
▁jam	-11.2199
▁diagnos	-11.2214
hook	-11.2235
▁decid	-11.2242
iff	-11.2242
▁text	-11.2247
stance	-11.2258
▁cl	-11.2274
▁prior	-11.2275
prime	-11.2277
hem	-11.2282
top	-11.2285
ean	-11.2288
tina	-11.2289
nke	-11.229
iest	-11.2294
▁provider	-11.2319
▁bel	-11.2342
tten	-11.2347
▁pin	-11.2356
▁reverse	-11.236
▁der	-11.2369
ink	-11.2377
▁orchestra	-11.2397
rut	-11.2401
▁knowing	-11.2402
▁rev	-11.2411
▁evacuate	-11.243
▁patriot	-11.243
▁happening	-11.2435
usan	-11.2437
rac	-11.244
▁remind	-11.244
▁graduate	-11.2441
oli	-11.2443
illa	-11.2448
▁loose	-11.2449
uff	-11.2451
hou	-11.2457
▁height	-11.2462
▁cooperati	-11.2463
▁emb	-11.2466
▁composit	-11.2473
▁opt	-11.2476
▁jihad	-11.2478
▁hazard	-11.2479
▁affiliate	-11.2479
▁bargain	-11.2479
▁encounter	-11.2479
▁interpret	-11.2479
▁precinct	-11.2479
▁qualify	-11.2479
▁unsuccessful	-11.2479
▁landmark	-11.2479
▁volatil	-11.2479
▁migrant	-11.2479
▁diabet	-11.2479
▁competitive	-11.2479
▁regain	-11.2479
▁restrain	-11.2479
▁surf	-11.2479
▁outcome	-11.2479
▁applie	-11.2479
▁reinstate	-11.2479
▁fault	-11.2479
▁blanket	-11.2479
▁tornado	-11.2479
▁checkpoint	-11.2479
▁katrin	-11.2479
▁fantas	-11.2479
▁plent	-11.2479
▁amendment	-11.2479
▁exceed	-11.248
▁hatred	-11.248
▁ultra	-11.248
▁implication	-11.2481
▁trash	-11.2481
▁pageant	-11.2481
▁clap	-11.2481
▁crush	-11.2482
▁monet	-11.2482
▁urgent	-11.2483
▁chadian	-11.2483
skirt	-11.2483
▁amazon	-11.2484
▁overturn	-11.2486
▁impression	-11.2487
▁carpe	-11.2487
▁lifetime	-11.249
▁rigg	-11.249
▁surgeon	-11.2491
▁alex	-11.2492
▁kitt	-11.2494
▁grass	-11.2496
▁helm	-11.2497
vinen	-11.2497
▁observation	-11.2499
▁wrapp	-11.25
nic	-11.25
▁challeng	-11.2501
▁zero	-11.2503
▁carla	-11.2503
▁shattered	-11.2506
▁pira	-11.2507
▁contender	-11.2511
schne	-11.2513
cake	-11.2516
cu	-11.2519
▁warship	-11.2521
yongbyon	-11.2522
▁nigeria	-11.2523
▁mitt	-11.2533
▁massacre	-11.2533
▁larr	-11.2537
ano	-11.2543
▁marry	-11.2544
ini	-11.2547
▁universal	-11.2547
▁robber	-11.2549
▁challenger	-11.2557
▁supplier	-11.2562
lisa	-11.257
aw	-11.2576
▁caps	-11.258
av	-11.2592
▁cor	-11.2598
▁leap	-11.2607
▁ramp	-11.2608
▁lip	-11.2618
▁jewel	-11.2622
▁mem	-11.2622
▁boxe	-11.2623
ova	-11.2624
▁antibiotics	-11.2627
ather	-11.2636
rich	-11.264
▁pi	-11.2642
temporari	-11.2643
▁kle	-11.2685
ries	-11.2687
▁venture	-11.2699
pur	-11.2703
▁sat	-11.2719
▁radi	-11.272
▁cair	-11.2722
▁din	-11.2725
▁od	-11.2736
take	-11.2738
▁comet	-11.2743
▁spa	-11.2747
▁kell	-11.2752
▁rac	-11.2762
structure	-11.2763
▁lend	-11.2767
▁geo	-11.2785
▁colomb	-11.2819
▁ward	-11.2821
▁buyer	-11.2825
cher	-11.2831
com	-11.2831
▁pad	-11.284
ert	-11.2851
▁02	-11.2857
intend	-11.2885
gis	-11.2894
old	-11.29
ray	-11.2904
than	-11.2908
rian	-11.2915
ena	-11.2924
▁refuse	-11.2928
trick	-11.2935
power	-11.2941
▁ignor	-11.2944
ib	-11.2949
▁nar	-11.2957
ltz	-11.2958
child	-11.2968
▁proceed	-11.2983
▁stick	-11.2989
▁measur	-11.299
▁spat	-11.2999
iband	-11.3005
▁advanc	-11.3008
con	-11.3008
▁rein	-11.3009
ential	-11.3013
latter	-11.3015
▁hijack	-11.304
ffer	-11.3049
▁nin	-11.305
▁pun	-11.305
▁swor	-11.3052
▁harv	-11.3064
crete	-11.3067
▁digit	-11.3072
sumption	-11.3074
▁roma	-11.309
▁portray	-11.3092
▁gall	-11.3096
▁prohibit	-11.3097
▁possess	-11.3097
▁equip	-11.3101
▁loya	-11.3101
▁fundamental	-11.3103
bourne	-11.3103
▁biofuel	-11.3104
▁concentrate	-11.3104
▁curfew	-11.3104
▁elephant	-11.3104
▁enterprise	-11.3104
▁epicenter	-11.3104
▁exhaust	-11.3104
▁expedition	-11.3104
▁explanation	-11.3104
▁ibrahim	-11.3104
▁overthrow	-11.3104
▁pocket	-11.3104
▁principal	-11.3104
▁recount	-11.3104
▁rhetoric	-11.3104
▁scatter	-11.3104
▁swallow	-11.3104
▁symptom	-11.3104
▁unanimous	-11.3104
▁decrease	-11.3104
▁machete	-11.3104
▁minimum	-11.3104
▁coroner	-11.3104
▁propagand	-11.3104
▁surplus	-11.3104
▁liberia	-11.3104
▁happi	-11.3104
▁conceal	-11.3104
▁uganda	-11.3104
▁okinawa	-11.3104
▁fruit	-11.3104
▁jirga	-11.3104
▁persuade	-11.3104
▁gunshot	-11.3104
▁hammer	-11.3104
▁fuku	-11.3104
▁hint	-11.3104
droe	-11.3105
▁lafa	-11.3105
▁mohammad	-11.3105
▁advisor	-11.3105
▁smell	-11.3105
▁biologist	-11.3105
▁kofi	-11.3106
▁shelve	-11.3106
▁interrogation	-11.3106
▁strategist	-11.3106
mpson	-11.3108
▁characterize	-11.3108
▁ryan	-11.3108
zhe	-11.3112
▁clay	-11.3112
▁punch	-11.3113
▁ripp	-11.3113
▁harvest	-11.3114
▁islamist	-11.3117
▁trill	-11.3117
▁bankruptc	-11.3119
▁fernando	-11.312
▁magic	-11.3122
▁xu	-11.3123
▁ancest	-11.3123
uke	-11.3123
hallow	-11.3123
▁sid	-11.3123
▁afterward	-11.3125
▁zimbabwean	-11.3126
▁personalit	-11.3128
▁slaughter	-11.313
▁scrambl	-11.3136
▁deutsch	-11.3136
▁pronounce	-11.3141
nish	-11.3142
▁adapt	-11.3144
▁buck	-11.3145
nmark	-11.3147
cumbe	-11.3153
▁gerr	-11.3154
▁slam	-11.3155
▁chat	-11.3156
▁depress	-11.3156
▁contractor	-11.3158
▁popp	-11.3161
▁projection	-11.3164
▁furni	-11.3165
teen	-11.3167
lander	-11.3169
▁juan	-11.317
▁tighten	-11.3172
lov	-11.3175
▁doors	-11.3177
rc	-11.3178
dai	-11.3181
kova	-11.3181
▁faste	-11.3182
tada	-11.3187
▁bob	-11.3194
cla	-11.3194
▁diya	-11.321
rat	-11.3214
▁medi	-11.3231
state	-11.324
10	-11.3241
kar	-11.3243
▁prostitute	-11.3244
rak	-11.3245
▁plea	-11.3264
pe	-11.3268
tune	-11.3272
rotti	-11.3286
▁tr	-11.3309
cca	-11.3313
▁fif	-11.3317
▁cru	-11.333
▁ya	-11.3341
▁starr	-11.3354
▁premiere	-11.3358
▁grade	-11.3362
rous	-11.3364
ji	-11.3365
▁atlant	-11.3367
▁inmate	-11.337
jas	-11.338
▁eta	-11.3387
▁ruler	-11.3387
▁hi	-11.3391
elo	-11.3392
gram	-11.3397
▁stor	-11.3407
▁hiv	-11.3416
▁fred	-11.3429
▁fre	-11.3465
▁doll	-11.3477
▁disable	-11.3489
▁seize	-11.349
tzl	-11.3498
hur	-11.3501
▁vil	-11.3505
▁nan	-11.3517
ovic	-11.3524
135	-11.3531
▁generat	-11.3538
▁93	-11.3551
mun	-11.3551
ping	-11.3556
▁110	-11.356
▁103	-11.3569
▁preserve	-11.3577
▁101	-11.358
▁posting	-11.3581
▁springs	-11.3588
▁origin	-11.3589
ax	-11.3589
▁khal	-11.3593
▁menu	-11.3604
▁luc	-11.3604
▁lunch	-11.3609
uni	-11.3611
▁praise	-11.3616
▁terra	-11.3626
▁180	-11.363
tuck	-11.3638
llor	-11.3639
rod	-11.3646
mouth	-11.3649
▁marc	-11.365
orti	-11.3657
▁productiv	-11.3658
through	-11.3659
▁harmon	-11.3669
▁compet	-11.368
▁recep	-11.3698
▁nurse	-11.3715
print	-11.3718
dick	-11.3727
▁dignit	-11.3731
cha	-11.3738
▁bhut	-11.3739
stra	-11.3744
lic	-11.3752
▁phil	-11.3752
oma	-11.3756
refore	-11.3757
▁deter	-11.376
rit	-11.3762
▁analys	-11.3763
▁populat	-11.3764
vacu	-11.3768
▁psycholog	-11.3769
hasa	-11.3769
▁guitar	-11.3769
ge	-11.377
▁sophisticat	-11.377
▁aspect	-11.377
▁breakfast	-11.377
▁catastroph	-11.377
▁chocolate	-11.377
▁discriminat	-11.377
▁equivalent	-11.377
▁grenade	-11.377
▁harbor	-11.377
▁mosquito	-11.377
▁norwegian	-11.377
▁practical	-11.377
▁predecessor	-11.377
▁revenge	-11.377
▁sacrifice	-11.377
▁tremendous	-11.377
▁unacceptabl	-11.377
▁widow	-11.377
▁exxon	-11.377
▁precise	-11.377
▁throat	-11.377
▁himalaya	-11.377
▁eligib	-11.377
▁steep	-11.377
▁transmission	-11.377
▁videotape	-11.377
▁sierra	-11.377
▁descend	-11.377
▁nichol	-11.377
▁yield	-11.377
▁unemploy	-11.377
▁mccart	-11.377
▁indict	-11.377
▁tumor	-11.377
▁vegetable	-11.377
▁bathroom	-11.377
▁repair	-11.377
▁candidac	-11.377
▁muq	-11.3771
▁awake	-11.3771
mumba	-11.3771
▁medication	-11.3771
▁parole	-11.3771
▁judgment	-11.3771
▁wildfire	-11.3771
▁davyd	-11.3771
▁drown	-11.3771
▁guang	-11.3771
▁guideline	-11.3771
▁deliberate	-11.3771
▁staple	-11.3772
▁bride	-11.3772
▁filmmaker	-11.3772
▁merchant	-11.3772
▁dirt	-11.3773
▁pot	-11.3774
▁epic	-11.3774
▁canoe	-11.3774
ebay	-11.3774
▁guess	-11.3774
▁confine	-11.3774
rugg	-11.3775
▁racial	-11.3775
▁hil	-11.3775
▁chimp	-11.3775
▁loot	-11.3775
▁rebound	-11.3775
▁knife	-11.3775
▁painful	-11.3776
▁smart	-11.3776
▁stunt	-11.3776
▁engagement	-11.3776
▁ferg	-11.3777
▁xp	-11.3778
▁adventure	-11.3778
lu	-11.3779
▁sensor	-11.3779
▁socialist	-11.378
▁robotic	-11.378
▁wield	-11.3781
▁assign	-11.3782
▁hamid	-11.3782
▁samba	-11.3784
▁passage	-11.3787
▁pure	-11.3788
▁eruption	-11.3789
ible	-11.379
▁kang	-11.379
▁moore	-11.379
▁aero	-11.3791
nova	-11.3792
nutrition	-11.3795
▁commuter	-11.3796
▁galla	-11.3796
▁zan	-11.3796
▁hip	-11.3799
▁pastor	-11.3801
▁shak	-11.3802
▁consen	-11.3803
▁89	-11.3806
▁liqu	-11.3809
▁deadli	-11.381
▁armor	-11.3815
▁pyr	-11.3816
▁torn	-11.3819
fre	-11.3828
▁froze	-11.3834
▁silver	-11.3834
zemi	-11.3836
▁vanco	-11.3844
▁nh	-11.3845
▁coin	-11.3851
uit	-11.3851
▁balloon	-11.3852
ello	-11.3856
▁admit	-11.386
▁shrine	-11.3864
▁propose	-11.3865
▁pf	-11.3868
▁predominan	-11.3869
tro	-11.3873
ters	-11.3877
▁extensi	-11.388
▁captive	-11.3886
▁cooking	-11.3887
gt	-11.389
adic	-11.3891
▁gil	-11.3892
▁nik	-11.3895
▁integr	-11.3901
▁seren	-11.3934
gon	-11.3945
▁salt	-11.3954
▁exporter	-11.3957
▁pra	-11.3964
▁testify	-11.3964
ifi	-11.3965
▁preserv	-11.3967
▁lone	-11.3969
▁harris	-11.397
▁forecaster	-11.3971
▁brook	-11.3989
▁proof	-11.399
▁experienc	-11.3993
gi	-11.3995
▁nicole	-11.3998
▁depose	-11.4001
awi	-11.4003
je	-11.4013
liga	-11.4023
ological	-11.4034
▁conscious	-11.4036
gat	-11.4043
allah	-11.4046
▁miner	-11.4054
▁roar	-11.4067
tri	-11.4069
▁rig	-11.4074
ua	-11.4084
▁tale	-11.4093
▁plott	-11.4095
▁tribe	-11.4103
tone	-11.4108
▁bench	-11.4113
ampa	-11.4115
▁jin	-11.4132
utt	-11.4132
▁nazi	-11.4133
▁tha	-11.4135
▁mere	-11.414
▁dominic	-11.4145
▁emerge	-11.4153
▁occasion	-11.4153
awa	-11.4156
erial	-11.4162
pic	-11.4165
▁disclose	-11.4179
enos	-11.4191
like	-11.4194
lon	-11.4201
far	-11.4244
bean	-11.4247
orry	-11.4248
▁noon	-11.4249
uous	-11.4263
roy	-11.4273
tv	-11.4273
▁danc	-11.4305
▁fift	-11.4319
▁stead	-11.4319
lg	-11.432
port	-11.432
▁arrang	-11.433
vy	-11.4333
▁hostil	-11.4363
▁cook	-11.4364
▁favorabl	-11.4367
dom	-11.4372
▁grat	-11.4374
shed	-11.4375
▁slid	-11.4378
▁det	-11.4384
▁beak	-11.4391
maker	-11.4413
hill	-11.4417
▁transit	-11.4418
force	-11.4419
laho	-11.4422
bow	-11.4424
front	-11.4426
group	-11.4428
what	-11.4429
▁please	-11.4436
bound	-11.4436
mann	-11.4439
▁rely	-11.4447
mw	-11.4449
ogge	-11.4462
humi	-11.4467
▁tube	-11.4474
ailing	-11.4475
▁counsel	-11.4475
▁opposit	-11.448
▁depart	-11.4481
▁commerc	-11.4481
▁charisma	-11.4484
▁phenomen	-11.4484
elecommunication	-11.4485
▁abortion	-11.4485
▁ambulance	-11.4485
▁basket	-11.4485
▁chapter	-11.4485
▁competitor	-11.4485
▁concession	-11.4485
▁croatia	-11.4485
▁database	-11.4485
▁desperate	-11.4485
▁dissolv	-11.4485
▁juvenile	-11.4485
▁kangaroo	-11.4485
▁magistrate	-11.4485
▁paraguay	-11.4485
▁retreat	-11.4485
▁substitute	-11.4485
▁suppose	-11.4485
▁swift	-11.4485
▁trademark	-11.4485
▁unfair	-11.4485
▁voluntar	-11.4485
▁crippl	-11.4485
▁evolv	-11.4485
▁negro	-11.4485
▁mitch	-11.4485
▁definition	-11.4485
▁fingerprint	-11.4485
▁vault	-11.4485
▁strait	-11.4485
▁hajj	-11.4485
manuel	-11.4485
▁fuji	-11.4485
▁autops	-11.4485
▁toddler	-11.4485
▁utilit	-11.4485
▁substance	-11.4485
▁intensifie	-11.4485
▁passport	-11.4486
▁gib	-11.4486
▁claus	-11.4486
▁capabilit	-11.4486
comprehensi	-11.4486
▁lope	-11.4486
▁kumar	-11.4486
▁myster	-11.4486
▁prosecution	-11.4486
▁disagreement	-11.4487
▁flick	-11.4487
▁airplane	-11.4487
▁amaz	-11.4487
▁dragon	-11.4487
▁interaction	-11.4488
▁retirement	-11.4488
ddy	-11.4488
▁honest	-11.4488
▁collective	-11.4488
▁zap	-11.4489
▁tumbl	-11.4489
▁partnership	-11.4489
▁detective	-11.4489
▁golf	-11.449
▁stabb	-11.449
▁attractive	-11.449
cursion	-11.449
▁lieu	-11.449
▁brave	-11.4491
▁extension	-11.4491
hkin	-11.4492
▁iphone	-11.4492
▁decree	-11.4495
▁organic	-11.4497
▁pipe	-11.4497
▁background	-11.4497
▁barbar	-11.4497
▁baham	-11.4498
▁vincen	-11.4498
▁bernard	-11.4498
▁recommendation	-11.4498
▁homicide	-11.4499
▁inventor	-11.45
▁ethical	-11.4502
▁selection	-11.4502
▁loud	-11.4505
▁attraction	-11.4506
▁pond	-11.4507
bani	-11.4508
▁measurement	-11.4509
furt	-11.4514
▁bron	-11.4515
▁cape	-11.4516
▁melt	-11.4517
▁stripp	-11.452
specifi	-11.4523
▁semi	-11.4526
hu	-11.453
▁attitude	-11.4534
tenant	-11.4536
minent	-11.4539
▁twist	-11.4541
▁expression	-11.4542
▁circulat	-11.4551
▁joy	-11.4557
kov	-11.4559
mura	-11.4559
▁gust	-11.4561
▁lesson	-11.4567
▁spur	-11.457
▁stunning	-11.4573
▁glen	-11.4582
▁rud	-11.4585
sight	-11.4593
ario	-11.4593
▁thron	-11.4594
▁q	-11.4595
▁nikol	-11.4598
▁occupie	-11.4601
law	-11.4601
▁facial	-11.4601
uil	-11.4606
vin	-11.4607
▁legislati	-11.4618
▁dies	-11.4625
▁partial	-11.4628
▁arch	-11.4639
▁shopper	-11.4643
▁ac	-11.4647
eh	-11.465
▁kam	-11.4653
fia	-11.4655
▁coal	-11.4656
ius	-11.4657
▁pills	-11.4657
▁lashe	-11.4663
ida	-11.4666
▁trie	-11.4668
▁barks	-11.4668
▁regret	-11.467
eigh	-11.4681
nne	-11.4681
▁kiev	-11.4684
▁soul	-11.4687
▁ferry	-11.4688
kate	-11.4692
▁cher	-11.4708
turn	-11.4719
▁pri	-11.4723
▁lean	-11.473
▁monte	-11.4736
▁romania	-11.4739
fax	-11.4747
rey	-11.4759
▁scan	-11.4764
▁mud	-11.4764
▁guid	-11.4764
▁rash	-11.4767
▁acquire	-11.4773
libu	-11.4782
ncy	-11.4794
how	-11.4794
▁climber	-11.4798
ub	-11.48
▁grounds	-11.48
▁eliminate	-11.4804
mao	-11.4808
▁mobil	-11.4819
▁lak	-11.482
rmed	-11.4823
▁folk	-11.4823
nov	-11.4824
▁bars	-11.4828
teria	-11.4833
▁gal	-11.4839
▁para	-11.4841
▁jiang	-11.4846
▁mir	-11.4857
▁rub	-11.4867
▁cry	-11.487
▁provok	-11.4872
▁smoker	-11.4883
▁specta	-11.4898
▁192	-11.4906
gb	-11.4907
▁eliminat	-11.492
▁gangs	-11.4922
mori	-11.4932
▁rag	-11.4938
gia	-11.494
alban	-11.4944
▁clemen	-11.4949
ntao	-11.4954
cc	-11.4954
▁usa	-11.4987
▁dish	-11.4989
bol	-11.4991
ito	-11.4999
▁remarkabl	-11.5005
▁dav	-11.5019
▁eco	-11.5032
irna	-11.5052
rim	-11.5069
▁dop	-11.5084
att	-11.5095
graph	-11.5131
tte	-11.5131
aqu	-11.5134
▁wil	-11.5134
seng	-11.5161
ament	-11.5161
▁architect	-11.5168
▁compromise	-11.5176
▁fle	-11.518
▁donate	-11.518
▁choos	-11.5188
▁ports	-11.52
▁swimm	-11.5209
▁intervene	-11.5209
▁compos	-11.5218
qui	-11.5221
▁schu	-11.5223
▁libya	-11.5225
▁garr	-11.5232
▁strange	-11.5233
▁slip	-11.5234
vian	-11.5235
ieu	-11.5245
▁frustrat	-11.5247
▁psychiatr	-11.5253
▁engulf	-11.5254
▁subsequent	-11.5254
▁accompanie	-11.5254
▁bimbo	-11.5254
▁dwindl	-11.5254
▁episode	-11.5254
▁fragil	-11.5254
▁gravit	-11.5254
▁guatemala	-11.5254
▁kitchen	-11.5254
▁librar	-11.5254
▁monument	-11.5254
▁nervous	-11.5254
▁satisfie	-11.5254
▁servant	-11.5254
▁smurf	-11.5254
▁stockpile	-11.5254
▁zebra	-11.5254
▁hormone	-11.5254
▁scream	-11.5254
▁squeez	-11.5254
▁streak	-11.5254
▁kilogram	-11.5254
▁cristian	-11.5254
▁hamper	-11.5254
▁hydro	-11.5254
▁telescope	-11.5254
▁applau	-11.5254
▁mutual	-11.5254
▁triumph	-11.5254
▁yasu	-11.5254
▁boast	-11.5254
▁micke	-11.5254
▁harper	-11.5254
▁tribu	-11.5254
▁administrator	-11.5254
▁saint	-11.5254
▁draft	-11.5254
▁logistic	-11.5254
▁simpson	-11.5254
▁silent	-11.5254
▁crater	-11.5254
aspar	-11.5254
▁exposure	-11.5254
▁breast	-11.5254
▁psychological	-11.5254
▁absent	-11.5254
▁admir	-11.5255
▁vista	-11.5255
▁exam	-11.5255
▁luft	-11.5255
▁lugg	-11.5255
▁avert	-11.5255
▁footprint	-11.5255
piece	-11.5255
▁burden	-11.5255
▁instant	-11.5255
▁feather	-11.5256
▁pension	-11.5256
▁maoist	-11.5256
▁conservationist	-11.5256
▁beverage	-11.5256
▁alfred	-11.5256
▁colonel	-11.5256
glio	-11.5256
▁dictatorship	-11.5256
▁weakness	-11.5256
upre	-11.5256
▁injection	-11.5257
▁mediator	-11.5257
▁acid	-11.5257
▁respondent	-11.5257
▁spell	-11.5257
amount	-11.5257
▁shutdown	-11.5258
▁consultant	-11.5258
▁midfielder	-11.5259
▁accompany	-11.5259
▁basque	-11.5259
▁achievement	-11.526
▁belgian	-11.5261
▁warehouse	-11.5261
▁hover	-11.5261
▁nerve	-11.5262
▁milk	-11.5262
▁borrow	-11.5262
▁contribution	-11.5263
▁carib	-11.5263
▁mode	-11.5264
▁dug	-11.5264
▁operative	-11.5264
▁lucas	-11.5265
▁refiner	-11.5265
▁herald	-11.5266
▁improvement	-11.5267
▁fabric	-11.5267
mps	-11.5268
▁nano	-11.527
▁requirement	-11.5274
▁albert	-11.5277
▁explorer	-11.5277
▁tent	-11.5278
▁irra	-11.5281
▁examine	-11.5283
▁heighten	-11.5284
▁dodge	-11.5286
▁jud	-11.5286
▁finger	-11.5286
▁vo	-11.529
▁garb	-11.529
▁useful	-11.5291
▁disturb	-11.5293
ymus	-11.5297
▁poster	-11.5299
▁guin	-11.5301
▁snapp	-11.5303
▁sued	-11.5304
▁woo	-11.5308
cin	-11.5309
clusive	-11.5311
▁mona	-11.5313
▁passion	-11.5319
▁polit	-11.5322
▁melan	-11.5331
▁tala	-11.5331
▁chips	-11.5332
▁consideration	-11.5334
roll	-11.5334
▁laser	-11.5334
▁slash	-11.534
▁clue	-11.5343
▁taka	-11.5343
▁dependenc	-11.5346
▁wat	-11.5347
▁mandat	-11.5349
▁lender	-11.5356
▁unexpected	-11.5357
▁mus	-11.5358
▁lane	-11.5363
▁slide	-11.5373
▁marking	-11.538
▁gro	-11.5381
▁supervis	-11.5384
▁corre	-11.5384
▁lover	-11.5384
▁academic	-11.5387
▁publication	-11.5402
▁fuse	-11.5405
▁dome	-11.5409
our	-11.5409
plane	-11.5429
tly	-11.5436
▁jean	-11.5449
▁cos	-11.5449
kevi	-11.5451
▁jung	-11.5457
▁cel	-11.5461
▁sail	-11.5463
inner	-11.5473
▁tail	-11.5475
▁expense	-11.5476
bul	-11.548
ears	-11.5485
tiana	-11.5494
▁statistical	-11.5496
▁bever	-11.5503
▁secur	-11.551
▁meal	-11.5514
▁rivers	-11.5518
▁programm	-11.552
▁shank	-11.5521
itis	-11.5525
lb	-11.5537
▁dun	-11.5541
▁shah	-11.5543
▁hub	-11.5556
unk	-11.5573
choles	-11.5599
luton	-11.5618
ister	-11.5628
afford	-11.5642
▁ignore	-11.5648
▁kan	-11.5655
▁belly	-11.5665
▁java	-11.5681
art	-11.569
▁unn	-11.5691
▁disk	-11.5696
▁silence	-11.5701
gome	-11.5712
▁div	-11.5718
▁motive	-11.572
aj	-11.5725
▁cle	-11.5729
tz	-11.5732
ore	-11.5742
▁robin	-11.5748
▁wipe	-11.5749
▁tribes	-11.575
ood	-11.5755
▁jes	-11.5768
▁tre	-11.5773
cious	-11.5774
▁communicate	-11.5774
try	-11.578
zawa	-11.5788
▁cooperate	-11.5809
ott	-11.5817
▁refer	-11.5821
▁burr	-11.5827
▁deb	-11.5831
▁keat	-11.5848
▁beside	-11.5858
▁observ	-11.5868
▁ea	-11.5886
▁archive	-11.5887
▁gard	-11.5887
▁mild	-11.5906
▁frog	-11.5915
▁separat	-11.5918
▁educat	-11.5919
zi	-11.5922
▁temp	-11.5924
bal	-11.593
▁sala	-11.5931
▁prec	-11.5937
▁bother	-11.5951
lima	-11.5959
▁sum	-11.5966
ode	-11.597
oga	-11.5974
▁holder	-11.5982
▁hate	-11.5988
gent	-11.5989
uda	-11.5993
▁defin	-11.5997
▁zha	-11.5998
▁legend	-11.6
▁compli	-11.6003
imer	-11.6006
▁cu	-11.6008
▁bl	-11.6016
evin	-11.6018
▁bran	-11.6023
▁contend	-11.6043
▁algeria	-11.6057
▁reviv	-11.6058
▁ethiopia	-11.6058
▁retire	-11.6059
▁prefer	-11.606
lash	-11.6061
▁drunk	-11.6065
▁evacu	-11.6065
▁emitt	-11.6066
▁skip	-11.6066
▁hack	-11.6068
othe	-11.6068
▁contra	-11.6071
▁subsid	-11.6071
▁diploma	-11.6076
▁recogni	-11.6082
▁dealer	-11.6082
▁laugh	-11.6083
▁accomplish	-11.6084
▁disagree	-11.6084
pher	-11.6085
▁aborigin	-11.6087
▁contaminat	-11.6087
▁exclud	-11.6087
▁bahrain	-11.6087
▁beautiful	-11.6087
▁bystander	-11.6087
▁cantaloupe	-11.6087
▁cautious	-11.6087
▁douglas	-11.6087
▁genuine	-11.6087
▁incredibl	-11.6087
▁irresponsibl	-11.6087
▁nutrient	-11.6087
▁pistol	-11.6087
▁rockefeller	-11.6087
▁supermarket	-11.6087
▁decisive	-11.6087
▁ignit	-11.6087
▁shadow	-11.6087
▁gesture	-11.6087
▁miserable	-11.6087
▁superior	-11.6087
▁cultivat	-11.6087
▁escort	-11.6087
▁acquitt	-11.6087
▁copper	-11.6087
▁ceiling	-11.6087
▁monaster	-11.6087
▁armenian	-11.6087
▁cinema	-11.6087
▁djam	-11.6087
▁overdose	-11.6087
▁enact	-11.6087
▁inhabit	-11.6087
fidel	-11.6087
▁boulder	-11.6087
▁monster	-11.6087
▁summon	-11.6087
▁admission	-11.6087
▁sermon	-11.6087
gabyte	-11.6087
▁whistle	-11.6087
▁zawah	-11.6088
▁cecil	-11.6088
▁destination	-11.6088
▁haul	-11.6089
▁romantic	-11.6089
▁slogan	-11.6089
shmi	-11.6089
▁cream	-11.6089
▁headache	-11.6089
▁tribute	-11.6089
▁zhu	-11.609
▁intel	-11.609
▁retain	-11.6091
▁drill	-11.6091
▁anonymous	-11.6091
▁mammal	-11.6092
▁distributor	-11.6093
▁budd	-11.6094
rbala	-11.6094
▁objective	-11.6094
▁poison	-11.6094
▁minne	-11.6095
▁invitation	-11.6096
▁pour	-11.6098
▁alcoholic	-11.6098
▁pants	-11.6099
▁pois	-11.61
beki	-11.6101
▁alvar	-11.6102
▁blog	-11.6104
▁update	-11.6104
▁pride	-11.6105
▁instruction	-11.6107
▁hawa	-11.6107
▁prodi	-11.6108
▁consent	-11.6109
▁knight	-11.611
▁reconstruction	-11.6111
▁freez	-11.6112
▁shame	-11.6112
dog	-11.6113
▁dire	-11.6115
dium	-11.6115
▁clippe	-11.6115
grade	-11.6116
▁spice	-11.6116
▁04	-11.612
▁hometown	-11.6121
▁revive	-11.6121
▁skipp	-11.6121
▁stewar	-11.6123
▁terribl	-11.6125
roit	-11.6127
▁hacker	-11.613
▁sicken	-11.6133
tiller	-11.6134
▁layer	-11.614
ail	-11.6146
▁wayne	-11.6146
rimp	-11.6147
▁juli	-11.6151
▁marin	-11.6154
appropriate	-11.6156
cotte	-11.6157
profit	-11.616
decided	-11.6166
▁trek	-11.6167
point	-11.6167
q	-11.6167
▁cord	-11.617
tak	-11.6172
▁lucian	-11.6174
var	-11.6175
▁pray	-11.6175
nal	-11.6183
asia	-11.6186
still	-11.6187
▁prostitut	-11.6189
▁panic	-11.6196
bali	-11.62
▁fir	-11.62
▁teaching	-11.621
▁mega	-11.6212
jum	-11.6214
rap	-11.6226
▁silv	-11.6229
▁fal	-11.623
lamin	-11.6231
alaba	-11.6237
▁kari	-11.6245
▁deepen	-11.6245
▁fog	-11.625
ris	-11.6262
▁rob	-11.6265
kans	-11.627
mmy	-11.6271
ular	-11.6274
▁georgian	-11.6282
▁efficient	-11.6287
atic	-11.6299
amster	-11.63
▁kerch	-11.6308
▁teach	-11.631
▁regulate	-11.6318
▁voc	-11.6319
▁employer	-11.6323
▁dance	-11.6324
errill	-11.633
▁fisher	-11.6332
rell	-11.6333
closure	-11.6341
rocker	-11.6342
▁baa	-11.6345
fish	-11.6347
▁jav	-11.635
▁julie	-11.6354
are	-11.6358
row	-11.6362
elli	-11.6363
▁nest	-11.6364
▁marie	-11.6387
▁keit	-11.6388
anxi	-11.6388
▁unite	-11.64
▁dick	-11.64
▁bat	-11.6401
▁zo	-11.6402
▁cartel	-11.641
▁camero	-11.6411
▁pl	-11.6419
▁nose	-11.6419
▁barak	-11.6423
ition	-11.6424
▁horses	-11.6425
▁sil	-11.6434
▁scuffle	-11.6436
▁len	-11.6442
▁matt	-11.6443
▁adequate	-11.6447
▁spike	-11.6472
▁allen	-11.6477
▁mau	-11.6483
▁bobb	-11.6486
lick	-11.6488
ctators	-11.6498
▁circle	-11.6505
worker	-11.6506
▁developer	-11.6508
▁wip	-11.6511
▁gunn	-11.6516
▁jaz	-11.6524
bury	-11.6524
▁assume	-11.6524
ita	-11.6527
zo	-11.653
▁enhance	-11.6535
▁interi	-11.6536
hansa	-11.6553
▁fi	-11.656
▁pile	-11.657
▁ron	-11.6585
lan	-11.6602
▁slave	-11.6622
450	-11.6642
dela	-11.6656
▁farming	-11.6664
▁anim	-11.6665
rosa	-11.667
▁hell	-11.6678
ama	-11.6681
▁woods	-11.6682
▁solan	-11.6683
▁resemble	-11.6687
▁todd	-11.6696
▁passe	-11.6703
▁cur	-11.6706
mega	-11.6711
vani	-11.6718
arro	-11.6721
▁juni	-11.6728
runch	-11.6728
▁accelerate	-11.6739
▁bern	-11.6743
▁ub	-11.6754
▁lash	-11.6756
ubl	-11.6759
nction	-11.6768
▁sequence	-11.6776
▁pas	-11.6777
▁commun	-11.6778
smo	-11.6781
▁lit	-11.6787
▁interesting	-11.6791
▁pic	-11.6805
ficial	-11.6808
▁exten	-11.6813
mb	-11.6827
▁repeat	-11.6828
▁cr	-11.6831
▁rid	-11.6834
itive	-11.6843
cube	-11.6846
▁01	-11.6851
▁nationalist	-11.6875
zel	-11.6879
hand	-11.6884
oise	-11.6887
▁ci	-11.6887
▁glas	-11.6897
▁robbe	-11.6905
▁sack	-11.6908
▁skeptic	-11.6914
▁tang	-11.6915
▁entr	-11.6916
liu	-11.6916
20	-11.6918
▁inspire	-11.692
medic	-11.6925
ague	-11.693
▁niger	-11.693
iq	-11.6933
▁tactic	-11.6933
▁emotion	-11.6951
amed	-11.6951
▁geolog	-11.6956
▁swim	-11.6958
▁sampl	-11.6961
▁gus	-11.6963
lem	-11.6967
gs	-11.6967
▁permit	-11.6968
▁observat	-11.697
▁instruct	-11.697
▁oct	-11.6972
▁grip	-11.6977
▁scrap	-11.698
▁inspect	-11.6983
▁roug	-11.6994
▁revis	-11.6994
ecutive	-11.6995
▁bolster	-11.6996
▁infiltrat	-11.6996
▁reopen	-11.6996
▁atrocit	-11.6996
▁bicycle	-11.6996
▁bizarre	-11.6996
▁blockbuster	-11.6996
▁caretaker	-11.6996
▁collar	-11.6996
▁cosmonaut	-11.6996
▁diminish	-11.6996
▁disapprov	-11.6996
▁motorbike	-11.6996
▁paparazz	-11.6996
▁reprocess	-11.6996
▁rhino	-11.6996
▁sketch	-11.6996
▁smooth	-11.6996
▁supplement	-11.6996
▁sympath	-11.6996
▁valuable	-11.6996
▁vigil	-11.6996
▁vomit	-11.6996
▁cancellation	-11.6996
▁jacqu	-11.6996
▁crystal	-11.6996
bishop	-11.6996
▁outpost	-11.6996
▁maneuver	-11.6996
▁chronic	-11.6996
▁depth	-11.6996
▁erect	-11.6996
▁flare	-11.6996
▁reunit	-11.6996
▁calorie	-11.6996
▁clerk	-11.6996
▁cousin	-11.6996
▁knox	-11.6996
▁gradual	-11.6996
▁blind	-11.6996
▁curtain	-11.6996
▁dyna	-11.6996
▁echo	-11.6996
▁shrink	-11.6997
▁steam	-11.6997
▁physician	-11.6997
▁hispanic	-11.6997
▁reception	-11.6997
▁distress	-11.6997
▁circuit	-11.6997
▁unpopular	-11.6997
▁talent	-11.6997
▁archaeologist	-11.6997
▁wander	-11.6997
▁jihadist	-11.6998
▁brick	-11.6998
▁classmate	-11.6998
▁arti	-11.6998
fraction	-11.6998
▁torrent	-11.6998
▁dili	-11.6998
atero	-11.6998
▁schwarz	-11.6998
▁serge	-11.6998
▁prolong	-11.6998
▁devil	-11.6999
cheema	-11.6999
▁slope	-11.7
▁steer	-11.7
▁scientolog	-11.7
▁05	-11.7001
▁hydra	-11.7001
▁pul	-11.7002
▁libi	-11.7002
▁kaka	-11.7003
▁transparent	-11.7004
▁deem	-11.7004
▁stirr	-11.7004
▁bruce	-11.7004
▁feat	-11.7005
▁hanu	-11.7005
▁historian	-11.7006
▁comput	-11.7007
▁divert	-11.7007
▁outlaw	-11.7008
▁cheng	-11.7008
▁clan	-11.701
▁stern	-11.7011
▁elit	-11.7011
▁grace	-11.7012
▁superb	-11.7012
▁outlet	-11.7013
ritis	-11.7013
liberation	-11.7015
▁plagu	-11.7015
rup	-11.7016
▁creator	-11.7017
▁lance	-11.7017
▁steadi	-11.7018
▁doom	-11.7018
yuz	-11.7019
macho	-11.7021
▁tout	-11.7021
▁capitalist	-11.7023
▁09	-11.7026
▁mob	-11.7028
▁cinc	-11.7033
shwe	-11.7038
▁lexi	-11.7042
▁contestant	-11.7042
▁freeze	-11.7042
boris	-11.7044
▁examiner	-11.7044
▁airship	-11.7045
▁characteristic	-11.7046
nique	-11.7046
tha	-11.7046
▁mosle	-11.7047
▁extremis	-11.7051
omi	-11.7055
▁wang	-11.7057
ique	-11.7061
▁glad	-11.7062
rkele	-11.7069
▁quantit	-11.7073
▁bleed	-11.7074
▁impress	-11.7076
▁126	-11.7077
▁procession	-11.7088
▁metro	-11.7091
▁simon	-11.7092
▁cycle	-11.7093
▁evans	-11.7095
▁uprising	-11.7096
bouc	-11.7096
▁distribute	-11.7096
▁outline	-11.7098
▁keen	-11.7101
▁choi	-11.7104
▁alien	-11.7104
▁brig	-11.7105
▁neal	-11.7107
▁stemm	-11.7107
gne	-11.7109
▁mul	-11.7115
italia	-11.7116
▁observe	-11.7126
care	-11.7128
▁constitute	-11.7128
castle	-11.713
▁fabi	-11.7134
▁lett	-11.714
giv	-11.7153
▁slum	-11.7154
▁wan	-11.716
weight	-11.7163
place	-11.7165
▁trailer	-11.7167
▁toppl	-11.7174
ches	-11.7177
load	-11.7186
lift	-11.7188
wn	-11.719
▁basin	-11.7192
▁arena	-11.7226
▁den	-11.723
▁cleaner	-11.724
inal	-11.7251
▁corn	-11.7263
▁wu	-11.7268
gm	-11.727
made	-11.7271
▁proven	-11.7272
due	-11.7277
▁lan	-11.7281
▁morale	-11.7285
▁disperse	-11.7291
▁leone	-11.7292
▁godd	-11.7293
▁lauren	-11.7294
▁broker	-11.73
▁ivanov	-11.7304
oni	-11.7309
▁tan	-11.7313
▁dose	-11.7314
oom	-11.7323
▁nori	-11.7327
rus	-11.733
▁unrel	-11.7338
▁bun	-11.7339
oursel	-11.7345
112	-11.7351
borough	-11.7355
▁collide	-11.736
▁preach	-11.7372
llen	-11.738
▁solv	-11.7383
▁bre	-11.7385
elhof	-11.7388
angle	-11.7393
mail	-11.7393
▁bash	-11.7395
erran	-11.741
▁therap	-11.742
ico	-11.7426
▁190	-11.7434
▁thi	-11.7469
▁bor	-11.7489
▁appa	-11.749
oi	-11.7495
▁fold	-11.7496
nati	-11.7507
ssett	-11.752
▁designer	-11.7521
▁spo	-11.7524
▁dong	-11.7538
stan	-11.756
▁hut	-11.7577
▁flo	-11.758
via	-11.7582
▁bett	-11.7609
▁mess	-11.7611
▁matte	-11.7618
dida	-11.7633
▁motivat	-11.7638
▁wei	-11.7638
rg	-11.7657
▁tat	-11.7664
ku	-11.7664
iat	-11.7675
juan	-11.7676
▁briefing	-11.7688
▁plunge	-11.7693
▁rans	-11.7694
rw	-11.7697
▁ivan	-11.77
coon	-11.7709
och	-11.7719
niste	-11.7722
ttle	-11.7732
trophy	-11.7768
▁determin	-11.7772
xel	-11.7785
anga	-11.7799
bei	-11.7802
44	-11.7822
ill	-11.7828
▁bli	-11.7833
aka	-11.7834
dmit	-11.7837
▁civi	-11.786
▁combine	-11.7864
▁castle	-11.787
▁mandate	-11.7875
▁pyo	-11.7878
▁kg	-11.7885
▁stunn	-11.7886
erie	-11.7891
▁impressi	-11.7895
tress	-11.7901
teau	-11.7905
lf	-11.7915
rge	-11.7921
stock	-11.7926
▁nick	-11.794
lena	-11.7949
mbled	-11.7957
ction	-11.7962
capp	-11.7975
▁kidnap	-11.7978
▁snipe	-11.7979
▁merge	-11.7983
▁collaborat	-11.7986
scape	-11.7988
ronto	-11.7989
▁accommodat	-11.7989
▁addict	-11.7989
mitag	-11.7992
▁intent	-11.7994
▁orphan	-11.7994
▁chun	-11.7994
lroo	-11.7995
egger	-11.7996
▁simultaneous	-11.7996
▁azerbaijan	-11.7996
▁battalion	-11.7996
▁benjamin	-11.7996
▁brilliant	-11.7996
▁cathedral	-11.7996
▁concentration	-11.7996
▁curator	-11.7996
▁deplor	-11.7996
▁depriv	-11.7996
▁destabilize	-11.7996
▁diarrhea	-11.7996
▁discount	-11.7996
▁extinct	-11.7996
▁fraudulent	-11.7996
▁glimpse	-11.7996
▁homosexual	-11.7996
▁horror	-11.7996
▁ingredient	-11.7996
▁jaguar	-11.7996
▁kazakh	-11.7996
▁nightclub	-11.7996
▁parachute	-11.7996
▁portrait	-11.7996
▁prefectur	-11.7996
▁proclaim	-11.7996
▁sherpa	-11.7996
▁taxpayer	-11.7996
▁unleash	-11.7996
▁reputation	-11.7996
▁technician	-11.7996
▁compil	-11.7996
▁implant	-11.7996
▁pioneer	-11.7996
▁volume	-11.7996
demeano	-11.7996
▁buzz	-11.7996
▁robust	-11.7996
▁chemist	-11.7996
▁nickname	-11.7996
▁ritual	-11.7996
solicit	-11.7996
▁tragic	-11.7996
▁infringe	-11.7996
▁abnormal	-11.7996
▁evangelical	-11.7996
▁osbourne	-11.7996
▁reign	-11.7996
▁mikh	-11.7996
▁ditch	-11.7996
▁perceiv	-11.7996
▁venus	-11.7996
▁spawn	-11.7996
▁signature	-11.7996
▁crane	-11.7996
▁twel	-11.7996
▁nightmare	-11.7996
▁grammy	-11.7996
▁scheme	-11.7996
▁thigh	-11.7996
▁prescription	-11.7996
▁crab	-11.7996
▁animated	-11.7997
▁epidemic	-11.7997
▁convey	-11.7997
▁blogger	-11.7997
omaha	-11.7997
▁blunt	-11.7997
▁profound	-11.7997
▁jefferson	-11.7997
▁swarm	-11.7997
▁credibl	-11.7997
▁horrifi	-11.7997
▁random	-11.7997
▁differ	-11.7997
▁cedar	-11.7997
▁constructive	-11.7997
▁therapist	-11.7997
▁deadlock	-11.7997
▁nelson	-11.7998
▁candle	-11.7998
▁nickel	-11.7998
▁classroom	-11.7998
▁zub	-11.7998
▁vent	-11.7998
▁craz	-11.7998
▁cluster	-11.7998
▁pupp	-11.7999
▁flaw	-11.7999
▁contentious	-11.7999
▁carniv	-11.7999
▁desk	-11.7999
▁drain	-11.7999
▁archaeolog	-11.7999
▁bump	-11.7999
▁regiment	-11.7999
▁dense	-11.7999
▁suppress	-11.8
▁tolerate	-11.8
▁extradit	-11.8
▁chore	-11.8
▁predator	-11.8
▁homo	-11.8
▁ginger	-11.8001
▁ukrainian	-11.8001
▁trench	-11.8001
▁bias	-11.8001
▁transcript	-11.8001
▁knut	-11.8001
nnett	-11.8001
▁retract	-11.8001
pleasure	-11.8001
▁assertion	-11.8001
▁youngster	-11.8002
uver	-11.8003
▁render	-11.8004
▁glow	-11.8004
▁examination	-11.8005
▁downplay	-11.8005
tract	-11.8005
▁barrage	-11.8005
▁formula	-11.8006
▁cramp	-11.8006
▁arson	-11.8007
▁billboard	-11.8007
▁oak	-11.8008
inburg	-11.8008
▁meyer	-11.8008
▁fence	-11.8009
▁grain	-11.8009
▁consultation	-11.8009
▁walter	-11.801
▁starv	-11.8011
▁initiat	-11.8011
brew	-11.8012
▁liais	-11.8013
▁glori	-11.8013
▁hyper	-11.8014
▁courthouse	-11.8016
▁costume	-11.8017
▁balk	-11.8017
▁glid	-11.8017
▁stray	-11.8019
▁proto	-11.802
porter	-11.8021
▁modest	-11.8021
▁medit	-11.8022
▁drunken	-11.8024
▁electro	-11.8024
▁beatle	-11.8024
▁rental	-11.8024
▁biti	-11.8024
▁documentar	-11.8026
gazp	-11.8027
▁hatch	-11.8027
▁pesh	-11.8027
▁sim	-11.8028
▁reu	-11.8029
▁counterterroris	-11.803
▁ufo	-11.8031
▁jaw	-11.8032
▁spurr	-11.8033
ziz	-11.8034
▁digg	-11.8034
mphan	-11.8035
▁manual	-11.8036
▁graves	-11.8037
▁baton	-11.8038
▁affi	-11.8038
▁sulli	-11.8039
iquit	-11.8044
▁casp	-11.8044
▁stream	-11.805
▁cambodian	-11.8051
▁eurosta	-11.8051
▁unbea	-11.8052
rk	-11.8054
▁dippe	-11.8055
▁hart	-11.8055
▁whiske	-11.8057
▁doming	-11.8066
▁hassan	-11.8068
▁96	-11.8068
▁jamm	-11.8069
▁blessing	-11.807
▁blu	-11.8072
tical	-11.8073
▁faction	-11.8075
ustin	-11.8075
▁soda	-11.8076
▁tipp	-11.8077
awar	-11.8077
▁118	-11.808
▁dad	-11.8083
station	-11.8084
▁obes	-11.8087
▁mario	-11.8091
▁sung	-11.8099
▁extract	-11.811
▁companion	-11.8115
▁trainer	-11.8126
pulsi	-11.8128
ysse	-11.8128
▁distan	-11.813
sud	-11.8131
▁mcn	-11.8135
▁lump	-11.8137
▁chess	-11.8138
▁orchestrat	-11.8139
▁invite	-11.8139
▁privilege	-11.8143
▁acro	-11.8143
▁syrian	-11.8144
▁facilitate	-11.8145
▁columb	-11.8145
wear	-11.8174
▁litera	-11.8178
fran	-11.818
▁nett	-11.818
urai	-11.8181
esco	-11.8183
▁uncertaint	-11.8187
tain	-11.819
▁container	-11.8191
▁keeper	-11.8191
nmen	-11.8194
▁karl	-11.8199
▁lag	-11.8203
▁sway	-11.8205
beat	-11.822
fried	-11.8223
▁zealander	-11.8226
▁appreciate	-11.8234
break	-11.8239
▁gad	-11.8244
merg	-11.8247
pino	-11.825
▁bau	-11.8258
continent	-11.8264
span	-11.8267
▁kisse	-11.8272
fox	-11.8274
morning	-11.828
bou	-11.828
official	-11.8282
stick	-11.8283
safe	-11.8286
scar	-11.8287
person	-11.8288
▁cam	-11.829
hurt	-11.8294
▁dive	-11.8302
▁laur	-11.8308
▁qua	-11.8312
asha	-11.8314
▁cab	-11.8314
▁helen	-11.8317
▁guarded	-11.832
isch	-11.8322
▁capt	-11.8325
▁accurate	-11.8338
tine	-11.8349
illian	-11.8353
▁vest	-11.8357
▁antho	-11.8364
▁rott	-11.8365
▁khali	-11.8366
▁performer	-11.8366
hold	-11.838
▁mwa	-11.8384
oir	-11.8391
authorize	-11.8396
▁bil	-11.8397
zine	-11.8406
sole	-11.8419
▁males	-11.842
▁dim	-11.8421
▁heal	-11.8433
▁cliff	-11.8438
▁hook	-11.8438
▁commemorate	-11.8441
tia	-11.8455
oder	-11.8456
▁flatt	-11.8458
▁wilder	-11.8459
cast	-11.846
▁interviewer	-11.8466
▁disabl	-11.8473
bble	-11.8479
hen	-11.8485
▁settl	-11.8495
▁cardi	-11.8499
rill	-11.8499
▁bet	-11.8508
bur	-11.8513
ehr	-11.8517
nnis	-11.8522
▁pla	-11.8523
▁bent	-11.8523
▁considerabl	-11.8528
▁exchang	-11.8529
▁kana	-11.8542
eful	-11.8554
ult	-11.8569
iena	-11.857
▁squa	-11.858
▁battles	-11.8581
▁reserv	-11.8586
cini	-11.8597
singh	-11.8606
▁ratio	-11.8606
anni	-11.8614
mber	-11.8624
lav	-11.8625
mert	-11.8631
▁xi	-11.8642
spective	-11.8647
▁gl	-11.8649
▁stud	-11.865
guet	-11.8655
▁nas	-11.8669
▁horse	-11.8671
tech	-11.8673
▁reliev	-11.8705
▁kn	-11.8735
udi	-11.8735
spoke	-11.874
leo	-11.8744
hel	-11.8756
gua	-11.8757
▁comb	-11.8765
cio	-11.8776
▁hills	-11.8779
reze	-11.8794
nile	-11.8832
hmer	-11.885
ulu	-11.8857
▁mas	-11.887
▁tik	-11.8888
▁uncertain	-11.8901
▁organize	-11.8902
▁captiv	-11.8917
▁debat	-11.8928
stad	-11.8938
hant	-11.894
dominant	-11.894
▁retrieve	-11.8962
▁maha	-11.8968
▁stamp	-11.8973
▁nurs	-11.8975
dine	-11.8977
▁overwhelm	-11.8986
▁topple	-11.8988
▁suf	-11.8989
▁bla	-11.8991
piter	-11.8995
▁levi	-11.8995
▁patter	-11.8998
blo	-11.9003
▁sensation	-11.9013
ouf	-11.9018
▁tenn	-11.9018
▁franc	-11.9023
▁hun	-11.9031
▁caffe	-11.9043
▁carli	-11.9057
rei	-11.9061
haus	-11.9062
▁fundrais	-11.9083
▁qualifie	-11.9091
rb	-11.9103
▁column	-11.9106
▁berk	-11.9107
▁neutral	-11.9107
vaccinat	-11.9107
▁rehab	-11.9107
distinguish	-11.9107
satisfact	-11.9107
▁disgu	-11.9107
▁gabriel	-11.9107
▁mastermind	-11.9107
▁avenue	-11.9107
▁confiscate	-11.9107
▁consolidat	-11.9107
▁excerpt	-11.9107
▁franchise	-11.9107
▁gadget	-11.9107
▁gharial	-11.9107
▁inflict	-11.9107
▁insufficient	-11.9107
▁negligen	-11.9107
▁obstacle	-11.9107
▁peanut	-11.9107
▁pedestrian	-11.9107
▁phillip	-11.9107
▁purported	-11.9107
▁sufficient	-11.9107
▁transmitte	-11.9107
xvi	-11.9107
▁banteng	-11.9107
▁commentator	-11.9107
▁dentist	-11.9107
▁dimension	-11.9107
▁sibling	-11.9107
▁stomach	-11.9107
▁thorough	-11.9107
▁thwart	-11.9107
ravag	-11.9107
▁bolivia	-11.9107
▁gossip	-11.9107
▁insect	-11.9107
▁ounce	-11.9107
▁excuse	-11.9107
▁incentive	-11.9107
▁scratch	-11.9107
▁definitive	-11.9107
▁spiel	-11.9107
▁strapp	-11.9107
▁fiction	-11.9107
▁stump	-11.9107
▁paleontologist	-11.9107
▁reptile	-11.9107
▁suitcase	-11.9107
▁impass	-11.9107
▁ricard	-11.9107
▁emmanuel	-11.9108
▁gartner	-11.9108
▁intervention	-11.9108
▁allerg	-11.9108
▁unify	-11.9108
▁harass	-11.9108
▁ghana	-11.9108
▁encrypt	-11.9108
▁astonish	-11.9108
orient	-11.9108
▁indoor	-11.9108
▁mysterious	-11.9108
▁ankle	-11.9108
▁charismatic	-11.9108
▁veterinarian	-11.9108
▁charr	-11.9108
▁fantastic	-11.9108
▁introduction	-11.9108
magnetic	-11.9108
▁patent	-11.9108
▁safeguard	-11.9108
▁sugar	-11.9108
▁motel	-11.9109
▁devot	-11.9109
▁layoff	-11.9109
▁dependent	-11.9109
▁inflammat	-11.9109
▁synd	-11.9109
▁unchang	-11.9109
▁blackmail	-11.9109
▁elevator	-11.911
▁paddl	-11.911
▁plume	-11.911
▁chunk	-11.911
▁muhamm	-11.911
▁stair	-11.9111
▁atleti	-11.9111
▁pegg	-11.9111
▁drift	-11.9111
▁trap	-11.9111
▁denucleariz	-11.9111
▁hurl	-11.9112
▁plug	-11.9112
▁titan	-11.9113
▁slapp	-11.9113
▁holm	-11.9113
▁cabin	-11.9113
▁discard	-11.9114
▁benze	-11.9114
▁uncla	-11.9114
▁assess	-11.9114
▁intensive	-11.9115
▁coastline	-11.9116
▁feline	-11.9117
nfl	-11.9117
▁cj	-11.9117
▁hayd	-11.9117
▁coward	-11.9118
▁rotat	-11.9118
choa	-11.9118
▁pink	-11.9119
▁chech	-11.912
▁delight	-11.912
▁incit	-11.912
▁batch	-11.912
▁captor	-11.9121
▁pornograph	-11.9121
▁propelle	-11.9121
▁thorn	-11.9122
▁reluctant	-11.9123
▁rug	-11.9123
clara	-11.9124
liot	-11.9125
▁installation	-11.9126
sphere	-11.9127
mascu	-11.9128
joko	-11.9128
▁rattl	-11.9128
▁farmland	-11.913
▁cox	-11.9132
▁marco	-11.9132
▁moai	-11.9132
▁roam	-11.9133
▁galler	-11.9134
ipi	-11.9134
▁leather	-11.9137
hap	-11.9137
cna	-11.9138
▁jobless	-11.914
▁theatre	-11.914
polis	-11.9143
▁preferr	-11.9144
▁condon	-11.9149
xis	-11.9149
▁leonard	-11.915
▁joan	-11.9154
▁sharon	-11.9155
quet	-11.9156
▁foul	-11.9156
▁charl	-11.9157
swam	-11.9159
▁forbidd	-11.916
▁stale	-11.9161
▁maid	-11.9162
▁abra	-11.9163
▁cough	-11.9163
▁94	-11.9164
▁dear	-11.9165
▁ull	-11.9165
▁absorb	-11.9167
▁spare	-11.9169
▁plains	-11.9169
▁crest	-11.9169
▁isabel	-11.9173
▁dignitar	-11.9176
ndition	-11.9176
▁publicize	-11.9178
▁downsiz	-11.918
▁kha	-11.9181
umu	-11.9184
▁poul	-11.9185
▁186	-11.919
▁austrian	-11.919
cuz	-11.9191
▁degrad	-11.9193
hanna	-11.9195
▁cove	-11.9197
▁lava	-11.9203
per	-11.9203
▁defor	-11.9203
oid	-11.9214
▁capit	-11.9227
lotter	-11.9238
▁graduat	-11.9238
aria	-11.924
▁bribe	-11.9241
nold	-11.9242
▁parish	-11.9242
lit	-11.9243
▁arise	-11.9243
▁presid	-11.925
▁defender	-11.9251
▁visitation	-11.9255
▁viag	-11.9255
ratchet	-11.927
▁forge	-11.9274
amine	-11.9276
▁slice	-11.9276
habi	-11.9278
▁rajas	-11.9283
ahn	-11.9298
▁alba	-11.93
▁pit	-11.9307
▁blitz	-11.9309
osi	-11.9313
▁advocate	-11.9325
▁criticize	-11.9327
bahn	-11.9335
▁lev	-11.9336
▁processor	-11.9345
▁lure	-11.9353
gie	-11.9354
▁server	-11.9355
▁olive	-11.9356
tooth	-11.9357
▁fisc	-11.9359
▁indecen	-11.9368
nian	-11.9374
▁gamble	-11.9374
▁insur	-11.9379
▁qing	-11.938
▁320	-11.9386
▁mao	-11.9389
▁acc	-11.939
▁carve	-11.9391
armament	-11.9393
▁outfit	-11.9396
▁tuck	-11.9398
▁lap	-11.94
▁humiliat	-11.9402
80	-11.9404
▁ol	-11.9415
▁cannon	-11.9421
onic	-11.9424
rubber	-11.9439
▁amus	-11.9441
bin	-11.9456
tile	-11.9468
comfort	-11.9474
anda	-11.9489
▁lynn	-11.9506
hat	-11.951
bridge	-11.9526
bird	-11.9527
block	-11.9527
model	-11.9528
watch	-11.953
▁optim	-11.953
technolog	-11.9531
bank	-11.9533
▁campaigner	-11.9535
▁sanit	-11.9538
▁kun	-11.9541
phone	-11.9544
breaker	-11.9554
▁holl	-11.9566
▁gla	-11.9572
hor	-11.9584
urd	-11.9592
▁curv	-11.9605
280	-11.9608
▁integrat	-11.9614
tsu	-11.9622
horn	-11.9627
▁sac	-11.9633
▁occasional	-11.9657
▁rode	-11.9673
▁arts	-11.968
▁saba	-11.9689
etz	-11.9689
▁bind	-11.9708
▁laborer	-11.9712
rative	-11.9726
noble	-11.9732
▁trini	-11.9738
▁sponsors	-11.9741
wf	-11.9745
akat	-11.9745
graphic	-11.975
▁compress	-11.975
ille	-11.9755
▁foe	-11.9757
▁pine	-11.9759
ache	-11.9763
▁evaluate	-11.9774
▁heel	-11.9776
ilit	-11.978
▁qass	-11.9788
▁marr	-11.9791
▁button	-11.9794
▁chatt	-11.9798
nba	-11.9799
rmal	-11.98
hoe	-11.9801
▁gre	-11.9801
▁smile	-11.9815
▁mag	-11.9822
▁abs	-11.9831
▁edit	-11.9863
▁acquir	-11.9863
oc	-11.9865
145	-11.9866
▁marlboro	-11.9888
asso	-11.9895
▁ensur	-11.9897
arling	-11.9913
ile	-11.9918
some	-11.9919
▁invade	-11.9923
▁henri	-11.9936
▁horn	-11.9939
ternal	-11.9965
erry	-11.9969
▁sche	-11.9984
▁till	-11.9993
▁ken	-11.9994
bah	-11.9994
▁darl	-11.9995
▁tile	-12.0001
▁colo	-12.0004
▁alleg	-12.0007
net	-12.0015
▁humane	-12.002
dual	-12.0027
▁colonial	-12.0033
▁dave	-12.0043
ndez	-12.0062
▁leon	-12.0066
▁fann	-12.0069
▁seeker	-12.0076
under	-12.008
iti	-12.0082
▁tran	-12.0085
imagin	-12.0085
▁lai	-12.0103
hina	-12.0122
▁slot	-12.0124
nott	-12.0127
▁inca	-12.0138
ria	-12.0143
▁dora	-12.0151
eological	-12.0157
now	-12.0177
▁tai	-12.0181
▁casual	-12.0181
▁mot	-12.0189
▁prey	-12.0191
▁bund	-12.0192
winger	-12.0195
lace	-12.0204
▁messi	-12.0208
▁shau	-12.0215
ologist	-12.0215
▁bore	-12.0218
etc	-12.0235
▁repri	-12.0236
▁musa	-12.0236
▁barn	-12.0239
odor	-12.0242
poon	-12.0273
lund	-12.0275
udge	-12.0276
▁hor	-12.0277
▁slim	-12.0281
bad	-12.0285
▁substanti	-12.0285
unami	-12.0286
▁provision	-12.0287
▁qin	-12.0303
▁dip	-12.0306
▁plain	-12.0311
etic	-12.0314
timore	-12.0314
▁opera	-12.0322
▁invent	-12.0323
▁deport	-12.0327
usnes	-12.033
dah	-12.0332
ilateral	-12.0333
▁stimul	-12.0335
silic	-12.0336
▁swap	-12.0338
▁refin	-12.0338
▁significan	-12.0342
▁laund	-12.0344
▁innocen	-12.0346
▁patien	-12.0347
▁volcan	-12.0348
▁bloc	-12.0349
▁relocat	-12.035
▁justifi	-12.0352
▁assert	-12.0355
▁swat	-12.0356
yah	-12.0356
▁pediatric	-12.0356
▁veterinar	-12.0356
interrupt	-12.0357
▁vegeta	-12.0357
▁cac	-12.0357
▁necessit	-12.0357
▁abrupt	-12.0357
▁accumulate	-12.0357
▁alejandr	-12.0357
▁artifact	-12.0357
▁clamp	-12.0357
▁disadvantage	-12.0357
▁embargo	-12.0357
▁excavat	-12.0357
▁excellent	-12.0357
▁identical	-12.0357
▁intellectual	-12.0357
▁jacob	-12.0357
▁jurisdiction	-12.0357
▁lecture	-12.0357
▁leisure	-12.0357
▁marathon	-12.0357
▁multinational	-12.0357
▁perception	-12.0357
▁pharmaceutical	-12.0357
▁philosoph	-12.0357
▁premature	-12.0357
▁railroad	-12.0357
▁reconsider	-12.0357
▁refrain	-12.0357
▁sapien	-12.0357
▁premise	-12.0357
▁script	-12.0357
▁unearth	-12.0357
▁octopus	-12.0357
▁premium	-12.0357
▁resurgen	-12.0357
▁whipp	-12.0357
▁wobble	-12.0357
▁distort	-12.0357
▁rehabilitati	-12.0357
▁frighten	-12.0357
▁compris	-12.0357
▁feminin	-12.0357
▁miracle	-12.0357
▁hoop	-12.0357
▁warrior	-12.0357
▁casino	-12.0357
▁extort	-12.0357
▁gwen	-12.0357
▁phrase	-12.0357
▁abundan	-12.0357
▁wilkins	-12.0357
▁intestin	-12.0357
▁itinerar	-12.0357
▁visual	-12.0357
▁anxiet	-12.0357
▁subsidiar	-12.0357
▁bubble	-12.0357
▁crawf	-12.0357
agliar	-12.0357
▁bolsh	-12.0357
▁lodge	-12.0358
▁grandfather	-12.0358
▁ridicul	-12.0358
▁compassion	-12.0358
▁comply	-12.0358
▁forehand	-12.0358
▁demilitariz	-12.0358
▁forensic	-12.0358
▁rooftop	-12.0358
▁huddl	-12.0358
▁sindh	-12.0358
▁blackberr	-12.0358
▁elegan	-12.0358
▁seminar	-12.0358
▁zahi	-12.0358
▁malawi	-12.0358
▁lavish	-12.0358
▁idris	-12.0358
▁eisen	-12.0358
▁arrow	-12.0358
▁preference	-12.0358
▁evaluation	-12.0358
▁cardinal	-12.0358
▁grim	-12.0358
▁martyr	-12.0358
▁geographic	-12.0358
▁breez	-12.0359
▁revoke	-12.0359
▁scout	-12.0359
▁helmet	-12.0359
▁brake	-12.0359
▁hopkin	-12.036
▁probation	-12.036
▁pillar	-12.036
▁suv	-12.036
▁fiber	-12.036
▁pretend	-12.036
▁luther	-12.036
▁cruel	-12.036
onnais	-12.036
▁flock	-12.036
mistress	-12.036
▁jaip	-12.036
▁enroll	-12.036
▁brush	-12.036
▁grin	-12.0361
▁unfold	-12.0361
ercz	-12.0361
▁rick	-12.0361
▁jacket	-12.0361
▁dogged	-12.0361
▁cesar	-12.0361
▁brewer	-12.0361
▁akh	-12.0362
▁chung	-12.0362
▁vander	-12.0362
▁click	-12.0362
cule	-12.0362
▁valid	-12.0363
▁reservation	-12.0363
▁broadb	-12.0363
▁gym	-12.0363
▁lieber	-12.0364
▁thru	-12.0364
▁instructor	-12.0364
▁invention	-12.0364
▁scul	-12.0364
▁gorge	-12.0367
▁generator	-12.0368
▁edmund	-12.0368
aimi	-12.0368
▁valentin	-12.0369
▁gown	-12.0369
▁canister	-12.0369
▁spillway	-12.037
▁smithson	-12.037
jand	-12.0371
▁prohibition	-12.0371
▁housekeeper	-12.0372
crates	-12.0373
▁continuous	-12.0373
▁idol	-12.0373
▁ideolog	-12.0374
▁gru	-12.0374
▁bike	-12.0375
▁stoke	-12.0376
▁candid	-12.0377
▁curtail	-12.0379
▁scrapp	-12.0379
▁collector	-12.038
▁cordon	-12.0381
saw	-12.0381
▁soap	-12.0383
▁fier	-12.0384
▁symbolic	-12.0386
▁askari	-12.0386
luster	-12.0387
▁indirect	-12.0388
▁overlook	-12.0389
▁bros	-12.0391
▁vary	-12.0391
face	-12.0392
▁stranger	-12.0393
▁lago	-12.0393
▁congregat	-12.0395
▁lars	-12.0396
▁intrigu	-12.0396
▁objection	-12.0398
▁ruben	-12.0398
▁pric	-12.0399
▁lawless	-12.04
▁algerian	-12.0404
▁conductor	-12.0408
vor	-12.0411
▁freezer	-12.0413
▁raw	-12.0415
▁baker	-12.0416
ussain	-12.0417
▁deng	-12.0418
cott	-12.0418
ingles	-12.042
▁184	-12.0423
▁skie	-12.0424
▁129	-12.0425
▁roller	-12.0425
▁compatible	-12.0426
▁allocate	-12.0426
▁bamb	-12.0427
grove	-12.0427
▁gm	-12.0428
▁christo	-12.0428
▁chok	-12.0428
▁automatic	-12.0429
▁suck	-12.0429
▁plantation	-12.043
▁readers	-12.0431
▁interven	-12.0431
▁walkout	-12.0434
▁periodic	-12.0436
niel	-12.044
▁equit	-12.0441
▁ec	-12.0443
▁shooter	-12.0444
▁floren	-12.0448
▁yell	-12.0449
▁forceful	-12.0449
▁uncle	-12.0451
kor	-12.0451
▁blackout	-12.0452
▁swelling	-12.0452
lot	-12.0454
iv	-12.0455
▁lange	-12.0455
▁dismantle	-12.0456
▁sander	-12.0458
▁guse	-12.046
tabas	-12.046
▁funn	-12.0464
▁derail	-12.0466
▁originate	-12.0466
▁munic	-12.0467
aiko	-12.0468
cade	-12.0469
▁parv	-12.0471
heir	-12.0478
▁bureaucrat	-12.0478
▁linger	-12.0478
▁sword	-12.0485
vara	-12.0487
▁ameli	-12.049
▁oxf	-12.0496
moto	-12.05
▁deriv	-12.0504
▁proc	-12.051
▁grani	-12.051
environmentalist	-12.051
izer	-12.0517
nya	-12.0523
▁defian	-12.0529
▁curt	-12.0533
▁bread	-12.054
▁petroc	-12.054
rate	-12.054
93	-12.054
▁baba	-12.0541
▁aggression	-12.0546
▁particle	-12.0546
▁partisan	-12.0547
▁dynamic	-12.0548
▁pleasant	-12.0549
▁judd	-12.0549
▁jessi	-12.0549
▁smuggle	-12.055
nym	-12.0554
▁frig	-12.0557
▁programme	-12.0561
gly	-12.0568
▁gaz	-12.0573
▁slee	-12.0575
amiya	-12.0576
harmonic	-12.0582
ngal	-12.0591
▁esp	-12.0596
▁tier	-12.0605
imo	-12.0614
adel	-12.0616
ara	-12.0618
▁printer	-12.0618
redo	-12.0624
▁arabian	-12.0642
▁lega	-12.0668
plan	-12.0685
▁hans	-12.0688
rone	-12.069
olong	-12.0694
▁outage	-12.0702
tikh	-12.0709
▁stabilize	-12.0712
▁sighting	-12.0716
▁triple	-12.0717
▁destroyer	-12.0718
wan	-12.0719
▁insider	-12.0719
phis	-12.0722
guo	-12.0733
izu	-12.0737
bes	-12.0738
▁mariner	-12.0739
330	-12.0739
▁lim	-12.0741
rdin	-12.0759
emble	-12.0773
▁planner	-12.0779
doo	-12.0781
bee	-12.0787
▁sulf	-12.0791
▁ranger	-12.0792
▁ridge	-12.0797
ardo	-12.0798
real	-12.0802
▁chill	-12.0805
▁blanc	-12.0817
▁mour	-12.082
▁urin	-12.0822
▁motivate	-12.083
▁cort	-12.0844
anana	-12.0846
▁mono	-12.0847
▁administrati	-12.0848
jar	-12.0848
▁explor	-12.085
▁petro	-12.0854
mechanical	-12.0863
lcon	-12.0876
▁belonging	-12.0877
▁demonstrat	-12.0877
▁chai	-12.0878
calde	-12.0881
▁gali	-12.0887
pat	-12.0892
▁embrac	-12.0902
hendr	-12.0911
▁celest	-12.0925
disclose	-12.0931
▁underscore	-12.0934
text	-12.0943
oster	-12.0943
wealth	-12.0948
roads	-12.0948
motive	-12.0949
spring	-12.095
barak	-12.095
bright	-12.0951
▁por	-12.0953
science	-12.0954
shift	-12.0954
course	-12.0957
evan	-12.0959
government	-12.0961
shot	-12.0961
scale	-12.0961
▁gin	-12.0964
▁gir	-12.0966
▁devi	-12.0967
▁alexandr	-12.0967
position	-12.0971
riyad	-12.0979
▁desir	-12.0985
master	-12.0986
sign	-12.0998
▁sensitivit	-12.1006
▁domini	-12.1009
▁caste	-12.1014
▁elv	-12.102
▁define	-12.1021
ork	-12.1023
▁shocking	-12.1023
guard	-12.1027
▁nint	-12.104
▁fitt	-12.1057
▁wis	-12.1058
errez	-12.1063
bili	-12.1086
▁pap	-12.1086
pc	-12.1091
▁rust	-12.1094
villa	-12.11
▁pub	-12.1101
▁maje	-12.1107
reva	-12.1108
usb	-12.1115
lab	-12.1119
▁alg	-12.1133
▁invad	-12.1137
▁spik	-12.1143
▁pursui	-12.1143
stitution	-12.1145
▁tani	-12.1147
bert	-12.1149
▁gonn	-12.115
sper	-12.1156
▁colom	-12.1157
▁gul	-12.1158
▁underscor	-12.116
glo	-12.1164
raig	-12.1168
ograph	-12.1189
aden	-12.1192
▁underst	-12.1203
rau	-12.1212
▁greg	-12.1229
kill	-12.1254
gal	-12.1256
▁coordinate	-12.1266
▁discipline	-12.128
uchov	-12.1284
▁corpse	-12.1291
hanks	-12.1293
▁nabi	-12.1293
tse	-12.1295
ike	-12.1322
itz	-12.1323
emon	-12.1327
▁christin	-12.133
▁defi	-12.1336
▁pave	-12.1337
▁christi	-12.1343
▁analyze	-12.1345
▁pg	-12.1351
nell	-12.1364
sale	-12.1364
activate	-12.1369
▁nap	-12.1376
bil	-12.1378
▁nash	-12.1391
fu	-12.1395
▁edu	-12.1397
▁regrett	-12.1411
▁stabiliz	-12.1418
▁disarm	-12.1433
chu	-12.1435
hui	-12.1446
lana	-12.1484
ido	-12.1507
▁const	-12.1511
dder	-12.1517
pilla	-12.1536
▁agr	-12.1539
▁bayer	-12.154
stage	-12.155
committe	-12.1556
leg	-12.1558
shir	-12.1559
▁activat	-12.1563
▁rach	-12.1563
ml	-12.1578
bro	-12.16
nate	-12.1601
▁spam	-12.1603
▁enable	-12.1618
158	-12.1622
▁exception	-12.1626
▁gambl	-12.1627
▁gran	-12.1631
all	-12.1632
brok	-12.1636
▁nou	-12.1636
alph	-12.1656
▁influen	-12.1659
urance	-12.1662
▁quant	-12.1666
ollo	-12.1671
eur	-12.1684
kuy	-12.169
▁krist	-12.1691
▁unifi	-12.1692
▁compu	-12.1712
▁execute	-12.1714
▁commut	-12.173
▁hamburg	-12.1732
caust	-12.1746
▁patt	-12.1746
▁ethic	-12.1753
▁reluctan	-12.1765
▁brow	-12.1767
von	-12.177
▁defuse	-12.1772
▁secre	-12.1773
▁prominen	-12.1774
▁drag	-12.1775
rdr	-12.1775
▁manipulat	-12.1779
▁conserv	-12.1779
▁circu	-12.1782
vinci	-12.1783
▁bachel	-12.1784
▁legitima	-12.1784
▁palestin	-12.1785
eads	-12.1786
▁persecut	-12.1786
▁acclaim	-12.1786
▁aggravate	-12.1786
▁avalanche	-12.1786
▁avocado	-12.1786
▁cockpit	-12.1786
▁complement	-12.1786
▁conciliat	-12.1786
▁corridor	-12.1786
▁delicate	-12.1786
▁dharams	-12.1786
▁discharge	-12.1786
▁disgrace	-12.1786
▁disqualif	-12.1786
▁eyebrow	-12.1786
▁fortunate	-12.1786
▁fragment	-12.1786
▁gondola	-12.1786
▁hectare	-12.1786
▁humpback	-12.1786
▁hurdle	-12.1786
▁incorporat	-12.1786
▁instrument	-12.1786
▁irregular	-12.1786
▁loophole	-12.1786
▁mislead	-12.1786
▁pamphlet	-12.1786
▁parallel	-12.1786
▁paramilitar	-12.1786
▁piccolo	-12.1786
▁prototype	-12.1786
▁rheumato	-12.1786
▁sabotag	-12.1786
▁samuel	-12.1786
▁sanctuar	-12.1786
▁satisfy	-12.1786
▁scenario	-12.1786
▁scrutin	-12.1786
▁secession	-12.1786
▁skyrocket	-12.1786
▁snatch	-12.1786
▁submarine	-12.1786
▁temblor	-12.1786
▁unconditional	-12.1786
▁athletic	-12.1786
▁barricade	-12.1786
▁coffin	-12.1786
▁compatriot	-12.1786
▁demographic	-12.1786
▁disband	-12.1786
▁eagle	-12.1786
▁elysee	-12.1786
▁eyewitness	-12.1786
▁intimate	-12.1786
▁mismanage	-12.1786
▁mushroom	-12.1786
▁plummet	-12.1786
▁powder	-12.1786
▁rethink	-12.1786
▁tamper	-12.1786
▁eleven	-12.1786
▁emperor	-12.1786
▁fitzg	-12.1786
▁mujah	-12.1786
▁pneum	-12.1786
▁uninhabit	-12.1786
▁detach	-12.1786
▁censor	-12.1786
▁nonviolen	-12.1786
▁wrinkle	-12.1786
▁overflow	-12.1786
▁snapshot	-12.1786
▁orchard	-12.1786
▁fetus	-12.1786
▁confederat	-12.1786
▁trauma	-12.1786
venir	-12.1786
▁chuck	-12.1786
▁connor	-12.1786
▁kraus	-12.1786
▁provocative	-12.1786
▁antiquit	-12.1786
▁convenien	-12.1786
▁siberia	-12.1786
▁desktop	-12.1786
▁vulnerabilit	-12.1786
▁pinpoint	-12.1786
▁worship	-12.1786
▁centimeter	-12.1786
▁wheat	-12.1786
▁jogg	-12.1786
▁appall	-12.1786
▁telecom	-12.1786
▁staunch	-12.1786
▁deterrent	-12.1786
▁spouse	-12.1786
▁provocation	-12.1786
▁blake	-12.1786
rift	-12.1787
▁pablo	-12.1787
▁faint	-12.1787
▁grape	-12.1787
▁braun	-12.1787
midt	-12.1787
▁grievance	-12.1787
▁mobilize	-12.1787
▁syndicat	-12.1787
▁registration	-12.1787
▁navigat	-12.1787
▁margar	-12.1787
▁heavyweight	-12.1787
▁minimiz	-12.1787
▁racket	-12.1788
▁seizure	-12.1788
lihood	-12.1788
▁niece	-12.1788
▁sultan	-12.1788
otto	-12.1788
▁description	-12.1788
▁koala	-12.1788
▁comparison	-12.1788
▁sundar	-12.1788
▁innovation	-12.1788
▁quail	-12.1788
▁vol	-12.1788
▁adolescent	-12.1788
▁lobbyist	-12.1789
▁rapist	-12.1789
▁renovat	-12.1789
▁recit	-12.1789
▁hobb	-12.1789
▁gangster	-12.179
gv	-12.179
descent	-12.179
▁neural	-12.179
▁contingent	-12.179
▁showcase	-12.179
▁prade	-12.179
▁summar	-12.179
▁siege	-12.179
▁sunny	-12.1791
▁patch	-12.1791
▁exert	-12.1791
▁garner	-12.1791
▁infantry	-12.1791
▁bruis	-12.1791
▁enthusiastic	-12.1791
▁malign	-12.1791
▁quell	-12.1791
▁rampage	-12.1791
▁replie	-12.1791
▁exploration	-12.1791
▁migration	-12.1792
▁groom	-12.1793
terol	-12.1793
▁fahr	-12.1793
▁assignment	-12.1793
▁guti	-12.1793
▁verge	-12.1794
▁secular	-12.1794
▁addiction	-12.1796
▁cache	-12.1796
▁elisa	-12.1796
▁balkan	-12.1797
▁racist	-12.1798
▁buff	-12.1798
▁mercur	-12.1799
▁yush	-12.18
▁flavor	-12.18
▁tusk	-12.18
▁quest	-12.18
▁psycho	-12.1801
▁ghost	-12.1801
▁meteorologist	-12.1801
▁mountainside	-12.1802
▁launder	-12.1802
▁dax	-12.1803
▁entitl	-12.1803
▁backward	-12.1803
▁bug	-12.1803
▁abdomen	-12.1806
erald	-12.1806
▁defiant	-12.1806
tze	-12.1807
▁hinder	-12.1808
▁woodland	-12.1808
▁honey	-12.1809
▁lagg	-12.1809
▁jali	-12.1811
▁sniper	-12.1811
▁burk	-12.1815
hni	-12.1816
▁worshipper	-12.1816
▁decepti	-12.1817
▁gripp	-12.1817
▁cellar	-12.1817
▁fundraiser	-12.1817
▁kennel	-12.1818
▁vick	-12.1819
▁mut	-12.182
▁latino	-12.1821
▁equalise	-12.1822
▁undermin	-12.1822
▁dock	-12.1822
pulse	-12.1823
▁detector	-12.1823
vej	-12.1824
▁sheep	-12.1825
▁festiv	-12.1826
eval	-12.1827
▁creative	-12.1828
▁flagg	-12.183
▁permitt	-12.1832
▁fabr	-12.1835
▁stoning	-12.1835
▁underline	-12.1836
radic	-12.1838
▁brace	-12.1838
▁representation	-12.184
▁abram	-12.184
▁stark	-12.1843
▁orde	-12.1843
hop	-12.1844
▁hogan	-12.1846
▁tablet	-12.1848
▁wii	-12.185
▁parre	-12.185
▁kup	-12.185
▁composer	-12.1853
▁presentation	-12.1855
▁barber	-12.1856
▁attendant	-12.186
▁abdel	-12.1864
▁reunifi	-12.1868
▁philipp	-12.1869
▁sample	-12.1869
▁aspir	-12.1875
▁painter	-12.1875
arch	-12.1877
▁charm	-12.1879
▁vanish	-12.1879
▁canal	-12.188
▁mint	-12.188
▁forgive	-12.1881
▁junk	-12.1886
▁merit	-12.1894
▁goul	-12.1895
▁forgot	-12.1898
▁denial	-12.1906
▁vik	-12.1908
▁espan	-12.1909
▁belov	-12.1914
▁ross	-12.1915
▁portal	-12.1917
▁dera	-12.1918
▁terroriz	-12.1922
▁harve	-12.1926
gang	-12.1928
▁modifi	-12.1928
▁gert	-12.1929
▁campo	-12.1929
▁rupe	-12.1931
wick	-12.1932
▁menac	-12.1934
▁palat	-12.1937
▁swimmer	-12.1939
▁maure	-12.1939
▁mp	-12.194
asser	-12.1941
▁conrad	-12.1941
▁dancer	-12.1941
ails	-12.1942
▁vip	-12.1943
▁entertainer	-12.1946
nko	-12.1946
▁rout	-12.1948
▁architectur	-12.1952
▁dig	-12.1958
▁beam	-12.196
ference	-12.1962
▁assurance	-12.1965
run	-12.1971
hof	-12.1975
▁unha	-12.198
▁seb	-12.1987
▁shand	-12.2005
▁bha	-12.2008
rga	-12.2008
▁thriv	-12.201
▁airliner	-12.2014
▁winston	-12.202
▁accessor	-12.2025
▁matur	-12.203
▁mcc	-12.2031
narc	-12.2032
▁hath	-12.2035
▁educate	-12.2037
sworth	-12.2038
▁scholars	-12.2038
liberate	-12.2044
▁poet	-12.2046
tner	-12.2052
▁relevan	-12.2053
▁breeder	-12.2061
amo	-12.2073
▁chamb	-12.2079
▁hano	-12.2081
arat	-12.2085
zvo	-12.2093
ussi	-12.2108
▁arrange	-12.2111
▁rib	-12.2118
▁mitr	-12.2132
kka	-12.2134
rink	-12.2136
qia	-12.2137
orf	-12.2156
▁interfere	-12.2156
▁leve	-12.2165
▁cling	-12.2167
igat	-12.218
▁cater	-12.2186
▁veer	-12.2191
▁glamor	-12.2194
▁briton	-12.2197
▁fata	-12.2205
▁bernie	-12.2207
bbie	-12.2212
▁gut	-12.222
rose	-12.2233
▁spar	-12.2249
hol	-12.225
▁cata	-12.226
ughes	-12.227
▁hindus	-12.227
lino	-12.2272
laying	-12.2276
▁translat	-12.2282
▁topic	-12.2282
▁interact	-12.2285
▁blend	-12.2286
hall	-12.2294
shad	-12.2305
▁deposit	-12.2306
▁graz	-12.2314
▁slo	-12.2322
▁paradi	-12.2338
▁moussa	-12.2342
▁suk	-12.2345
▁coaster	-12.2346
▁communicat	-12.2358
▁sore	-12.2383
penh	-12.239
olation	-12.2401
▁trickl	-12.2404
dem	-12.2405
hart	-12.2414
▁poli	-12.2419
track	-12.2422
clips	-12.2433
uno	-12.2448
lloy	-12.2458
▁wishe	-12.2468
▁inhale	-12.2487
opo	-12.2487
▁210	-12.2516
▁intentional	-12.2517
▁begg	-12.2519
oza	-12.2526
onna	-12.253
▁scare	-12.2542
▁shade	-12.2564
▁enhanc	-12.2577
rio	-12.2582
believ	-12.2584
▁pil	-12.2592
chec	-12.2597
▁lal	-12.26
smith	-12.2619
sour	-12.2621
▁alp	-12.2623
illionaire	-12.2624
blood	-12.2625
daughter	-12.2626
speak	-12.2627
affect	-12.2627
system	-12.2628
ichi	-12.2631
lock	-12.2633
inawa	-12.2634
drop	-12.2637
life	-12.2637
flower	-12.264
found	-12.2649
season	-12.2661
▁loser	-12.2662
▁mediate	-12.2663
▁swo	-12.2677
▁spen	-12.268
edro	-12.268
davi	-12.2683
▁sig	-12.2698
poly	-12.2699
teve	-12.2706
▁searche	-12.2706
egu	-12.2716
tis	-12.2721
▁tag	-12.2724
union	-12.2733
pick	-12.2734
▁fortifi	-12.2737
▁chole	-12.2749
▁repressi	-12.275
▁cure	-12.2755
logical	-12.276
▁explore	-12.2762
▁sali	-12.2767
atu	-12.2782
▁conventional	-12.2786
▁chan	-12.2796
zee	-12.2811
bly	-12.2812
▁jitter	-12.2815
urk	-12.2817
grad	-12.282
ermo	-12.2837
▁duk	-12.2838
▁distinct	-12.2862
▁julia	-12.2875
▁gala	-12.289
gio	-12.2913
▁mg	-12.2919
▁meteorologi	-12.2919
cap	-12.2923
fold	-12.2937
▁sel	-12.297
ethane	-12.2973
ivor	-12.2983
▁claud	-12.2989
zer	-12.3003
veral	-12.3005
dong	-12.3015
ryl	-12.302
▁antibiotic	-12.302
lene	-12.3022
▁pier	-12.3037
thic	-12.3048
▁exclusi	-12.3055
olog	-12.3062
user	-12.3074
▁russe	-12.3093
▁terminat	-12.31
▁electora	-12.3107
samm	-12.3115
itu	-12.3123
▁dri	-12.3131
▁gunfi	-12.3134
▁columbi	-12.3139
▁fest	-12.315
▁refu	-12.3167
▁compensat	-12.3171
tique	-12.3172
ibu	-12.3177
▁proportion	-12.3192
▁thrive	-12.3194
▁francesc	-12.3194
lla	-12.321
▁flan	-12.3217
▁municipal	-12.3245
immer	-12.3246
nur	-12.3252
▁roth	-12.3255
▁jae	-12.3256
▁deco	-12.3277
dero	-12.3285
▁stab	-12.3293
qi	-12.3295
▁bark	-12.3297
ailment	-12.3297
▁gho	-12.33
xist	-12.3303
▁dismantl	-12.3319
▁milita	-12.332
▁complicate	-12.332
patri	-12.3323
▁enro	-12.3342
bane	-12.3364
▁scarf	-12.3364
iah	-12.3369
▁construct	-12.3369
▁nativ	-12.3371
▁bot	-12.3375
▁resum	-12.3376
▁cav	-12.3379
▁yoshi	-12.3387
olic	-12.3388
▁cop	-12.339
▁spect	-12.3393
▁physic	-12.3398
wall	-12.3413
napp	-12.3426
▁pill	-12.3428
▁carl	-12.3435
▁unhapp	-12.3435
▁pronoun	-12.3437
▁transparen	-12.3438
▁uncomm	-12.3438
▁undertak	-12.3438
kaya	-12.3441
gay	-12.3444
▁hoi	-12.3445
▁implicat	-12.3446
▁inject	-12.3446
▁zhi	-12.3449
▁boot	-12.3449
▁enthusiast	-12.345
feld	-12.3451
kfor	-12.3452
▁whirl	-12.3452
▁reminisce	-12.3452
▁contradict	-12.3452
ophag	-12.3453
▁administer	-12.3453
▁binocular	-12.3453
▁brawl	-12.3453
▁culminat	-12.3453
▁culver	-12.3453
▁downpour	-12.3453
▁flourish	-12.3453
▁fluctuat	-12.3453
▁greyhound	-12.3453
▁hierarch	-12.3453
▁illuminat	-12.3453
▁injustice	-12.3453
▁instinct	-12.3453
▁irrigat	-12.3453
▁lenient	-12.3453
▁lifestyle	-12.3453
▁lithuania	-12.3453
▁mathematic	-12.3453
▁mechanism	-12.3453
▁mogul	-12.3453
▁munchkin	-12.3453
▁obscure	-12.3453
▁ordinance	-12.3453
▁overhaul	-12.3453
▁overshadow	-12.3453
▁peatland	-12.3453
▁prevail	-12.3453
▁python	-12.3453
▁recharge	-12.3453
▁sabhnani	-12.3453
▁salvador	-12.3453
▁shrunk	-12.3453
▁slovakia	-12.3453
▁succumb	-12.3453
▁traitor	-12.3453
▁unravel	-12.3453
▁wheelchair	-12.3453
▁audiotape	-12.3453
▁bypass	-12.3453
▁erratic	-12.3453
▁estrange	-12.3453
▁obsess	-12.3453
▁pearl	-12.3453
▁reclaim	-12.3453
▁rhythm	-12.3453
▁conceive	-12.3453
▁explicit	-12.3453
▁seismic	-12.3453
▁stereo	-12.3453
▁wizard	-12.3453
▁notorious	-12.3453
▁churn	-12.3453
▁enlist	-12.3453
▁gauge	-12.3453
▁congest	-12.3453
▁gorilla	-12.3453
▁senegal	-12.3453
▁smear	-12.3453
▁quinn	-12.3453
▁verify	-12.3453
suzu	-12.3453
▁dweller	-12.3453
▁lawrence	-12.3453
▁parasit	-12.3453
▁heaven	-12.3453
▁shrive	-12.3453
▁stint	-12.3453
▁reinforcement	-12.3453
▁scour	-12.3453
▁xavi	-12.3453
▁penaliz	-12.3453
hcr	-12.3453
▁obeid	-12.3453
▁superstar	-12.3453
▁dissent	-12.3453
▁abolish	-12.3453
▁rabbit	-12.3453
▁jelly	-12.3453
▁smog	-12.3453
▁zheng	-12.3453
▁empower	-12.3453
▁euthan	-12.3453
▁salute	-12.3453
▁snowstorm	-12.3453
▁butterfl	-12.3453
▁imagination	-12.3453
▁trumpet	-12.3453
▁bulb	-12.3453
▁confucian	-12.3453
▁automaker	-12.3453
▁gentle	-12.3453
▁passionate	-12.3453
▁eldor	-12.3453
▁blank	-12.3453
buchar	-12.3453
▁bulk	-12.3453
▁patron	-12.3453
▁chopper	-12.3453
▁weird	-12.3453
dzie	-12.3454
▁defamat	-12.3454
▁hamza	-12.3454
▁ardent	-12.3454
▁kampu	-12.3454
▁vague	-12.3454
▁mixture	-12.3454
ayda	-12.3454
dental	-12.3454
▁attire	-12.3454
▁gerald	-12.3454
▁crick	-12.3454
▁automobile	-12.3454
▁falter	-12.3454
▁mongol	-12.3454
▁ecsta	-12.3454
▁advertisement	-12.3454
▁vacan	-12.3455
▁crisscross	-12.3455
▁chiap	-12.3455
▁buffet	-12.3455
▁blockade	-12.3455
▁browser	-12.3455
▁barbour	-12.3455
▁fundamentalist	-12.3455
tamba	-12.3455
▁nuts	-12.3455
▁disturbance	-12.3455
▁organism	-12.3456
▁erotic	-12.3456
▁orphanage	-12.3456
▁liang	-12.3456
▁verbal	-12.3456
elipe	-12.3456
▁rip	-12.3456
▁cosmo	-12.3457
▁funnel	-12.3457
▁luke	-12.3457
▁headscar	-12.3457
▁midw	-12.3457
▁jedi	-12.3458
▁floodwater	-12.3458
▁deliberation	-12.3458
▁airlift	-12.3458
tractor	-12.3458
▁depot	-12.3458
▁mock	-12.3458
▁unilateral	-12.3459
akou	-12.3459
▁motorist	-12.3459
▁accomplishment	-12.3459
▁illustrate	-12.346
▁correspondent	-12.346
▁workplace	-12.346
▁battlefield	-12.3461
▁baptist	-12.3461
▁impeach	-12.3461
▁bandit	-12.3461
▁stow	-12.3461
▁perpetrator	-12.3462
▁swath	-12.3462
▁feud	-12.3462
▁conglomerate	-12.3462
▁owen	-12.3462
▁saucer	-12.3463
▁woke	-12.3463
▁hangar	-12.3464
anzani	-12.3464
▁legalize	-12.3465
▁lugo	-12.3466
▁lenno	-12.3467
▁caval	-12.3467
▁andrea	-12.3468
▁nutritional	-12.3468
▁botani	-12.3468
▁authoritarian	-12.3469
▁haggl	-12.3469
▁abdom	-12.347
▁levan	-12.3472
▁constituenc	-12.3472
etti	-12.3472
▁adorn	-12.3473
▁slugg	-12.3473
▁tempo	-12.3473
▁foment	-12.3473
▁migrat	-12.3475
▁composition	-12.3475
▁counselor	-12.3475
▁reinforc	-12.3477
▁usher	-12.3477
▁naught	-12.3477
▁sideline	-12.3478
▁qualifier	-12.3478
▁deka	-12.3479
heddin	-12.3479
▁commend	-12.3479
▁pedophile	-12.348
▁baza	-12.348
▁heller	-12.3481
▁chef	-12.3481
▁tig	-12.3482
phem	-12.3483
▁interrogat	-12.3484
▁spacewalk	-12.3486
eera	-12.3486
▁reap	-12.3486
▁glea	-12.3488
avaro	-12.3489
uarte	-12.3492
▁reck	-12.3493
▁shutter	-12.3493
▁finalist	-12.3494
▁boil	-12.3495
▁850	-12.3495
▁physiolog	-12.3496
▁tram	-12.3498
▁upward	-12.35
azer	-12.3506
▁ferrer	-12.3507
▁cheese	-12.3507
▁peng	-12.3507
▁mudsli	-12.3508
▁prion	-12.3508
▁robes	-12.351
tub	-12.3512
ganis	-12.3514
arira	-12.3514
▁decorat	-12.3516
▁bless	-12.3519
chiba	-12.3523
▁oppress	-12.3526
▁tapp	-12.3526
agua	-12.3527
▁walt	-12.3527
▁189	-12.3529
obe	-12.3529
▁181	-12.3531
▁gramma	-12.3532
mitz	-12.3533
▁fel	-12.3536
▁purv	-12.3538
▁nedo	-12.354
▁chak	-12.3541
▁wow	-12.3545
▁assumption	-12.3545
▁loosen	-12.3545
▁ritz	-12.3545
▁159	-12.3546
▁cheat	-12.3548
▁pinn	-12.355
▁provisional	-12.355
▁shal	-12.3555
byl	-12.3556
▁salar	-12.3557
enzy	-12.356
▁removal	-12.3561
▁slaying	-12.3565
▁124	-12.3565
▁millen	-12.3569
▁reminder	-12.3569
▁tender	-12.357
▁toshi	-12.3573
▁upro	-12.3575
▁deterr	-12.3581
▁socialis	-12.3584
▁113	-12.3584
▁kono	-12.3585
▁128	-12.3585
▁alme	-12.3586
▁tactical	-12.3588
▁salad	-12.3589
▁salary	-12.3597
▁toast	-12.3599
▁spal	-12.3605
liar	-12.3613
mund	-12.3613
fug	-12.3613
rving	-12.3617
▁citation	-12.3619
▁swear	-12.3622
▁natali	-12.3624
tanc	-12.363
▁marvel	-12.3631
▁arter	-12.3631
▁hijacker	-12.3634
dsl	-12.3637
▁misus	-12.3647
▁labe	-12.3659
▁jal	-12.366
▁allege	-12.3663
▁lac	-12.3664
ashan	-12.3672
▁sylvi	-12.3681
▁copt	-12.3684
▁flexib	-12.3685
▁yup	-12.3686
▁exceptional	-12.3686
▁humbl	-12.3694
mela	-12.3695
▁rider	-12.3699
▁knot	-12.3704
▁muha	-12.3706
▁mina	-12.3711
▁emili	-12.3715
▁proportional	-12.3715
nom	-12.3716
ibera	-12.3717
usk	-12.3718
▁valen	-12.3719
▁fractur	-12.3721
▁shim	-12.3722
▁genero	-12.3729
▁shahr	-12.3731
▁dann	-12.3731
saur	-12.3732
▁foray	-12.3733
pho	-12.3734
▁lumb	-12.3737
uru	-12.374
▁correction	-12.3746
▁dorm	-12.3748
▁enforc	-12.3749
▁distill	-12.3759
▁fili	-12.3764
kau	-12.3773
▁christen	-12.3777
▁jenn	-12.3779
▁champ	-12.3783
▁mesh	-12.3785
▁peta	-12.3786
▁locke	-12.3798
486	-12.3816
▁cobbl	-12.3818
▁albe	-12.3819
▁timo	-12.382
santo	-12.3821
lia	-12.3824
▁mailer	-12.3825
▁glu	-12.3825
▁yog	-12.3827
▁vari	-12.3838
▁butter	-12.3842
aff	-12.3848
jun	-12.3853
▁basil	-12.3855
▁swell	-12.3858
▁troph	-12.3859
▁spann	-12.3867
ethy	-12.3868
dential	-12.3869
▁racis	-12.387
vell	-12.3871
einstei	-12.388
▁abid	-12.3883
esar	-12.3891
▁decode	-12.3896
▁restructur	-12.3913
▁molecul	-12.3926
▁waterway	-12.3927
▁grandm	-12.3939
▁pizz	-12.3942
kuni	-12.3945
▁calv	-12.3949
▁consula	-12.395
▁amt	-12.3957
▁inju	-12.3963
letti	-12.3965
rita	-12.3967
▁dye	-12.3968
▁shiny	-12.3976
▁plat	-12.3983
lese	-12.3994
▁zem	-12.3994
ifer	-12.3995
▁suite	-12.3995
▁meteor	-12.3996
niche	-12.3996
clusion	-12.3999
ardi	-12.4002
cted	-12.4004
gna	-12.4014
▁holi	-12.4045
▁karn	-12.4051
estation	-12.4056
▁hostilit	-12.4057
▁mang	-12.406
▁discourage	-12.4062
eller	-12.4066
gara	-12.4068
▁resembl	-12.4069
▁pierc	-12.4075
▁mute	-12.408
berger	-12.4083
lage	-12.4087
hov	-12.4089
pusa	-12.4093
▁haniy	-12.4095
tsk	-12.4112
ffel	-12.4112
borg	-12.4113
rigi	-12.4126
pression	-12.4126
noid	-12.413
▁excite	-12.4143
qo	-12.4182
hog	-12.4182
▁convene	-12.4186
▁mink	-12.4192
▁cabb	-12.4197
veh	-12.4223
▁hollo	-12.4254
nshine	-12.4257
capa	-12.4263
gged	-12.4276
javi	-12.4277
raged	-12.43
bord	-12.4301
acher	-12.4317
▁pressur	-12.432
spirator	-12.4332
taino	-12.4338
▁outsider	-12.4344
▁alga	-12.4345
atherin	-12.4373
provoke	-12.4378
▁mutt	-12.4387
▁addresse	-12.4399
▁hark	-12.4422
etal	-12.4424
▁bite	-12.4438
▁reg	-12.4451
tog	-12.4469
▁hander	-12.4483
121	-12.4491
eem	-12.4497
lio	-12.4513
▁clip	-12.4517
▁finaliz	-12.452
▁scrub	-12.4541
afa	-12.4545
▁atom	-12.4562
unker	-12.4564
▁resona	-12.4568
ahab	-12.4569
ieve	-12.4571
icker	-12.4572
politan	-12.4576
lion	-12.4579
cliff	-12.4582
▁celesti	-12.4584
▁tackl	-12.4587
adequate	-12.4591
▁adh	-12.4601
spray	-12.4604
▁reache	-12.4607
drow	-12.4611
frame	-12.4614
constitutional	-12.4617
▁helsin	-12.462
certain	-12.4621
parent	-12.4624
activit	-12.4625
loo	-12.4626
secretar	-12.4627
▁drinker	-12.4634
box	-12.4638
nsu	-12.4639
letter	-12.464
burst	-12.464
wada	-12.4644
case	-12.4647
▁arche	-12.465
pon	-12.4651
conduct	-12.4656
lk	-12.4662
media	-12.4664
▁mechanic	-12.4665
cover	-12.4666
moon	-12.4668
sense	-12.4669
grow	-12.4673
zzy	-12.469
▁fosse	-12.4698
▁interfer	-12.4698
comb	-12.4703
dze	-12.4704
ospi	-12.473
doubted	-12.4731
walker	-12.4732
wage	-12.474
ngji	-12.4755
affe	-12.4795
▁dispers	-12.4798
▁kli	-12.4803
fill	-12.4808
▁turki	-12.4819
hang	-12.482
ipa	-12.4838
leb	-12.4866
▁clu	-12.4877
soon	-12.4891
▁capitaliz	-12.4894
165	-12.4914
▁scarce	-12.4917
link	-12.4964
▁mccla	-12.4968
▁appreciat	-12.4969
▁abide	-12.4985
108	-12.4992
▁sag	-12.5033
vot	-12.5034
trayal	-12.5051
▁replica	-12.5059
uca	-12.5065
▁diver	-12.5066
assum	-12.5068
▁mow	-12.5085
step	-12.51
▁kee	-12.5112
▁corpora	-12.5114
omb	-12.5132
▁fracture	-12.5134
▁relation	-12.5164
▁dh	-12.5167
chilling	-12.5167
▁baile	-12.5171
ublin	-12.5184
ngu	-12.5185
conscious	-12.5196
▁bounce	-12.5196
pac	-12.5197
▁emil	-12.5203
avia	-12.5206
bian	-12.5219
▁cycl	-12.5221
▁gag	-12.5222
▁cobb	-12.5225
ilde	-12.5237
chett	-12.5248
morr	-12.5274
▁notabl	-12.5278
▁harri	-12.5297
▁185	-12.53
illon	-12.5306
sibilit	-12.5326
xia	-12.5342
actic	-12.5357
▁specif	-12.5364
laughter	-12.537
laus	-12.5371
▁glob	-12.5372
▁civiliz	-12.5373
▁crow	-12.5385
hunt	-12.5386
▁cram	-12.5392
▁freight	-12.5399
▁logg	-12.5401
▁barc	-12.5405
▁advoca	-12.5413
▁consu	-12.543
▁flip	-12.5432
▁flavo	-12.5432
▁emphasi	-12.5434
▁snap	-12.5436
▁efficien	-12.5438
scription	-12.5439
scope	-12.544
▁perpetrat	-12.5441
▁activis	-12.5443
culate	-12.5444
▁reconstruct	-12.5446
possi	-12.5447
▁clint	-12.5447
▁incur	-12.5447
▁schwar	-12.5449
▁gibb	-12.5449
▁audit	-12.5449
▁divisi	-12.545
▁biotech	-12.545
▁dynami	-12.545
▁faw	-12.5451
plex	-12.5451
metric	-12.5451
▁griev	-12.5452
compass	-12.5452
anthropolog	-12.5452
calypt	-12.5452
▁encephal	-12.5452
▁revitaliz	-12.5452
menopaus	-12.5452
▁anglican	-12.5452
▁annihilat	-12.5452
▁applicant	-12.5452
▁bikini	-12.5452
▁bioengineer	-12.5452
▁charlotte	-12.5452
▁cochran	-12.5452
▁contagio	-12.5452
▁cosmetic	-12.5452
▁culprit	-12.5452
▁curiosit	-12.5452
▁cylinder	-12.5452
▁decapitat	-12.5452
▁declassif	-12.5452
▁dilemma	-12.5452
▁divulg	-12.5452
▁dungeon	-12.5452
▁exacerbat	-12.5452
▁exaggerat	-12.5452
▁extravagan	-12.5452
▁frequenc	-12.5452
▁homeowner	-12.5452
▁hotspot	-12.5452
▁immense	-12.5452
▁indulge	-12.5452
▁jockey	-12.5452
▁malfunction	-12.5452
▁maverick	-12.5452
▁microwave	-12.5452
▁mothball	-12.5452
▁neglect	-12.5452
▁orthopedic	-12.5452
▁outsourc	-12.5452
▁pancrea	-12.5452
▁penguin	-12.5452
▁perfume	-12.5452
▁pharaoh	-12.5452
▁precondition	-12.5452
▁quarantine	-12.5452
▁reappear	-12.5452
▁relinquish	-12.5452
▁resilien	-12.5452
▁rhoad	-12.5452
▁salvage	-12.5452
▁skeleton	-12.5452
▁skyscraper	-12.5452
▁subtitle	-12.5452
▁susceptib	-12.5452
▁torchbearer	-12.5452
▁tourniquet	-12.5452
▁unlawful	-12.5452
▁whisper	-12.5452
trastevere	-12.5453
▁belarus	-12.5453
▁cheetah	-12.5453
▁clergy	-12.5453
▁glitch	-12.5453
▁gynecolog	-12.5453
▁lizard	-12.5453
▁lodging	-12.5453
▁mcclinto	-12.5453
▁panoram	-12.5453
▁pupil	-12.5453
▁regenerat	-12.5453
▁revamp	-12.5453
▁spiral	-12.5453
▁suffocat	-12.5453
▁swirl	-12.5453
▁tirade	-12.5453
▁chinook	-12.5453
▁dwarf	-12.5453
▁guerre	-12.5453
▁parcel	-12.5453
▁steroid	-12.5453
▁tumult	-12.5453
▁conquer	-12.5453
▁cradl	-12.5453
▁deflect	-12.5453
▁gujjar	-12.5453
▁mound	-12.5453
▁vcr	-12.5453
▁unwilling	-12.5453
▁vaugh	-12.5453
▁vivid	-12.5453
▁brazen	-12.5453
▁crescent	-12.5453
▁backpack	-12.5453
▁classify	-12.5453
▁creek	-12.5453
▁blazing	-12.5453
▁glitz	-12.5453
▁mortal	-12.5453
▁staph	-12.5453
▁purpl	-12.5453
▁adolf	-12.5453
▁complicit	-12.5453
▁improp	-12.5453
tacean	-12.5453
▁unconta	-12.5453
▁soybean	-12.5453
▁chrys	-12.5453
▁snag	-12.5453
▁brigade	-12.5453
▁picnic	-12.5453
▁thumb	-12.5453
▁ferment	-12.5453
▁analog	-12.5453
▁induce	-12.5453
▁moviegoer	-12.5453
▁appetite	-12.5453
▁donkey	-12.5453
▁preview	-12.5453
▁roast	-12.5453
▁firearm	-12.5453
▁epit	-12.5453
▁pomp	-12.5453
▁xiao	-12.5453
▁corral	-12.5453
▁oblige	-12.5453
▁interruption	-12.5453
▁kayak	-12.5453
▁sneake	-12.5454
▁whitti	-12.5454
▁neutralize	-12.5454
▁gyan	-12.5454
▁curious	-12.5454
▁vendor	-12.5454
▁wrist	-12.5454
▁defence	-12.5454
▁cereal	-12.5454
▁forthcoming	-12.5454
▁grocer	-12.5454
▁corru	-12.5454
▁blond	-12.5454
▁thunder	-12.5454
▁pediatrician	-12.5454
artis	-12.5454
▁doctrine	-12.5454
▁penetrat	-12.5454
▁towel	-12.5454
▁pluck	-12.5454
▁flopp	-12.5454
▁purse	-12.5455
▁dismay	-12.5455
▁backyard	-12.5455
▁mimic	-12.5455
▁freak	-12.5455
▁pileup	-12.5455
▁tanner	-12.5455
▁rope	-12.5455
▁void	-12.5455
▁notify	-12.5455
▁copyright	-12.5455
▁unnerv	-12.5455
disproportionate	-12.5455
▁consulate	-12.5455
ollea	-12.5455
ampton	-12.5455
extraterrestrial	-12.5455
▁kindergarten	-12.5455
▁stumbl	-12.5456
▁peek	-12.5456
▁arsen	-12.5456
▁dispel	-12.5456
▁fool	-12.5456
▁resent	-12.5456
▁guitarist	-12.5456
▁sensibilit	-12.5456
▁jerem	-12.5456
ooze	-12.5456
▁fasci	-12.5456
▁relegat	-12.5456
▁shrugg	-12.5456
▁muddy	-12.5456
▁exemption	-12.5456
▁neuro	-12.5457
▁rhon	-12.5457
▁aisle	-12.5457
▁horri	-12.5457
▁revel	-12.5457
enchant	-12.5457
▁booth	-12.5457
▁brokerage	-12.5457
▁stimulant	-12.5457
▁digest	-12.5457
▁revelation	-12.5458
irming	-12.5458
▁frederic	-12.5458
▁elevation	-12.5458
▁systematic	-12.5458
▁guiller	-12.5458
rassin	-12.5458
▁variation	-12.5459
▁bachelor	-12.5459
▁offset	-12.5459
▁leverage	-12.5459
▁eclipse	-12.5459
▁consist	-12.5459
▁subscriber	-12.5459
▁aspiration	-12.546
kim	-12.546
▁tasting	-12.546
▁pristin	-12.5461
▁lapse	-12.5461
▁throng	-12.5461
▁lazi	-12.5462
▁claw	-12.5462
▁loung	-12.5462
▁inexperience	-12.5462
▁endeavor	-12.5462
▁politicize	-12.5463
▁manipulation	-12.5463
▁totalitarian	-12.5464
▁relocation	-12.5464
▁sixteen	-12.5464
▁snack	-12.5465
ebok	-12.5465
▁auditor	-12.5465
▁handset	-12.5466
▁fledg	-12.5466
▁morris	-12.5466
▁bidder	-12.5467
▁grassland	-12.5467
▁indigen	-12.5467
▁eros	-12.5467
tzfeld	-12.5467
▁1920	-12.5468
▁versa	-12.5468
▁feast	-12.5469
▁flush	-12.5469
▁guardian	-12.5469
▁boule	-12.547
▁adaptation	-12.547
▁monro	-12.547
eject	-12.547
▁statute	-12.5471
licious	-12.5471
▁frustration	-12.5472
▁calc	-12.5473
▁flipp	-12.5473
agh	-12.5473
▁confidential	-12.5473
▁maggi	-12.5474
▁revision	-12.5474
▁keyboard	-12.5475
▁matchup	-12.5475
▁wallet	-12.5475
▁certifi	-12.5476
tamina	-12.5476
▁uphold	-12.5476
▁justif	-12.5476
▁dash	-12.5477
▁dior	-12.5478
▁scorch	-12.5478
▁veil	-12.5479
negar	-12.5479
▁showroom	-12.5479
unch	-12.5482
▁sleeve	-12.5484
▁contributor	-12.5485
▁playoff	-12.5485
coni	-12.5487
▁thoms	-12.5488
▁decent	-12.5488
▁logi	-12.5491
▁makeover	-12.5491
reau	-12.5492
▁porn	-12.5492
▁scann	-12.5492
▁subsidiz	-12.5493
▁demon	-12.5493
▁evad	-12.5493
arious	-12.5495
▁portrayal	-12.5496
▁alias	-12.5499
▁reforest	-12.5499
▁marcia	-12.55
▁max	-12.55
▁occupy	-12.5501
roso	-12.5506
▁directive	-12.551
▁wax	-12.5511
▁hallway	-12.5513
▁logger	-12.5513
▁legg	-12.5514
▁bulge	-12.5514
▁wag	-12.5518
▁hillside	-12.5518
▁tempt	-12.5519
▁persi	-12.552
▁prediction	-12.552
gill	-12.5521
▁ascend	-12.5523
saud	-12.5523
▁cement	-12.5524
▁saha	-12.5528
▁nurtur	-12.5528
▁316	-12.5528
▁chua	-12.5529
▁beast	-12.553
▁daint	-12.5531
▁spru	-12.5532
▁ceza	-12.5534
uck	-12.5536
▁conf	-12.5536
ratify	-12.5536
adav	-12.5537
gawa	-12.5537
▁sock	-12.5537
▁maul	-12.5537
▁chul	-12.5539
egis	-12.554
knesse	-12.5542
▁plow	-12.5549
▁163	-12.555
mmers	-12.5554
▁afl	-12.5565
▁watt	-12.5566
▁indicator	-12.5568
▁151	-12.5573
▁valve	-12.5576
▁berl	-12.5579
▁hedg	-12.558
▁mcg	-12.5581
▁twister	-12.5587
oria	-12.559
imba	-12.559
▁rile	-12.5592
▁kristin	-12.5593
nstop	-12.5597
▁123	-12.5597
dao	-12.5597
▁mamm	-12.5598
▁runaway	-12.56
▁unde	-12.5602
iki	-12.5603
▁loren	-12.5605
▁pitcher	-12.5611
▁siren	-12.5617
▁metha	-12.5619
▁kur	-12.5623
▁juno	-12.5623
pinning	-12.5624
▁lumina	-12.5638
▁perk	-12.5638
▁warhead	-12.5639
▁yb	-12.5644
▁evasi	-12.5647
▁skeptical	-12.5648
▁patrioti	-12.5648
▁lankan	-12.5661
▁birdie	-12.5663
▁verse	-12.5665
▁defus	-12.5666
ffen	-12.5666
undi	-12.5668
▁condo	-12.5668
▁bangladeshi	-12.5669
▁mold	-12.5677
▁fume	-12.5677
▁122	-12.5681
▁reproducti	-12.5682
▁skinn	-12.5683
▁levee	-12.5688
mex	-12.5689
▁parkin	-12.569
▁tutori	-12.569
▁banish	-12.5691
▁sincere	-12.5696
caul	-12.5701
▁tempel	-12.5703
▁lookout	-12.571
▁sadden	-12.5713
▁bounc	-12.5715
asahi	-12.5716
shes	-12.5718
andem	-12.5719
eodor	-12.5727
▁symboliz	-12.5727
▁brim	-12.573
▁tenzin	-12.5731
▁retriev	-12.5731
▁shamb	-12.5737
▁leaf	-12.5744
moud	-12.5745
▁freeway	-12.5745
▁dani	-12.5745
▁schum	-12.5751
jir	-12.5753
vaz	-12.5764
ylan	-12.577
idf	-12.5776
viole	-12.5781
▁wrack	-12.5785
▁sharpen	-12.5786
▁cro	-12.5789
435	-12.5789
▁heft	-12.5802
▁eater	-12.5804
▁marw	-12.5812
azon	-12.5814
▁casa	-12.5821
thle	-12.5829
▁glove	-12.5837
bergen	-12.5838
▁niss	-12.5839
▁maur	-12.5844
conception	-12.5849
▁workout	-12.5849
ourish	-12.5867
istani	-12.5876
kma	-12.5882
lays	-12.5888
▁dp	-12.589
▁interfa	-12.5895
▁kul	-12.5898
▁molo	-12.592
tonia	-12.5939
▁nag	-12.596
▁knu	-12.5971
▁subversi	-12.598
▁imperialis	-12.5984
▁lunche	-12.599
▁readi	-12.6008
lung	-12.601
compensate	-12.6026
idal	-12.6027
robe	-12.6028
vera	-12.603
comfortabl	-12.6038
hough	-12.6053
avi	-12.6054
▁mama	-12.6073
▁tit	-12.6088
▁gian	-12.61
avo	-12.6116
gina	-12.6118
▁analyz	-12.6124
ivo	-12.6126
▁zac	-12.6133
trea	-12.6139
▁mach	-12.614
tox	-12.614
▁withstand	-12.6141
ghaz	-12.6152
omo	-12.617
riq	-12.62
adilla	-12.6203
rail	-12.621
ladi	-12.6213
epsi	-12.6215
▁disciplin	-12.6229
uti	-12.6239
▁drumm	-12.6278
ulli	-12.6309
meter	-12.6318
▁shia	-12.6333
▁integrate	-12.6357
▁murderer	-12.6367
▁renounc	-12.6384
brough	-12.6387
aples	-12.639
▁haw	-12.6399
▁industrializ	-12.6399
ith	-12.6408
raves	-12.6413
▁reactivat	-12.6438
▁stagna	-12.6441
▁gha	-12.6461
kow	-12.6479
▁zaina	-12.6495
▁adre	-12.6508
▁silenc	-12.651
▁naiv	-12.6516
▁ruth	-12.6556
wig	-12.6561
▁adj	-12.6562
bh	-12.6574
▁swoo	-12.6577
isse	-12.659
▁prosecut	-12.6597
▁stun	-12.6604
vision	-12.6614
▁papa	-12.6625
▁hartl	-12.663
ulder	-12.6631
▁prosecute	-12.6638
▁stockhol	-12.665
huk	-12.6653
heid	-12.6661
▁bacteri	-12.6661
▁gigg	-12.6678
▁outspen	-12.6692
▁forci	-12.6705
lv	-12.6706
▁hwan	-12.6707
bbe	-12.6723
▁marker	-12.6734
▁caf	-12.6741
pine	-12.6754
ranj	-12.6775
hoff	-12.6781
loh	-12.6784
writer	-12.6798
▁curl	-12.6805
▁multimillion	-12.6805
gel	-12.6808
hief	-12.6846
rado	-12.6849
iru	-12.6868
▁renounce	-12.6872
▁boundar	-12.6876
forest	-12.6896
▁conan	-12.6897
▁qur	-12.6902
▁dega	-12.6903
▁conven	-12.6904
hashi	-12.6924
▁repress	-12.694
▁reassure	-12.6943
▁marina	-12.6949
opi	-12.6969
morga	-12.6972
satur	-12.6972
▁utilize	-12.6985
▁salam	-12.6988
▁behave	-12.7002
cry	-12.7019
▁drum	-12.7042
elect	-12.7048
▁graze	-12.7083
accurate	-12.7084
▁translate	-12.7084
▁sync	-12.7085
tale	-12.7096
rul	-12.7097
brook	-12.71
proof	-12.7103
roof	-12.7104
adio	-12.7104
visibl	-12.7106
atlantic	-12.7111
cuba	-12.7112
hawk	-12.7112
chang	-12.7114
blaze	-12.7115
view	-12.7116
export	-12.7123
necessar	-12.7124
match	-12.7127
account	-12.7128
street	-12.7128
economic	-12.7128
bring	-12.713
▁kyu	-12.7134
glass	-12.7136
▁blan	-12.7136
food	-12.7137
storm	-12.7139
rock	-12.7142
root	-12.7142
stopp	-12.7143
guide	-12.7157
note	-12.7163
will	-12.7163
trust	-12.7164
scot	-12.7168
▁sele	-12.7175
ridge	-12.7176
reacher	-12.7194
▁vene	-12.7196
▁paran	-12.7199
burn	-12.7202
tcher	-12.7209
▁barge	-12.7227
▁glamo	-12.7249
▁prob	-12.7258
acio	-12.727
▁cham	-12.7274
▁humili	-12.7301
▁imperial	-12.7311
yadi	-12.7318
empt	-12.7324
▁mole	-12.734
rek	-12.734
vader	-12.7346
kel	-12.7352
▁unfi	-12.7369
keli	-12.7371
▁peg	-12.7378
cable	-12.7379
▁kho	-12.7401
▁lever	-12.7432
▁koo	-12.7448
ireles	-12.745
▁markov	-12.7454
muz	-12.7458
▁kink	-12.7476
▁advocat	-12.7494
hala	-12.7496
▁scholar	-12.7504
▁oliv	-12.7548
▁prima	-12.7549
▁raja	-12.7555
019	-12.7567
▁barb	-12.7584
▁socio	-12.7598
terre	-12.76
▁wol	-12.7621
▁ballooni	-12.7621
alley	-12.7622
rank	-12.7642
▁expo	-12.7656
adhi	-12.766
▁revol	-12.7667
eij	-12.7673
ozo	-12.7676
▁reproduc	-12.7681
hili	-12.7689
▁pari	-12.7691
▁ecolog	-12.7693
▁circula	-12.7706
▁kilo	-12.7715
▁slavi	-12.7717
▁memorab	-12.772
destine	-12.7727
915	-12.7728
▁murta	-12.7755
lusive	-12.7774
quan	-12.7775
▁machin	-12.7782
iffe	-12.7785
lani	-12.7786
nagan	-12.7786
▁whisk	-12.7792
pala	-12.7792
accessi	-12.7792
lumin	-12.7805
▁calve	-12.7806
ilia	-12.7819
▁etern	-12.7826
▁wetang	-12.7827
▁scam	-12.7834
▁forbid	-12.7838
▁stew	-12.7841
▁lex	-12.7842
▁messag	-12.7845
▁natal	-12.785
affle	-12.7851
witch	-12.7862
▁exercis	-12.7866
▁flam	-12.7867
▁airwa	-12.7867
gregate	-12.7872
▁firefight	-12.7874
▁residenc	-12.7878
▁logic	-12.7883
lavic	-12.7888
▁bolivar	-12.7891
▁cope	-12.7896
omer	-12.7897
retti	-12.7897
▁salah	-12.7899
pun	-12.7908
▁profession	-12.7916
▁abdo	-12.7921
▁hag	-12.7921
▁constituen	-12.7922
▁entit	-12.7923
culin	-12.7923
▁albania	-12.7924
▁webb	-12.793
▁sauce	-12.7937
▁elevat	-12.794
▁stir	-12.7941
▁vertebra	-12.7943
▁eviden	-12.7945
▁resolut	-12.7946
herbe	-12.7948
▁dictat	-12.795
▁jeopard	-12.7952
▁trump	-12.7952
▁nausea	-12.7952
reconcil	-12.7952
tact	-12.7952
▁verti	-12.7952
cragg	-12.7952
▁consequent	-12.7952
▁horizontal	-12.7952
accredit	-12.7952
nuptial	-12.7952
ollec	-12.7952
osexual	-12.7952
▁accomplice	-12.7952
▁adjourn	-12.7952
▁aeronautic	-12.7952
▁afflict	-12.7952
▁affluen	-12.7952
▁alleviat	-12.7952
▁antioxidant	-12.7952
▁archipelag	-12.7952
▁aurora	-12.7952
▁bulldozer	-12.7952
▁caricature	-12.7952
▁ceramic	-12.7952
▁certificate	-12.7952
▁chestnut	-12.7952
▁clutch	-12.7952
▁cocktail	-12.7952
▁crawl	-12.7952
▁default	-12.7952
▁disregard	-12.7952
▁disrespect	-12.7952
▁disseminate	-12.7952
▁emphatic	-12.7952
▁enclave	-12.7952
▁entrepreneur	-12.7952
▁envelop	-12.7952
▁falluja	-12.7952
▁fraternit	-12.7952
▁frontrunner	-12.7952
▁futurist	-12.7952
▁giselle	-12.7952
▁glitter	-12.7952
▁griffi	-12.7952
▁juventu	-12.7952
▁lifeboat	-12.7952
▁magnifi	-12.7952
▁manuscript	-12.7952
▁matthew	-12.7952
▁mauritania	-12.7952
▁milligram	-12.7952
▁miscarriage	-12.7952
▁modify	-12.7952
▁olympia	-12.7952
▁outnumber	-12.7952
▁pesticide	-12.7952
▁prosthetic	-12.7952
▁puzzl	-12.7952
▁quadruple	-12.7952
▁recuperat	-12.7952
▁rehearsal	-12.7952
▁reprogramm	-12.7952
▁resurrect	-12.7952
▁schoolgirl	-12.7952
▁sidewalk	-12.7952
▁siphon	-12.7952
▁spiegel	-12.7952
▁supercomputer	-12.7952
▁surrogate	-12.7952
▁tetrapod	-12.7952
▁trawler	-12.7952
▁turtle	-12.7952
▁umbrella	-12.7952
▁unfavorabl	-12.7952
▁uruguay	-12.7952
▁varsha	-12.7952
▁vigorous	-12.7952
▁yekaterin	-12.7952
▁apocalyp	-12.7953
▁conquest	-12.7953
▁drastic	-12.7953
▁hypothe	-12.7953
▁inevitabl	-12.7953
▁kiosk	-12.7953
▁macaque	-12.7953
▁noodle	-12.7953
▁quebec	-12.7953
▁reflex	-12.7953
▁ritchie	-12.7953
▁undeniabl	-12.7953
▁unplug	-12.7953
▁ambigu	-12.7953
▁beelzebu	-12.7953
▁clarif	-12.7953
▁entrench	-12.7953
▁lombard	-12.7953
▁sequin	-12.7953
▁slovenia	-12.7953
▁sumatra	-12.7953
▁intoxicat	-12.7953
▁rejoin	-12.7953
▁segment	-12.7953
▁inherent	-12.7953
▁inundate	-12.7953
▁pundit	-12.7953
▁ravine	-12.7953
▁vindic	-12.7953
▁ideologue	-12.7953
▁prescrib	-12.7953
▁wreak	-12.7953
▁bookstore	-12.7953
meadow	-12.7953
▁mortem	-12.7953
▁wharf	-12.7953
▁unpack	-12.7953
▁voyage	-12.7953
▁anthropologist	-12.7953
▁unfurl	-12.7953
▁botnet	-12.7953
▁cowboy	-12.7953
▁renown	-12.7953
▁cuddl	-12.7953
▁reincarnat	-12.7953
▁demolition	-12.7953
▁bahad	-12.7953
▁jolt	-12.7953
▁frantic	-12.7953
urname	-12.7953
ijk	-12.7953
▁simulate	-12.7953
▁warlord	-12.7953
tronical	-12.7953
▁stitch	-12.7953
▁dogfight	-12.7953
▁carcass	-12.7953
▁intrusi	-12.7953
▁lehman	-12.7953
▁newcomer	-12.7953
▁trampl	-12.7953
▁ipod	-12.7953
▁inhuman	-12.7953
spectacle	-12.7953
▁stifl	-12.7953
▁zahar	-12.7953
▁jagg	-12.7953
▁populis	-12.7953
▁relentless	-12.7953
shuffl	-12.7953
narayan	-12.7953
▁contemporar	-12.7953
▁jeopardize	-12.7953
▁hippo	-12.7953
▁thrash	-12.7953
▁arbitra	-12.7953
▁mahm	-12.7953
zambi	-12.7953
▁arrogan	-12.7953
▁gilbert	-12.7953
▁brisk	-12.7953
▁transgender	-12.7953
▁orchid	-12.7953
▁litvin	-12.7953
▁critter	-12.7954
▁salvat	-12.7954
▁superstitio	-12.7954
▁commandeer	-12.7954
▁embroi	-12.7954
▁winemaker	-12.7954
▁manifest	-12.7954
▁stymie	-12.7954
▁jubil	-12.7954
▁sprinter	-12.7954
oratori	-12.7954
▁overheat	-12.7954
▁vaccination	-12.7954
▁autocra	-12.7954
▁rhy	-12.7954
erfer	-12.7954
▁crusad	-12.7954
▁macbook	-12.7954
chowsk	-12.7954
▁dangl	-12.7954
▁mutilat	-12.7954
▁swamp	-12.7954
▁waive	-12.7954
▁splash	-12.7954
symmetr	-12.7954
▁habitual	-12.7955
▁volley	-12.7955
▁imprint	-12.7955
▁newsweek	-12.7955
▁terrifi	-12.7955
▁euthanize	-12.7955
arles	-12.7955
▁envision	-12.7955
▁toshihi	-12.7955
▁stagehand	-12.7955
▁canop	-12.7955
▁speck	-12.7955
▁walden	-12.7955
zabell	-12.7955
▁columnist	-12.7955
▁vertical	-12.7955
▁reversal	-12.7955
▁winkel	-12.7955
▁mcke	-12.7955
armac	-12.7956
▁projectile	-12.7956
▁toxin	-12.7956
fraim	-12.7956
▁banquet	-12.7956
▁refrigerator	-12.7956
▁geoff	-12.7956
▁psychiatrist	-12.7956
▁colour	-12.7956
▁shann	-12.7956
tomac	-12.7956
▁rational	-12.7957
▁saliva	-12.7957
adhika	-12.7957
▁uneas	-12.7957
roach	-12.7957
▁corrod	-12.7957
ukun	-12.7957
▁encyclopedia	-12.7957
▁payroll	-12.7957
▁exhale	-12.7957
▁lifeguard	-12.7958
▁affirm	-12.7958
▁wrench	-12.7958
▁stroll	-12.7958
▁machi	-12.7958
▁pak	-12.7958
▁annoy	-12.7959
▁silk	-12.7959
▁reset	-12.7959
▁microbe	-12.7959
▁melee	-12.7959
▁spoil	-12.7959
▁stiff	-12.796
hrou	-12.796
▁weinberg	-12.796
▁idiot	-12.796
akawa	-12.796
▁pelt	-12.796
▁specimen	-12.796
▁spasm	-12.7961
▁joking	-12.7961
▁loyalist	-12.7961
▁litter	-12.7961
imeter	-12.7961
▁hesitat	-12.7962
▁fringe	-12.7962
squali	-12.7962
agic	-12.7963
▁crumbl	-12.7963
kward	-12.7963
kwon	-12.7964
▁rodent	-12.7964
▁decoration	-12.7964
▁reposition	-12.7964
▁schie	-12.7965
▁duca	-12.7965
▁translation	-12.7965
▁landfall	-12.7966
▁trimm	-12.7966
jorn	-12.7966
▁decaf	-12.7966
▁jamaican	-12.7966
nutter	-12.7967
▁iceberg	-12.7967
▁snowboard	-12.7967
blade	-12.7967
▁extinguisher	-12.7967
▁gawker	-12.7967
▁felic	-12.7968
▁hiros	-12.7969
arkh	-12.7969
▁supervisor	-12.797
▁communiqu	-12.797
▁tilt	-12.797
▁obey	-12.797
▁dumb	-12.797
▁rebec	-12.797
▁incline	-12.7971
cock	-12.7971
acle	-12.7971
▁tab	-12.7971
ssenger	-12.7971
▁respectful	-12.7971
▁reuse	-12.7972
▁adhere	-12.7972
▁accommodation	-12.7972
▁wrongful	-12.7972
▁reformist	-12.7973
align	-12.7973
▁checkup	-12.7973
▁mizu	-12.7974
lims	-12.7974
▁sift	-12.7975
▁cutback	-12.7976
qar	-12.7976
▁sweater	-12.7977
▁specialize	-12.7977
maniac	-12.7977
guel	-12.7978
▁meddl	-12.798
▁beginner	-12.798
▁dredge	-12.798
moshe	-12.7981
▁energize	-12.7981
bogey	-12.7982
▁incense	-12.7985
▁regal	-12.7987
▁simm	-12.7987
▁knockout	-12.7987
▁mutin	-12.7987
▁insert	-12.7988
▁chew	-12.799
▁fig	-12.7992
uitt	-12.7993
▁stimulate	-12.7995
▁adversar	-12.7996
▁techni	-12.7996
▁lenin	-12.7997
poros	-12.7997
cesc	-12.7997
lissa	-12.7997
▁boult	-12.7998
▁peel	-12.7998
▁pavl	-12.8
▁abduction	-12.8001
▁zip	-12.8002
▁hoard	-12.8003
▁budh	-12.8005
utchin	-12.8005
▁unsea	-12.8006
▁skydiver	-12.8006
▁nasr	-12.8006
▁aram	-12.8007
▁lari	-12.8007
▁jais	-12.8007
▁mineral	-12.8008
▁waterboard	-12.8008
kaua	-12.8008
▁cramm	-12.8009
▁ador	-12.801
accaro	-12.801
▁mullah	-12.801
▁lame	-12.8011
tration	-12.8019
hsan	-12.8019
▁yank	-12.802
▁overture	-12.8021
▁masa	-12.8022
▁santor	-12.8022
▁freighter	-12.8022
▁verdi	-12.8023
tex	-12.8024
▁scanner	-12.8025
▁kabi	-12.8026
chsch	-12.8028
▁rite	-12.8028
▁lef	-12.8035
▁clever	-12.8035
▁gutter	-12.8036
▁attain	-12.8036
▁cali	-12.804
▁carlin	-12.804
▁equate	-12.8041
▁stack	-12.8042
jax	-12.8043
▁frown	-12.8043
▁miya	-12.8043
▁ebb	-12.8044
▁batt	-12.8045
quel	-12.8045
▁hopeless	-12.8047
▁hamburger	-12.8053
▁coloss	-12.8053
reshi	-12.8057
oda	-12.8057
▁yoshino	-12.8058
▁emitter	-12.8064
▁buyout	-12.8065
▁temper	-12.8066
▁viru	-12.8066
▁angles	-12.8067
▁foresee	-12.8067
llify	-12.8072
▁adventurer	-12.8073
icho	-12.8075
▁lou	-12.808
▁amass	-12.8082
▁barrett	-12.8082
▁ironic	-12.8082
▁wynn	-12.8083
wagon	-12.8087
▁armit	-12.8087
gow	-12.8088
▁rightist	-12.8089
tyar	-12.809
▁dismissal	-12.8098
acent	-12.8106
▁weave	-12.8111
eille	-12.8112
▁pelvi	-12.8113
ppon	-12.8113
ellin	-12.8115
▁whoopi	-12.8123
▁magna	-12.8126
▁fist	-12.8129
taka	-12.8135
▁trot	-12.8137
lvin	-12.814
▁fens	-12.8146
igne	-12.8148
fleck	-12.815
▁gah	-12.8152
puff	-12.8152
tangula	-12.8158
▁stubb	-12.8161
▁rename	-12.8164
ntena	-12.8165
▁reno	-12.8169
▁ciga	-12.8175
▁samira	-12.8182
▁destin	-12.8183
▁roche	-12.8183
iamon	-12.8192
crat	-12.8196
▁pota	-12.8204
▁sensational	-12.8207
▁reggi	-12.8212
▁corresponden	-12.822
▁tuna	-12.8223
▁rancher	-12.8227
▁compromis	-12.8235
▁revolv	-12.8248
990	-12.825
▁tagge	-12.8272
▁veri	-12.8277
ushi	-12.8283
▁stampede	-12.8287
▁metaboli	-12.8293
▁screenwrit	-12.8294
thro	-12.8303
roco	-12.8305
▁rubin	-12.8312
▁hubb	-12.8323
▁trafficker	-12.8325
terate	-12.8325
▁toleran	-12.8342
▁mauric	-12.8346
taki	-12.8347
kham	-12.8349
▁arr	-12.8355
▁cruis	-12.8364
bardo	-12.8376
▁kisser	-12.8378
▁rebu	-12.8392
▁stalinis	-12.8408
640	-12.8418
smic	-12.842
partment	-12.8433
▁sandr	-12.8436
runa	-12.8445
andro	-12.8448
nbach	-12.8474
▁atlanti	-12.8488
luca	-12.8497
▁betray	-12.85
▁graf	-12.85
kubi	-12.8501
▁shutt	-12.8503
magh	-12.8508
▁essen	-12.8511
▁unhea	-12.8522
bbing	-12.8565
terminate	-12.8571
▁amara	-12.859
▁irritati	-12.8598
baum	-12.8603
▁pushe	-12.8607
oper	-12.8614
▁lent	-12.8617
ethel	-12.8618
laima	-12.8641
▁pix	-12.8662
uisin	-12.8701
▁colonialis	-12.8702
rkus	-12.8723
ucc	-12.8731
▁boni	-12.8784
late	-12.8789
holder	-12.8898
▁yea	-12.8903
▁volk	-12.8918
▁perva	-12.8934
▁ramad	-12.8945
▁cull	-12.898
▁marginal	-12.8983
▁pett	-12.8985
▁lek	-12.8995
itude	-12.9015
raza	-12.9022
ntiff	-12.906
gregor	-12.9074
▁unsee	-12.9112
▁valde	-12.9118
bao	-12.9124
▁erod	-12.9157
▁saif	-12.92
lik	-12.9227
bout	-12.9258
▁nev	-12.9281
▁vibra	-12.9287
▁feye	-12.9296
gler	-12.9305
▁antw	-12.9327
ufu	-12.9327
ight	-12.934
▁reper	-12.939
▁hwa	-12.9399
kwan	-12.9401
▁emer	-12.9409
repute	-12.943
▁giggl	-12.9437
version	-12.9509
lude	-12.9531
lara	-12.9561
▁circl	-12.9579
ibul	-12.9627
▁housewi	-12.9673
▁vibrati	-12.9681
▁rok	-12.9686
▁cou	-12.9691
udor	-12.9783
▁zain	-12.9784
▁figur	-12.9788
▁precede	-12.979
▁stu	-12.9801
▁fab	-12.9836
rangel	-12.9888
143	-12.9909
▁luri	-12.9911
reason	-12.9922
▁naha	-12.9925
poke	-12.9957
▁thermo	-12.9972
viv	-12.9979
▁complexit	-12.9989
▁prow	-12.9992
fitt	-13.0019
khar	-13.0047
▁ventur	-13.0049
reb	-13.005
▁depo	-13.0083
speci	-13.01
laye	-13.0102
▁verifi	-13.0118
agong	-13.0126
eckha	-13.0168
▁peni	-13.0219
▁renu	-13.0252
▁archeologi	-13.0253
▁regulat	-13.0268
▁judg	-13.0303
owler	-13.0329
▁coco	-13.0338
suka	-13.0339
rash	-13.037
depress	-13.0387
rossi	-13.0391
report	-13.0398
frost	-13.0403
defin	-13.0412
▁sherr	-13.0419
320	-13.0426
year	-13.0435
izz	-13.0443
shield	-13.0446
correct	-13.0448
grew	-13.0448
wolf	-13.0449
weak	-13.0449
marie	-13.045
jewel	-13.045
caffein	-13.0452
connect	-13.0453
mobil	-13.0454
screen	-13.0455
iku	-13.0456
effective	-13.0457
famous	-13.0457
jean	-13.0457
jung	-13.0458
electric	-13.0459
forward	-13.046
sleep	-13.0461
friend	-13.0462
paul	-13.0462
church	-13.0462
foot	-13.0463
avoid	-13.0463
political	-13.0464
analyst	-13.0464
billion	-13.0464
democratic	-13.0464
strong	-13.0466
mission	-13.0466
measure	-13.0466
▁undu	-13.0467
▁ferrie	-13.0468
fight	-13.047
berlin	-13.0471
normal	-13.0473
complete	-13.0475
league	-13.0477
tension	-13.0481
father	-13.0482
resolve	-13.0483
scene	-13.049
▁balanc	-13.049
welcome	-13.0493
▁packag	-13.0506
ignor	-13.0521
▁enclos	-13.0522
▁galu	-13.0524
immed	-13.0535
rushe	-13.0537
tsch	-13.0541
▁liberat	-13.0561
involve	-13.0567
▁scarc	-13.0614
insur	-13.0624
efficient	-13.0642
camp	-13.0666
duct	-13.067
announce	-13.0711
▁stil	-13.0712
tigation	-13.0769
wit	-13.0788
▁flex	-13.08
▁sylv	-13.0807
eparation	-13.0816
lva	-13.0837
talia	-13.0857
▁priz	-13.0866
gular	-13.0874
judic	-13.0886
khaz	-13.0892
▁correspond	-13.091
kana	-13.0912
▁compensati	-13.092
assam	-13.0926
▁bureaucra	-13.0937
iscuit	-13.0954
airmen	-13.0957
▁ratifi	-13.1002
▁emine	-13.1004
osta	-13.1022
harra	-13.1035
dono	-13.1043
▁flore	-13.105
hahn	-13.1074
▁adventur	-13.1077
▁imag	-13.1081
chol	-13.109
forgiv	-13.1094
▁demi	-13.1102
yongb	-13.1105
▁teres	-13.1107
▁shatter	-13.1112
▁nutritio	-13.1112
▁kleb	-13.1113
hermos	-13.115
▁embl	-13.1165
▁equ	-13.1171
giro	-13.1175
▁amste	-13.1177
lobe	-13.1178
▁theatr	-13.1195
dex	-13.1196
wett	-13.121
itzk	-13.122
▁ethan	-13.1224
▁suicid	-13.1225
▁skydiv	-13.1229
▁creativ	-13.1238
▁psych	-13.1249
haka	-13.1251
▁sweat	-13.1252
jewe	-13.1257
▁worshipp	-13.1261
▁porno	-13.1262
▁disast	-13.1264
stroi	-13.1264
▁endeavo	-13.1268
▁evo	-13.127
▁slap	-13.1271
▁contingen	-13.1275
▁profess	-13.1276
▁eje	-13.1277
▁inflat	-13.128
▁cruci	-13.128
▁exempt	-13.128
terrestrial	-13.1281
▁refrigerat	-13.1281
▁automat	-13.1281
presso	-13.1283
▁austral	-13.1284
▁pharmac	-13.1285
volta	-13.1285
cussion	-13.1285
rchan	-13.1286
▁potent	-13.1286
▁excruciating	-13.1286
▁kazuhi	-13.1286
▁rigorous	-13.1286
▁turbulen	-13.1286
conceivabl	-13.1286
ochondria	-13.1286
▁accumulation	-13.1286
▁acquaintance	-13.1286
▁aerobic	-13.1286
▁allegiance	-13.1286
▁anecdot	-13.1286
▁antivir	-13.1286
▁appetiz	-13.1286
▁apprehend	-13.1286
▁astound	-13.1286
▁bermuda	-13.1286
▁bewilder	-13.1286
▁bludgeon	-13.1286
▁burqa	-13.1286
▁buzzword	-13.1286
▁camouflage	-13.1286
▁ceviche	-13.1286
▁clarification	-13.1286
▁convuls	-13.1286
▁counterfeit	-13.1286
▁deficienc	-13.1286
▁delinquen	-13.1286
▁demoraliz	-13.1286
▁depreciati	-13.1286
▁detrimental	-13.1286
▁disciple	-13.1286
▁discrepanc	-13.1286
▁disintegrat	-13.1286
▁distraction	-13.1286
▁encircl	-13.1286
▁evaporate	-13.1286
▁excommunicat	-13.1286
▁exemplar	-13.1286
▁fatigue	-13.1286
▁firecracker	-13.1286
▁fitzgibbon	-13.1286
▁geophysic	-13.1286
▁gimmick	-13.1286
▁grigor	-13.1286
▁gymnasium	-13.1286
▁hairdress	-13.1286
▁handcuff	-13.1286
▁handshake	-13.1286
▁imbalance	-13.1286
▁impeccabl	-13.1286
▁imperative	-13.1286
▁incompeten	-13.1286
▁indiscriminate	-13.1286
▁inhibit	-13.1286
▁involuntar	-13.1286
▁irrelevan	-13.1286
▁katyusha	-13.1286
▁limousine	-13.1286
▁linguistic	-13.1286
▁matador	-13.1286
▁misinterpret	-13.1286
▁mistreat	-13.1286
▁obstetric	-13.1286
▁obstructi	-13.1286
▁overcrowd	-13.1286
▁overgraz	-13.1286
▁plaintiff	-13.1286
▁polygam	-13.1286
▁puncture	-13.1286
▁qualification	-13.1286
▁reaffirm	-13.1286
▁rearrang	-13.1286
▁recapture	-13.1286
▁recipient	-13.1286
▁reinvigorat	-13.1286
▁resuscitat	-13.1286
▁scaveng	-13.1286
▁sculpture	-13.1286
▁shantytown	-13.1286
▁skirmishe	-13.1286
▁speedboat	-13.1286
▁straddl	-13.1286
▁trajector	-13.1286
▁ultimatum	-13.1286
▁uncontroll	-13.1286
▁unfulfill	-13.1286
▁unintentional	-13.1286
▁videodisc	-13.1286
▁whidbey	-13.1286
▁yugoslav	-13.1286
▁bulgaria	-13.1286
▁cryptograph	-13.1286
▁dislodg	-13.1286
▁dormitor	-13.1286
▁elicit	-13.1286
▁favourite	-13.1286
▁incandescent	-13.1286
▁overstretch	-13.1286
▁paradox	-13.1286
▁souvenir	-13.1286
▁stipulat	-13.1286
▁caregiver	-13.1286
▁clamor	-13.1286
▁degenerat	-13.1286
▁diatribe	-13.1286
▁grapple	-13.1286
▁illusion	-13.1286
▁infertil	-13.1286
▁intruder	-13.1286
▁misbehavi	-13.1286
▁pamper	-13.1286
▁pessimis	-13.1286
▁snorkel	-13.1286
▁sturmgeist	-13.1286
▁undervalue	-13.1286
proxim	-13.1286
▁31284	-13.1286
▁comrade	-13.1286
▁flax	-13.1286
▁infuriat	-13.1286
▁jealous	-13.1286
▁merseyside	-13.1286
▁unthink	-13.1286
▁bombardment	-13.1286
▁compell	-13.1286
▁hosseini	-13.1286
▁shovel	-13.1286
▁lolc	-13.1286
▁nitrog	-13.1286
▁terrify	-13.1286
▁dabb	-13.1286
▁polygon	-13.1286
scoop	-13.1286
▁maraud	-13.1286
▁scorpion	-13.1286
▁subcontract	-13.1286
▁tavern	-13.1286
▁decimat	-13.1286
▁fashionista	-13.1286
▁fioren	-13.1286
▁intensify	-13.1286
▁rupture	-13.1286
▁synonym	-13.1286
hresh	-13.1286
▁philanthropi	-13.1286
▁chevrolet	-13.1286
▁evict	-13.1286
▁rookie	-13.1286
lvet	-13.1286
▁landlord	-13.1286
▁purifie	-13.1286
▁razor	-13.1286
▁recreat	-13.1286
▁thirst	-13.1286
▁loath	-13.1286
▁inherit	-13.1286
▁wrestle	-13.1286
▁flexibilit	-13.1286
▁homepage	-13.1286
▁hound	-13.1286
▁affirmative	-13.1286
▁botuli	-13.1286
▁plaster	-13.1286
▁tinker	-13.1286
▁squabble	-13.1286
▁tasmania	-13.1286
<	-14.8651
