▁	-3.01061
<s>	0
</s>	0
<unk>	0
▁.	-3.38032
을	-3.69634
는	-3.7786
의	-3.85894
은	-3.99425
를	-4.16997
에	-4.2437
이	-4.3118
가	-4.32291
고	-4.50544
,	-4.81974
한	-4.86669
에서	-4.87164
로	-5.04808
▁그	-5.13544
일	-5.15458
인	-5.21097
▁있다	-5.22609
며	-5.2757
다	-5.28758
으로	-5.43608
▁이	-5.45129
과	-5.4968
▁고	-5.52586
와	-5.5448
도	-5.568
▁수	-5.67788
지	-5.69272
▁말했다	-5.72149
할	-5.76006
했다	-5.82703
▁밝혔다	-5.8417
간	-5.95247
하고	-5.98824
년	-5.98953
▁있는	-6.00247
▁1	-6.07417
나	-6.11825
던	-6.12235
▁2	-6.1503
기	-6.15852
▁전했다	-6.18621
만	-6.22303
하는	-6.26119
▁것	-6.26288
▁전	-6.26389
▁현지시	-6.27629
들	-6.29238
해	-6.29562
된	-6.32369
스	-6.33528
월	-6.40868
▁3	-6.41642
▁이번	-6.42044
▁위해	-6.44227
▁미	-6.45086
게	-6.47826
리	-6.49058
명	-6.49377
▁며	-6.49968
자	-6.50694
명이	-6.52677
▁미국	-6.54233
▁대한	-6.55163
▁중	-6.55878
▁지난	-6.57464
에게	-6.6351
▁또	-6.63718
▁대해	-6.68321
러나	-6.72571
▁대통령	-6.72645
▁한	-6.72941
하	-6.72978
▁4	-6.75243
시	-6.7529
▁정부	-6.76957
▁것으로	-6.79766
▁5	-6.81309
들이	-6.8268
히	-6.82729
라	-6.8474
어	-6.858
▁것을	-6.88115
▁중국	-6.88134
운	-6.88875
주	-6.9097
▁더	-6.93309
지만	-6.94937
▁다른	-6.95084
▁것이라고	-6.95188
됐다	-6.97357
사	-6.97922
▁모	-6.98557
▁6	-6.9856
▁대변인	-6.9859
▁오바마	-6.98627
상	-6.9872
하기	-6.99094
였다	-7.00359
▁이라크	-7.02216
드	-7.02868
▁한편	-7.03369
▁10	-7.03651
▁이라고	-7.04369
서	-7.04758
▁경찰	-7.05173
하게	-7.05264
▁영국	-7.05597
적인	-7.05746
트	-7.06773
▁주	-7.06795
하지	-7.07926
▁우리	-7.08502
세	-7.09565
▁등	-7.10159
▁통해	-7.11591
든	-7.12545
▁약	-7.12863
대	-7.12975
▁있	-7.12986
▁많은	-7.15699
면	-7.15888
▁바	-7.1711
까지	-7.18056
▁것이다	-7.18185
▁총리	-7.18471
▁같은	-7.18918
아	-7.19761
▁한다	-7.19821
이다	-7.20682
▁내	-7.20686
▁8	-7.21055
르	-7.2159
s	-7.21721
했다고	-7.24364
▁후	-7.25057
했으	-7.25286
▁자신	-7.25833
수	-7.26733
▁가장	-7.26742
성	-7.27119
▁말	-7.28196
▁않았다	-7.28319
▁것이	-7.30244
▁동안	-7.32368
▁7	-7.32465
▁경우	-7.33278
▁클린턴	-7.3602
▁관련	-7.36075
▁때	-7.3631
▁주장했다	-7.36605
한다	-7.37659
될	-7.37717
▁북한	-7.3827
했	-7.396
▁영화	-7.39741
▁이후	-7.40391
거	-7.41127
▁이들	-7.41254
명의	-7.41704
▁9	-7.42564
위	-7.4374
장	-7.43991
개	-7.44008
▁세계	-7.4422
야	-7.44347
부	-7.44719
▁12	-7.45086
소	-7.45493
▁알	-7.46016
도록	-7.46469
▁덧붙	-7.46708
진	-7.46998
▁설명했다	-7.47514
▁일부	-7.48032
▁아	-7.48035
▁파키스탄	-7.48073
치	-7.48119
▁하	-7.48297
원	-7.4839
▁문제	-7.48504
▁20	-7.48825
비	-7.49888
▁당국	-7.50114
니	-7.50126
▁11	-7.50991
▁될	-7.52536
화	-7.54447
전	-7.54603
▁없다	-7.54643
▁민주당	-7.54723
크	-7.55351
▁있었다	-7.55706
위한	-7.57318
었다	-7.5782
▁최근	-7.59293
▁그리고	-7.5951
때문에	-7.59621
▁부시	-7.60849
▁현재	-7.61109
▁프랑스	-7.61124
바	-7.62235
▁사람들	-7.62406
미	-7.62527
▁일	-7.63336
▁그들	-7.63429
▁이상	-7.63459
▁당시	-7.63716
▁19	-7.64
▁지역	-7.64046
▁두	-7.6411
▁함께	-7.64346
▁비	-7.64357
프	-7.64417
▁지난해	-7.64423
▁사	-7.65526
▁30	-7.66754
▁조사	-7.66965
▁결과	-7.67012
정	-7.67821
▁이날	-7.68018
▁반	-7.68102
▁오	-7.68429
▁사실	-7.6847
▁제	-7.68763
▁수도	-7.68803
▁있으	-7.69805
면서	-7.7093
▁모두	-7.71029
해야	-7.71183
▁일본	-7.71611
▁뒤	-7.72062
▁부	-7.72126
▁했다	-7.72215
처	-7.7227
▁이란	-7.72345
즈	-7.72426
▁러시아	-7.72474
▁몇	-7.72724
당	-7.73262
▁라고	-7.73329
▁나	-7.73754
보다	-7.74425
▁새로	-7.74619
마	-7.74998
제	-7.75283
길	-7.76061
▁시	-7.76061
▁유엔	-7.76288
적	-7.76368
▁후보	-7.76504
분	-7.76682
▁이스라엘	-7.76879
▁마	-7.77061
달러	-7.7753
용	-7.77963
라고	-7.79444
▁사고	-7.7949
오	-7.79791
파	-7.79922
▁공격	-7.80288
▁예정이	-7.8029
차	-7.80435
보	-7.80974
▁처음	-7.81054
타	-7.81145
시간	-7.8122
▁할	-7.81251
우	-7.81648
단	-7.81856
▁사건	-7.83164
적으로	-7.83209
▁발생한	-7.84146
▁거	-7.8441
국	-7.84414
▁국가	-7.84836
▁여성	-7.85139
회	-7.85414
▁아직	-7.86097
려	-7.8617
구	-7.86194
▁15	-7.86428
디	-7.87164
레	-7.87849
▁16	-7.87941
선	-7.88972
m	-7.89455
티	-7.89535
▁계속	-7.89593
▁그녀	-7.89594
▁경제	-7.89694
▁cnn	-7.90135
억	-7.90528
▁안	-7.90745
▁하는	-7.90812
▁해	-7.9092
▁대	-7.90938
▁위치	-7.9118
▁된다	-7.91249
▁18	-7.91554
조	-7.9183
럼	-7.9191
e	-7.9229
▁계획	-7.92359
▁이라	-7.93415
▁라	-7.93787
▁결정	-7.94388
▁지	-7.94998
내	-7.95018
▁보도했	-7.96005
러	-7.96325
▁열린	-7.96928
식	-7.97014
및	-7.97535
여	-7.97648
▁올림픽	-7.98158
부터	-7.9836
▁않을	-7.98398
▁미군	-7.9842
▁가운데	-7.98499
▁미얀마	-7.98823
돼	-7.99589
신	-8.00298
이나	-8.00436
▁대부분	-8.00472
▁큰	-8.01177
▁달러	-8.01202
▁대통령이	-8.01213
▁조	-8.01264
▁매케인	-8.02075
모	-8.02167
▁받았다	-8.02298
▁보	-8.02553
관	-8.0259
▁부토	-8.02834
▁기	-8.0308
으	-8.03104
에도	-8.03287
▁힐러리	-8.03449
▁무	-8.03504
d	-8.03615
질	-8.04045
▁테러	-8.04098
▁사망했다	-8.04149
문	-8.04427
▁연구	-8.04653
코	-8.04756
▁14	-8.04847
▁파	-8.04957
브	-8.05176
▁초	-8.05193
물	-8.05292
안	-8.0574
▁지원	-8.06307
▁한국	-8.06399
▁강	-8.06893
라는	-8.07244
이라고	-8.07348
번	-8.07753
▁받고	-8.07814
▁피	-8.08142
카	-8.0836
▁승리	-8.08562
▁군	-8.09203
▁시위	-8.09296
▁13	-8.09378
르면	-8.0945
▁카	-8.09499
토	-8.095
하다	-8.0951
▁불	-8.09626
린	-8.10134
▁매	-8.10333
i	-8.10508
▁구	-8.10969
▁상원의원	-8.1144
▁유	-8.11625
호	-8.125
▁인도	-8.13011
▁올해	-8.13963
▁대선	-8.1424
▁국제	-8.14349
t	-8.14419
되는	-8.14529
▁보도	-8.14533
▁최고	-8.14912
▁신	-8.15175
▁채	-8.15181
▁타	-8.15204
▁사람	-8.15233
▁25	-8.15353
점	-8.15401
▁물	-8.15554
1	-8.15592
▁이에	-8.1561
자들	-8.16196
론	-8.16328
▁17	-8.16636
▁배	-8.16795
▁공	-8.16909
▁다시	-8.17385
▁달	-8.17642
▁무샤라프	-8.17673
▁자	-8.17843
군	-8.1802
▁성	-8.18384
▁21	-8.18673
▁터키	-8.19228
▁회사	-8.19302
▁재	-8.19356
▁사람들이	-8.19386
▁있을	-8.19532
루	-8.1977
▁인터넷	-8.19852
p	-8.2003
▁컴퓨터	-8.20049
km	-8.20068
▁24	-8.20726
▁성명	-8.20826
▁잘	-8.21071
▁기술	-8.2139
▁줄	-8.21543
▁미국의	-8.21557
▁세	-8.21558
▁tv	-8.21629
에따	-8.21754
▁발생했다	-8.21791
▁27	-8.221
▁발	-8.22144
▁선거	-8.22161
하면서	-8.22191
c	-8.22381
▁없는	-8.22512
계	-8.2262
▁조치	-8.22847
▁22	-8.22996
▁데	-8.23009
▁의해	-8.23031
▁뉴욕	-8.23117
▁a	-8.23305
▁어떤	-8.23723
▁존	-8.23965
▁티베트	-8.2414
▁지도자	-8.24185
방	-8.2422
▁원	-8.24372
▁피해	-8.24423
▁독일	-8.24716
▁공화당	-8.24978
▁하고	-8.24995
산	-8.25013
▁앞	-8.25078
▁정보	-8.25364
▁콜롬비아	-8.254
▁소속	-8.25419
▁됐다	-8.25499
▁어	-8.25955
력	-8.26306
▁정	-8.26388
란	-8.26429
▁방문	-8.26635
▁반군	-8.26753
▁않은	-8.26883
▁프로그램	-8.26906
▁상	-8.27265
권	-8.27668
▁여러	-8.27931
▁50	-8.27969
▁보고	-8.28465
▁주요	-8.28467
n	-8.28509
▁언론	-8.28623
한다고	-8.28826
▁100	-8.28906
▁않고	-8.29323
들에게	-8.30062
▁the	-8.30185
y	-8.30362
▁차량	-8.30368
무	-8.30385
되고	-8.30526
살	-8.30562
데	-8.30588
▁않는다	-8.30599
▁많	-8.30784
▁아이	-8.30801
직	-8.30949
▁유럽	-8.31255
▁경기	-8.31306
▁팔레스타인	-8.31502
▁지지	-8.31617
▁스	-8.31748
▁나는	-8.31939
▁매우	-8.32003
실	-8.32067
이런	-8.32422
▁실	-8.32554
▁포함	-8.33336
▁이미	-8.3346
는데	-8.33476
▁우려	-8.33647
▁현지	-8.33653
▁경찰이	-8.33727
u	-8.3374
▁대학	-8.33931
반	-8.33952
노	-8.33954
▁40	-8.34176
▁총	-8.34229
▁강조했다	-8.34266
▁지금	-8.34746
a	-8.34802
▁적	-8.34812
▁오전	-8.34817
터	-8.34907
년에	-8.34938
▁시작	-8.35077
하지만	-8.35238
이었다	-8.35438
▁발표했다	-8.35468
▁갖고	-8.3558
▁오후	-8.35663
▁내용	-8.35838
▁소	-8.35934
▁이슬람	-8.36077
▁양	-8.36183
▁판매	-8.36264
포	-8.36352
형	-8.36384
▁하지	-8.36469
교	-8.36582
▁지적했	-8.36765
▁기자회견	-8.3685
했지만	-8.36951
▁정도	-8.37511
체	-8.37918
하려	-8.38055
▁26	-8.38299
▁대의원	-8.3849
▁혐의로	-8.38504
▁개	-8.38839
▁0	-8.38949
씨	-8.38952
감	-8.38968
들과	-8.39023
▁28	-8.39406
연	-8.39464
▁차	-8.39725
▁관계	-8.3975
▁발표	-8.39773
▁29	-8.39812
▁감독	-8.40001
로부터	-8.40169
에따라	-8.40201
▁도시	-8.40545
▁자신들	-8.40866
발	-8.40939
학	-8.41083
▁23	-8.41162
▁관리	-8.41229
▁보고서	-8.41301
인해	-8.41549
▁주장	-8.41564
금	-8.4159
중	-8.41731
▁관계자	-8.41821
년간	-8.41836
되어	-8.41895
▁선	-8.42349
▁포	-8.42622
▁이용	-8.42996
심	-8.43109
▁전쟁	-8.43157
▁위	-8.43313
▁중요	-8.43381
▁있다는	-8.43402
▁w	-8.43939
▁앞으로	-8.43948
▁지난달	-8.44005
▁개발	-8.44075
▁병원	-8.44195
법	-8.44215
슨	-8.44338
▁받은	-8.44375
▁스페인	-8.44469
됐	-8.44644
피	-8.44877
▁활동	-8.45128
온	-8.45233
▁경선	-8.4596
함	-8.46277
▁아니라	-8.46408
개월	-8.46618
▁사진	-8.46639
하겠다	-8.4667
버	-8.46672
▁못했다	-8.4671
▁점	-8.46715
했었다	-8.46758
종	-8.46831
된다	-8.46886
▁남자	-8.46945
▁첫	-8.46968
▁안전	-8.47127
▁런던	-8.47312
난	-8.47335
▁높	-8.47392
▁시장	-8.47805
키	-8.47997
▁생각	-8.48039
▁2006	-8.48095
▁있어	-8.48311
▁비난했다	-8.48341
▁않	-8.48372
▁치	-8.48397
▁레	-8.48658
▁입장	-8.49038
▁사용	-8.49039
▁하나	-8.4906
른	-8.49064
▁동	-8.49088
되지	-8.49221
▁핵	-8.49399
▁이와	-8.49405
▁위험	-8.49431
저	-8.49461
▁s	-8.49958
o	-8.4997
워	-8.50016
공	-8.50052
하여	-8.50121
▁당	-8.5044
▁리	-8.50527
▁방송	-8.50551
▁코	-8.50721
유	-8.50751
▁자신이	-8.50761
판	-8.5079
▁입	-8.50904
▁우	-8.5094
▁확보	-8.51283
▁노	-8.514
▁치료	-8.51605
▁외	-8.51639
▁아프간	-8.51668
▁올	-8.51752
건	-8.51816
▁노력	-8.51922
▁남부	-8.51973
급	-8.52013
그	-8.52268
▁우주	-8.52412
?	-8.52422
행	-8.52928
▁조지	-8.52936
▁호주	-8.53109
▁주민들	-8.53121
▁준비	-8.53549
통	-8.53576
▁이어	-8.54085
▁모습	-8.54136
재	-8.54348
▁의회	-8.54384
▁용의자	-8.54396
▁대선후보	-8.54666
▁그것	-8.54932
▁서	-8.54941
▁케냐	-8.55233
설	-8.55279
▁이를	-8.55378
▁가진	-8.55469
▁볼	-8.56164
▁좋은	-8.56377
더	-8.56436
▁이전	-8.56441
▁이름	-8.56452
됐으	-8.56515
▁벌이	-8.56645
▁방법	-8.56659
으로부터	-8.56766
▁맞	-8.56894
츠	-8.56953
▁베이징	-8.56956
▁없다고	-8.57175
▁없었다	-8.57176
▁폭발	-8.57418
▁폭탄테러	-8.57505
속	-8.57617
▁특	-8.57768
▁사망	-8.57776
▁야당	-8.58155
▁기록	-8.58202
▁의사	-8.58348
강	-8.58385
▁추가	-8.58403
량	-8.58473
▁떨어진	-8.58556
▁건물	-8.58593
▁생산	-8.58858
▁반면	-8.58909
하는데	-8.59054
▁중단	-8.59159
▁크	-8.59233
▁변화	-8.59332
▁연	-8.59342
▁아이들	-8.5936
▁부상	-8.59373
▁2008	-8.59436
▁c	-8.59577
al	-8.59676
▁여행	-8.59857
▁버락	-8.59903
▁페	-8.59968
▁앞서	-8.60108
▁독립	-8.6049
▁인근	-8.60696
▁열	-8.60744
▁부족	-8.61091
네	-8.61133
민	-8.61192
위원회	-8.61623
▁해결	-8.61679
▁위협	-8.61799
▁지구	-8.61975
▁회담	-8.62157
였	-8.62252
박	-8.62369
동	-8.62433
▁관할	-8.625
▁보호	-8.62566
▁인터뷰에서	-8.62591
경	-8.62873
▁혐의	-8.62899
▁join	-8.62928
▁건강	-8.62937
▁지난주	-8.63088
▁날	-8.63268
▁새	-8.63504
측	-8.63586
▁말한	-8.63702
▁공급	-8.63731
색	-8.63862
▁가족	-8.63979
▁의원	-8.64152
▁정치	-8.64245
석	-8.64436
요	-8.64757
개의	-8.65675
▁북부	-8.65733
▁서비스	-8.65985
▁자유	-8.66031
▁알카에다	-8.66052
▁사망자	-8.66213
▁살해	-8.66421
▁않다	-8.6644
▁법원	-8.66718
▁아무	-8.66775
▁타고	-8.66786
▁산	-8.66808
복	-8.6684
결	-8.66877
▁가격	-8.6689
류	-8.67104
▁f	-8.67186
▁이탈리아	-8.6733
▁행동	-8.67337
▁조직	-8.67344
▁이것	-8.67479
▁오는	-8.67802
▁증가	-8.67818
▁사이	-8.67913
▁시간	-8.67936
▁장	-8.68023
▁방	-8.68572
기도	-8.68573
▁여부	-8.68577
▁협상	-8.68851
릴	-8.69076
▁마지막	-8.69279
만명	-8.69449
2	-8.69751
▁경	-8.69998
▁폭탄	-8.70127
▁단체	-8.70241
▁비난	-8.70509
▁가능성	-8.70519
▁힘	-8.70532
▁국민	-8.70809
았다	-8.71047
▁저	-8.71066
▁작업	-8.71256
▁가능성이	-8.71363
약	-8.71446
작	-8.71466
▁있었	-8.71494
▁결	-8.71607
되	-8.7179
▁부인	-8.71794
배	-8.71884
▁p	-8.7206
▁연방	-8.72084
▁미국과	-8.722
▁석유	-8.72391
▁박사는	-8.72519
지는	-8.72796
▁심	-8.72822
▁필요	-8.73056
▁호텔	-8.73112
7	-8.73253
▁이야기	-8.73298
6	-8.7337
역	-8.73526
▁집	-8.73771
▁요구	-8.73848
▁없이	-8.73893
시켰다	-8.73968
▁of	-8.73984
두	-8.74118
▁상황	-8.74251
▁법	-8.74254
▁않는	-8.74337
▁호	-8.74421
▁전문가들	-8.745
▁정책	-8.74559
▁빌	-8.74669
▁31	-8.74711
▁결국	-8.74711
▁없	-8.74776
▁팔	-8.74782
번째	-8.74817
업	-8.74984
▁보다	-8.75052
▁시위대	-8.75253
▁장관	-8.75274
▁시작했다	-8.75277
▁못	-8.75303
▁죽	-8.75502
▁범죄	-8.75629
▁발언	-8.75642
▁영향	-8.7566
임	-8.75662
▁환경	-8.75672
▁아니다	-8.75783
정부	-8.75914
▁정치적	-8.76008
▁미국이	-8.76119
만에	-8.7625
b	-8.76293
▁과정	-8.76356
▁규모	-8.76439
▁국경	-8.7653
스트	-8.76569
▁기자	-8.7674
▁문	-8.76778
▁메	-8.76779
r	-8.76827
▁인용	-8.76837
▁것에	-8.77077
▁사태	-8.77099
▁연기	-8.77125
날	-8.77422
▁살	-8.77476
▁필요한	-8.77567
긴	-8.77579
▁남	-8.77837
져	-8.78122
후	-8.78305
▁금지	-8.78434
마리	-8.78446
▁투표	-8.78579
▁여	-8.78632
▁못하	-8.78644
▁루	-8.78747
각	-8.78815
친	-8.78835
▁위해서	-8.78852
▁파업	-8.78866
▁사르코지	-8.78908
▁투	-8.79255
3	-8.79327
5	-8.79357
▁역사	-8.79376
▁단	-8.79714
▁속	-8.79753
▁b	-8.79758
▁발사	-8.79873
와의	-8.80009
▁60	-8.80237
▁알고	-8.8024
▁골	-8.80265
▁당신	-8.80315
▁최초	-8.80362
▁관심	-8.80378
의하면	-8.80397
▁평화	-8.80645
년대	-8.8103
▁짐바브웨	-8.81098
▁합의	-8.81155
▁도로	-8.8116
h	-8.81193
f	-8.81381
▁행사	-8.81566
령	-8.81567
▁최대	-8.81838
▁출신	-8.81843
▁공개	-8.81941
테	-8.82071
▁사망한	-8.82168
렌	-8.82533
▁베네수엘라	-8.82585
▁마련	-8.82599
▁eu	-8.8267
생	-8.8296
차례	-8.83022
▁표	-8.83127
▁제작	-8.83205
▁아시아	-8.83319
▁차베스	-8.83337
▁보내	-8.83503
l	-8.83508
▁전체	-8.8364
졌다	-8.83714
▁반대	-8.83817
▁석방	-8.83845
▁출전	-8.84017
▁전화	-8.84037
▁숨졌다	-8.84102
▁나라	-8.84163
▁상태	-8.8434
혀	-8.84653
▁캘리포니아	-8.8474
▁핵무기	-8.84858
▁손	-8.85267
메	-8.85347
만달러	-8.85607
▁과학자들	-8.85638
▁공식	-8.85658
이라는	-8.85821
▁하루	-8.85877
품	-8.85891
▁비행	-8.86059
▁교	-8.86286
▁이유로	-8.86333
▁공동	-8.86345
▁동영상	-8.86402
▁보인다	-8.86508
▁국영	-8.86508
▁된	-8.86516
▁확인	-8.8669
청	-8.86717
▁명	-8.86804
기구	-8.87074
▁다음	-8.87076
쳐	-8.87125
▁판결	-8.87192
▁팀	-8.87201
▁따라	-8.87237
▁대표	-8.87265
병	-8.87584
▁그러	-8.87641
▁막	-8.87746
▁예	-8.87869
▁통	-8.87991
▁통신	-8.88042
범	-8.88513
▁별	-8.88545
▁담	-8.8865
▁발생	-8.8871
▁최소	-8.88778
▁되	-8.88799
▁아들	-8.88927
▁친구	-8.88994
▁to	-8.89029
성명에서	-8.89105
런	-8.89208
울	-8.89299
두고	-8.89439
▁대해서	-8.89483
겨	-8.895
▁상원의원이	-8.8967
▁진행	-8.89675
▁운동	-8.89757
증	-8.89835
▁않았	-8.89923
▁돈	-8.89955
▁공항	-8.90022
▁인정	-8.90028
▁납치	-8.90367
▁산업	-8.90433
▁발견	-8.90542
탄	-8.906
입	-8.90642
▁생	-8.90805
▁관한	-8.90975
▁지역에서	-8.91146
▁결혼	-8.91158
▁들어	-8.9117
▁인구	-8.9126
▁주지사	-8.9126
▁돌	-8.91423
g	-8.91486
▁200	-8.91546
▁화재	-8.91578
었	-8.92056
▁보안	-8.92115
▁수술	-8.92246
명과	-8.92309
▁역할	-8.92317
▁눈	-8.92513
▁밤	-8.9252
▁패	-8.92732
▁e	-8.92737
▁비행기	-8.92747
▁알리	-8.93004
▁베	-8.93425
▁플로리다	-8.93503
회사	-8.93681
▁프라이머리	-8.93727
▁수단	-8.9388
▁그런	-8.9429
▁브라운	-8.94505
다고	-8.94562
▁것이라는	-8.94597
▁전세계	-8.94687
▁이유	-8.94755
▁미국은	-8.94825
▁학교	-8.94855
▁난	-8.94869
▁대통령과	-8.94914
▁행위	-8.95135
▁이동	-8.95219
▁생활	-8.9523
▁성폭행	-8.95337
▁워싱턴	-8.95415
▁체포	-8.95537
채	-8.95647
▁불구하	-8.95759
▁성장	-8.95802
망	-8.95883
▁성공	-8.95897
▁사회	-8.96084
▁이제	-8.96166
육	-8.96171
여명	-8.96202
▁특별	-8.9622
하기로	-8.96571
▁열리는	-8.9685
▁예정	-8.96878
으나	-8.96994
▁생각한다	-8.96997
▁폭력사태	-8.9707
st	-8.97104
▁디	-8.97119
층	-8.97127
▁받을	-8.97225
절	-8.97239
겠다	-8.97304
지역	-8.97323
▁동물	-8.97441
w	-8.97625
▁직접	-8.97809
플	-8.9785
▁빈	-8.97875
▁로버트	-8.97941
▁감소	-8.97952
시킬	-8.97994
▁변호사	-8.98004
음	-8.98022
▁남편	-8.98212
▁요	-8.98488
▁대사관	-8.98837
▁분	-8.98843
▁마을	-8.98875
▁어린이	-8.98939
▁토	-8.99007
출	-8.99051
목	-8.99152
▁만	-8.9916
대로	-8.99256
▁광고	-8.99276
▁남성	-8.99295
▁친	-8.99393
▁되는	-8.99473
▁거래	-8.99677
▁어떻게	-8.99699
▁홍콩	-8.99699
▁알려졌다	-8.99702
▁종	-8.99785
er	-8.9986
편	-8.99861
▁누	-9.0004
열	-9.00065
▁역	-9.00067
▁텍사스	-9.00119
▁전에	-9.00303
▁사업	-9.00369
▁촬영	-9.00592
▁푸틴	-9.00593
하면	-9.00595
▁2000	-9.00773
습니다	-9.00922
등	-9.011
▁잠	-9.0112
▁게임	-9.01167
or	-9.01269
▁farc	-9.01493
▁인도네시아	-9.01493
▁태국	-9.01519
▁주택	-9.0152
▁주변	-9.01548
▁바그다드	-9.01621
▁여론조사	-9.01621
▁시신	-9.01626
cle	-9.01644
▁같이	-9.0169
▁무기	-9.01735
록	-9.01874
▁충돌	-9.01909
베	-9.01951
▁개인	-9.01996
▁인간	-9.02054
▁예상	-9.02135
▁지역에	-9.02275
너	-9.02308
▁사람이	-9.025
▁발견했다	-9.0258
▁평가	-9.02609
▁기업	-9.02631
ing	-9.027
인한	-9.02709
▁보였다	-9.028
장을	-9.02879
▁h	-9.02967
▁키	-9.03228
▁벌	-9.03387
▁법안	-9.03405
▁예정이라	-9.03435
▁딸	-9.03451
▁보이	-9.03542
료	-9.03721
표	-9.03758
▁시설	-9.03891
▁운영	-9.04038
쉬	-9.04041
▁본	-9.04065
▁선택	-9.04102
갈	-9.04168
▁얼마	-9.04181
▁곳	-9.04203
▁유권자	-9.04267
▁라이스	-9.04331
▁교수	-9.04342
▁추	-9.04366
▁기회	-9.04425
인들	-9.04427
▁투자	-9.04867
▁총선	-9.04898
있는	-9.05008
단체	-9.05013
달	-9.05139
▁찾아	-9.05144
▁코소보	-9.0518
▁비디오	-9.0518
▁arti	-9.0518
만원	-9.05183
▁식량	-9.05189
▁회장	-9.05214
▁지진	-9.05334
▁같다	-9.0539
▁야	-9.0543
▁아니	-9.05431
곳	-9.05667
▁아버지	-9.05671
억달러	-9.05775
▁신문	-9.05933
▁웹사이트	-9.05951
앞서	-9.05994
▁먹	-9.06058
▁애	-9.06094
▁내무부	-9.06124
하자	-9.06127
▁더욱	-9.06132
▁밝혀졌다	-9.06171
▁주말	-9.06178
▁은행	-9.06276
▁재판	-9.064
▁수상	-9.06458
▁강화	-9.06472
ar	-9.06515
▁있기	-9.06933
▁일이	-9.06958
▁진	-9.07056
9	-9.07065
▁촉구했다	-9.07225
▁대화	-9.07263
▁la	-9.07365
▁갈	-9.07377
▁일정	-9.07382
▁기간	-9.07654
▁감	-9.0778
▁맥	-9.07953
팀	-9.07957
▁사우디	-9.08038
▁너무	-9.08039
▁걸쳐	-9.08051
▁지도자들	-9.08107
▁의장	-9.08184
적이	-9.08234
▁해안	-9.08579
▁주민	-9.08595
▁감염	-9.08617
▁살고	-9.08723
이자	-9.08734
▁수사	-9.08743
▁천	-9.08845
▁구성	-9.08851
5000	-9.09008
▁소말리아	-9.09008
▁금	-9.09019
▁각각	-9.09023
▁자살	-9.0908
▁내렸다	-9.09192
▁숨지	-9.0966
▁낮	-9.09861
래	-9.09916
▁흑인	-9.09989
▁캐나다	-9.0999
▁나타났다	-9.10054
▁ms	-9.1006
k	-9.10078
▁항	-9.10114
▁유지	-9.10247
양	-9.10299
▁사망하	-9.10336
▁고위	-9.10375
▁걸	-9.10393
▁출연	-9.10416
▁지지자들	-9.10553
▁잡	-9.10728
▁밖에	-9.10775
▁암살	-9.1081
▁요구했다	-9.10891
▁드	-9.10963
▁000	-9.10979
▁무장세력	-9.1098
▁비롯	-9.10982
▁아닌	-9.10994
▁교육	-9.10997
▁다양	-9.11004
▁임무	-9.11011
▁주둔	-9.1103
▁강력	-9.11055
▁증거	-9.11073
커	-9.11142
▁악	-9.11201
▁위성	-9.11243
▁아프리카	-9.11362
▁가치	-9.11378
▁만나	-9.11432
▁대회	-9.11438
▁있습니	-9.11539
▁병	-9.1174
▁향	-9.11754
▁개최	-9.11793
▁80	-9.11871
일간	-9.11904
▁요청	-9.11938
해서	-9.1195
▁자동차	-9.11986
▁마약	-9.12045
예	-9.12128
동안	-9.12153
▁발생해	-9.12211
▁민간인	-9.12332
케	-9.12335
▁헤	-9.12435
천	-9.12549
▁위기	-9.12634
승	-9.12706
▁유권자들	-9.12967
▁2007	-9.13009
▁차이	-9.13051
▁국민들	-9.13111
▁것입니	-9.13133
▁백악관	-9.13218
▁항공	-9.13261
▁연설	-9.13266
▁현	-9.13293
되었다	-9.13358
받	-9.13395
▁작전	-9.1345
▁참석	-9.13623
▁설치	-9.13631
본	-9.13641
▁여자	-9.13702
▁다리	-9.13712
율	-9.13912
▁작은	-9.13974
▁국무부	-9.14009
▁연료	-9.14031
▁폴	-9.14041
▁불법	-9.14071
▁나오	-9.14115
초	-9.14205
▁그들이	-9.14209
▁차례	-9.14477
▁간	-9.14546
▁왔다	-9.14553
▁있지	-9.14586
격	-9.14789
▁폐쇄	-9.14866
했을	-9.14978
▁가자지구	-9.1504
억원	-9.15235
▁헬기	-9.15293
▁지방	-9.154
▁직원	-9.15433
▁놓	-9.15684
▁관리들	-9.1574
▁부부	-9.15755
▁길	-9.15807
▁경쟁	-9.15834
▁것이라	-9.15952
▁칸	-9.15995
▁파리	-9.1604
▁의견	-9.16145
▁벌였다	-9.16343
▁버	-9.16362
▁장기	-9.16757
▁제안	-9.16775
▁영	-9.16886
▁메시지	-9.17135
▁국제유가	-9.17135
▁해외	-9.1718
▁미국에서	-9.17224
근	-9.17469
▁시스템	-9.17511
▁이곳	-9.176
▁상승	-9.17627
▁회의	-9.17718
로서	-9.17744
▁정상	-9.17774
되기	-9.17871
외	-9.18035
▁대신	-9.18037
▁바로	-9.18069
링	-9.18081
▁변	-9.18114
염	-9.18135
▁밝힌	-9.18198
▁신화통신	-9.18198
▁쿠바	-9.18243
▁병력	-9.18262
▁동부	-9.1832
▁사실이	-9.18335
▁국가들	-9.18365
▁500	-9.18539
an	-9.18815
is	-9.18831
▁칼	-9.18908
▁반대하	-9.18964
▁훈련	-9.18995
▁비해	-9.19111
▁파괴	-9.19125
이었	-9.19188
▁하마스	-9.19274
▁바란다	-9.19276
▁사이클론	-9.19277
▁후세인	-9.19299
▁소재	-9.19324
▁d	-9.19585
▁원인	-9.19627
▁서로	-9.19696
▁목표	-9.1972
▁입은	-9.1976
▁구조	-9.20073
▁com	-9.20249
▁앤	-9.20259
▁관	-9.20342
▁브라질	-9.20361
▁검찰	-9.20362
▁충분	-9.20362
▁2004	-9.2037
▁야후	-9.20382
투	-9.20585
▁항공사	-9.20679
▁사건에	-9.20704
한다는	-9.2081
블	-9.20901
▁실시	-9.20924
▁아주	-9.20956
▁모델	-9.20989
▁변호사는	-9.2106
락	-9.21122
▁교회	-9.21147
▁n	-9.21154
자인	-9.21169
▁음악	-9.21234
▁이같	-9.21265
▁까지	-9.21395
▁다이애나	-9.21403
▁탈레반	-9.2146
▁탑승	-9.2146
▁이집트	-9.2146
▁민주주의	-9.21462
▁대규모	-9.21465
▁인권	-9.21509
았	-9.21603
▁평	-9.21604
▁경고	-9.2177
▁아프가니스탄	-9.2178
▁완전	-9.21802
▁전망	-9.2184
▁경고했다	-9.22023
▁없을	-9.22111
▁되었다	-9.22367
▁몰	-9.22378
족	-9.22412
▁받아	-9.22421
자가	-9.22431
▁서부	-9.22491
튼	-9.22528
▁ppp	-9.22571
▁데이비드	-9.22571
▁사무총장	-9.22571
▁규정	-9.22572
▁있게	-9.22719
▁정당	-9.2279
▁편	-9.23108
▁경선에서	-9.23113
▁여객기	-9.23116
일까지	-9.23161
있다	-9.23339
별	-9.2337
대가	-9.23491
▁몸	-9.23536
▁음식	-9.23592
▁위원회	-9.23631
느	-9.23657
▁멕시코	-9.23694
▁협력	-9.23694
▁시상식	-9.23695
▁마이클	-9.23695
▁국방부	-9.23704
▁2005	-9.23715
▁이상이	-9.23747
▁내년	-9.23864
집	-9.23961
▁버스	-9.24015
▁암	-9.24044
기로	-9.24055
▁자금	-9.24135
▁시도	-9.24215
▁기록했다	-9.24223
▁도움	-9.24437
이러	-9.24539
▁네	-9.24728
▁가지고	-9.24853
▁약속	-9.24861
▁가스	-9.24996
▁것과	-9.25009
▁신고	-9.25054
▁체포됐다	-9.25061
자들이	-9.2507
▁소식통	-9.25112
▁각	-9.25179
퍼	-9.25556
▁귀	-9.25644
▁브	-9.25662
▁만들어	-9.25782
▁환자	-9.25811
▁인질	-9.25812
▁k	-9.25861
션	-9.25912
업체	-9.25935
턴	-9.25945
▁즉	-9.25998
▁문화	-9.26018
▁감시	-9.2614
▁회복	-9.26151
영	-9.26225
▁입었다	-9.2623
▁내려	-9.26461
▁수입	-9.26471
사를	-9.26754
시키는	-9.26922
술	-9.27114
▁자살폭탄테러	-9.27146
스타	-9.27151
▁2003	-9.27165
▁폭력	-9.27178
▁제품	-9.2722
▁터키군	-9.27225
▁오른	-9.27244
▁발견됐다	-9.27278
▁후에	-9.27284
▁내부	-9.27294
림	-9.27661
▁거리	-9.27715
▁상대로	-9.27788
▁유일	-9.27869
▁돌아	-9.27911
▁기사	-9.27946
머	-9.28011
추	-9.28085
세기	-9.28176
▁해군	-9.28241
▁쿠르드	-9.28309
▁90	-9.28319
▁세르비아	-9.28319
▁다음달	-9.28337
ch	-9.28423
▁인상	-9.28584
리스	-9.28595
▁수치	-9.28731
▁자료	-9.28737
있	-9.28932
▁인기	-9.28946
▁부상했다	-9.29172
골	-9.2936
랑	-9.29386
▁온라인	-9.2951
▁네팔	-9.29513
시켜	-9.2952
▁따른	-9.29526
▁열차	-9.29593
▁아기	-9.29653
▁처리	-9.29682
▁배치	-9.29688
▁안정	-9.29702
▁중에	-9.29725
▁학생	-9.29783
▁곧	-9.29787
le	-9.29873
50	-9.2998
하라	-9.3014
틀	-9.30203
리아	-9.30312
가지	-9.30401
▁지나	-9.30409
▁보여주	-9.30423
▁선고	-9.30661
낼	-9.30715
▁무가베	-9.30715
주의	-9.3075
으로서	-9.30848
▁차드	-9.30979
▁적어	-9.31013
▁승인	-9.31128
▁빠	-9.31128
▁지적	-9.3115
▁상당	-9.31299
▁쿠	-9.31338
▁장면	-9.31491
엔	-9.3162
▁온	-9.31843
착	-9.3186
▁국제사회	-9.31935
▁알려진	-9.31962
▁발표한	-9.31964
▁누구	-9.31989
준	-9.32013
▁밝히	-9.32053
▁미사일	-9.32054
▁과거	-9.32069
센터	-9.3207
시키	-9.32108
▁대상으로	-9.32141
▁받지	-9.32172
▁거대	-9.32312
▁자리	-9.32324
▁군사	-9.32515
ra	-9.32577
지르	-9.32586
▁사람들에게	-9.32755
▁가지	-9.32932
▁올라	-9.32973
▁펜실베이니아	-9.33026
언	-9.3313
▁화요일	-9.33169
▁비상사태	-9.3317
▁경험	-9.33175
▁운행	-9.3318
▁사퇴	-9.33199
▁어느	-9.33204
▁위반	-9.33236
▁증시	-9.33276
▁m	-9.33422
▁막기	-9.33518
니다	-9.33553
▁제한	-9.33588
▁논의	-9.33607
▁않아	-9.33615
▁실종	-9.33627
▁에너지	-9.3365
▁갖	-9.33679
▁받는	-9.33744
▁왕	-9.33756
▁능력	-9.33904
▁주재	-9.34094
▁쓰	-9.34271
▁상대	-9.34353
▁스피어스	-9.34419
▁구매	-9.34448
▁철수	-9.34481
탈	-9.34487
▁검사	-9.34525
▁허	-9.34567
▁사건이	-9.34688
▁뉴스	-9.34791
▁중동	-9.34792
▁70	-9.34811
레이	-9.35029
▁선수	-9.35068
▁김	-9.35073
▁폭	-9.35403
▁취	-9.35477
줄	-9.35502
▁들	-9.35525
시키고	-9.35574
▁안에	-9.35613
▁통과	-9.35632
태	-9.35662
월에	-9.3567
in	-9.35676
▁혼란	-9.35686
▁건설	-9.35705
▁제시	-9.35712
▁필요하다	-9.35745
▁신원	-9.35883
립	-9.35931
▁진압	-9.35973
거리	-9.3598
회의	-9.36197
▁책임	-9.36198
▁선수들	-9.36338
경기	-9.36541
렸다	-9.36634
▁합의했다	-9.36685
▁카운티	-9.36721
다면	-9.36836
▁주도	-9.36839
▁가정	-9.36894
▁트럭	-9.36968
▁접근	-9.36976
▁소송	-9.3698
▁다쳤다	-9.36986
년까지	-9.37062
▁사형	-9.3711
▁존스	-9.37623
▁종교	-9.37869
▁샤	-9.37905
▁노조	-9.37925
▁시즌	-9.37998
▁탄	-9.3814
▁번	-9.38198
▁뛰어	-9.38265
▁심각한	-9.38266
▁반응	-9.38285
놓고	-9.38335
▁참여	-9.38364
지도	-9.38501
▁1000	-9.38598
▁직원들	-9.38629
현	-9.3867
▁건	-9.38731
▁나무	-9.38752
합	-9.38791
톤	-9.38896
스러	-9.38994
▁상황이	-9.39004
re	-9.39166
▁질문	-9.39379
▁담당	-9.39491
▁모른다	-9.39583
▁무장단체	-9.39589
▁고양이	-9.3959
▁부근	-9.3964
▁개선	-9.39696
▁선정	-9.39713
▁해리	-9.3982
올	-9.40008
▁장소	-9.40043
볼	-9.40045
▁부모	-9.40092
▁달리	-9.40192
▁머리	-9.40434
▁사이트	-9.40763
해왔다	-9.40791
흐	-9.40797
▁언급	-9.40883
▁최종	-9.40914
▁시아파	-9.40915
▁경찰에	-9.41035
▁임	-9.41096
▁수준	-9.4129
매	-9.41312
▁밀	-9.41313
▁창	-9.41339
▁여성들	-9.41355
▁가족들	-9.41369
애	-9.41392
▁수출	-9.41453
▁자국	-9.41464
▁인물	-9.41611
▁대사	-9.41801
▁목적	-9.41995
▁퍼	-9.42125
▁곳에서	-9.42137
겼다	-9.42188
▁부상자	-9.42216
▁잉글랜드	-9.42266
▁기념	-9.42289
▁정권	-9.42318
항	-9.42367
▁권리	-9.42422
▁나왔다	-9.42459
▁콘	-9.42473
▁숨	-9.42499
독	-9.42669
▁근	-9.42791
클	-9.4282
쿠	-9.42861
▁캐	-9.42916
▁나이	-9.42938
▁테	-9.4305
▁높다	-9.43123
▁문제에	-9.4321
▁지지자	-9.43234
▁기대	-9.43497
액	-9.43613
힌	-9.43635
▁넘어	-9.43636
▁나머지	-9.43636
▁여름	-9.43649
▁배럴	-9.43649
▁2002	-9.43664
▁예측	-9.43668
▁사이에	-9.43693
▁중인	-9.43758
▁이밖에	-9.43793
▁수감	-9.43935
▁스타	-9.44071
▁수십	-9.44075
▁박물관	-9.44102
▁뿐	-9.44103
▁때까지	-9.4416
손	-9.44324
빌	-9.44336
국가	-9.44438
▁참가	-9.4446
▁고용	-9.4466
▁계획이	-9.4473
▁처	-9.44747
ol	-9.44756
▁아내	-9.44855
▁적용	-9.44934
째	-9.44979
ed	-9.44991
▁35	-9.44992
▁유명	-9.45022
▁부통령	-9.45024
▁어머니	-9.45024
▁파견	-9.45053
▁2001	-9.45074
▁공연	-9.45109
▁익명	-9.45118
리는	-9.45139
▁청	-9.45182
▁성화	-9.45236
▁임명	-9.45255
당국	-9.45304
▁키스	-9.4532
▁심장	-9.45328
▁사는	-9.4546
▁교통	-9.45465
▁소식	-9.45531
▁작품	-9.45549
축	-9.45591
▁팬들	-9.4565
▁제공	-9.45829
광	-9.45844
▁지명	-9.45861
▁발견된	-9.45882
입니	-9.45945
▁관광	-9.46092
▁주민들이	-9.46212
▁시민들	-9.46307
▁미국인	-9.46368
▁수백명	-9.46393
▁전자	-9.46397
▁교황	-9.46424
▁fbi	-9.46433
▁싶다	-9.46433
▁페르베	-9.46439
▁여성이	-9.46443
▁and	-9.46447
▁t	-9.4651
▁책	-9.46606
냈다	-9.46609
▁주장하	-9.46612
▁강제	-9.46614
▁보냈다	-9.46617
▁인수	-9.46722
▁판사	-9.46767
▁통제	-9.46768
▁유세	-9.46773
었으	-9.46794
만명이	-9.46836
▁실시된	-9.4702
30	-9.47106
8	-9.4712
아니라	-9.47303
▁전문	-9.47314
랜드	-9.47332
습	-9.47348
허	-9.47436
▁수천명	-9.47597
킨	-9.47684
▁안보	-9.47764
▁있었으	-9.47847
▁금융	-9.47854
▁넘는	-9.47862
▁방글라데시	-9.47862
▁샤리프	-9.47862
▁헌법	-9.47862
▁담배	-9.47892
▁관해	-9.47907
▁의미	-9.4797
명으로	-9.47984
▁발전	-9.47992
▁로마	-9.48037
대의	-9.48071
▁학생들	-9.48138
▁절	-9.48166
▁쉬	-9.48178
▁집회	-9.48335
수지	-9.48477
▁내리	-9.48526
▁거주하	-9.48546
▁일반	-9.48627
사는	-9.48698
창	-9.48772
▁때문	-9.48828
척	-9.48844
▁경기에서	-9.48997
▁실패	-9.49027
▁클린턴이	-9.49069
▁어린이들	-9.49087
▁전망이	-9.4914
▁이곳에서	-9.49142
앙	-9.49151
▁이끄는	-9.49311
▁나타나	-9.49311
▁접촉	-9.49314
▁계약	-9.49328
▁구호	-9.49435
까	-9.49492
▁허가	-9.49498
▁시민	-9.4952
왔다	-9.49599
▁제조	-9.49682
on	-9.49704
▁45	-9.49746
▁기지	-9.49807
4	-9.49813
▁저지	-9.5003
페	-9.5026
침	-9.50572
▁in	-9.50609
▁for	-9.50641
텔	-9.50708
▁32	-9.50714
▁말레이시아	-9.50781
▁바이러스	-9.50783
▁직후	-9.50795
▁선출	-9.50796
▁행정부	-9.50808
▁나타냈다	-9.50848
▁소유	-9.5087
▁있음	-9.50919
▁폐	-9.5094
▁g	-9.51021
▁밝혀지	-9.51036
▁질문에	-9.5104
▁결정했다	-9.51205
개국	-9.51231
▁수행	-9.51565
변	-9.51613
▁왕자	-9.51621
▁요구하	-9.51679
▁체포했다	-9.51821
▁배우	-9.51932
▁명의	-9.51962
▁홀	-9.52062
혈	-9.5224
충	-9.52265
▁민병대	-9.52274
▁비슷	-9.52274
▁선거캠프	-9.52274
▁우크라이나	-9.52274
▁탁신	-9.52275
▁어려움	-9.52279
▁대응	-9.52293
▁마음	-9.5235
▁입고	-9.52402
▁체	-9.52409
달러에	-9.52476
▁긴장	-9.52477
▁가까	-9.52491
▁향해	-9.52555
▁빨	-9.52599
▁아마	-9.52623
▁비용	-9.52846
▁했	-9.52998
▁전시	-9.53042
▁관광객	-9.53063
▁못한	-9.53128
혼	-9.5314
▁삼	-9.53306
책	-9.53382
▁바다	-9.53386
▁이라크전	-9.534
▁오르	-9.53447
폭	-9.53482
북	-9.53494
먼	-9.53498
▁접	-9.53584
규	-9.53718
▁쇼	-9.53718
▁성화봉송	-9.53728
▁평균	-9.5374
움	-9.53756
▁올랐다	-9.53789
▁시카고	-9.53791
▁압박	-9.53798
▁국립	-9.53799
▁실험	-9.53799
▁질병	-9.53803
▁비밀	-9.53829
▁만약	-9.53841
▁되고	-9.53937
▁방안	-9.5395
▁유로	-9.54045
▁백	-9.54081
▁부분	-9.54131
▁경찰과	-9.54186
졌	-9.54243
▁선박	-9.5444
지고	-9.54523
▁이달	-9.5461
▁그리스	-9.54657
▁철	-9.54677
▁도착	-9.54709
환	-9.5474
▁기소	-9.54761
ne	-9.54854
▁살인	-9.55082
▁현장	-9.55235
▁보안관	-9.55304
es	-9.55314
▁국무장관	-9.55328
▁네덜란드	-9.55328
▁외무장관	-9.55328
▁필리핀	-9.55328
▁대표팀	-9.5535
▁우승	-9.55362
으로써	-9.55375
▁작성	-9.55384
▁오래	-9.55403
▁없어	-9.55411
▁세금	-9.55424
▁공군	-9.55443
▁미래	-9.55581
▁자세	-9.55751
▁밝히지	-9.55784
▁300	-9.55804
▁출	-9.55833
▁높이	-9.56006
▁따	-9.56035
로스	-9.56094
▁병원에서	-9.56223
▁선포	-9.56237
여전	-9.56327
통신	-9.56341
▁요청했다	-9.56475
th	-9.56528
말	-9.56556
▁36	-9.5657
▁들고	-9.56664
▁센터	-9.56721
▁오하이오	-9.56765
▁붕괴	-9.56771
▁노동	-9.5679
▁경제적	-9.56816
되면	-9.56836
랄	-9.56873
▁끝나	-9.5689
▁외곽	-9.5689
▁얼굴	-9.56891
▁본선	-9.56894
▁집중	-9.56913
▁권력	-9.5695
▁구입	-9.56952
▁남한	-9.57028
▁전기	-9.57176
사건	-9.57185
관리	-9.57187
▁수익	-9.57202
▁주식	-9.5731
▁엘	-9.57478
일부터	-9.57576
▁동료	-9.57634
▁여기	-9.57638
▁여사	-9.57734
▁보이는	-9.57771
▁관계자가	-9.58026
▁확인했다	-9.58028
칠	-9.58132
▁불만	-9.58135
▁마치	-9.58179
▁성인	-9.58247
랜	-9.58306
▁젊은	-9.58416
▁불리	-9.58453
▁로켓	-9.5847
▁끝에	-9.58477
▁사무실	-9.58491
▁총격	-9.58494
원들	-9.58518
▁판단	-9.58521
▁정부군	-9.58531
▁단계	-9.58545
▁중심	-9.58546
▁원유	-9.58563
인지	-9.58572
▁진정	-9.58573
▁화성	-9.58588
▁레이스	-9.58619
들에	-9.58693
▁국왕	-9.58714
▁웹사이트에	-9.5877
▁니콜라	-9.58794
지수	-9.58836
▁도움이	-9.59051
▁적이	-9.59109
때	-9.59214
▁해야	-9.59285
▁확신	-9.59313
▁섬	-9.5954
협회	-9.60052
▁겪고	-9.6009
▁나섰다	-9.6009
엘	-9.60096
▁망명	-9.60101
▁민주화	-9.6011
빈	-9.60127
▁일자리	-9.60153
중인	-9.60156
▁시리아	-9.60157
만이	-9.60186
▁집단	-9.60189
▁자체	-9.60209
▁하기	-9.6022
▁이르	-9.60231
▁임시	-9.60334
▁군정	-9.605
▁사원	-9.60518
달하는	-9.60535
▁독	-9.6054
▁커	-9.60592
▁운영하	-9.606
▁자주	-9.60607
익	-9.60762
▁희망	-9.6086
▁관광객들	-9.6087
▁희생자	-9.60899
▁만큼	-9.60992
▁유명한	-9.61
▁국	-9.61017
▁방식	-9.61059
담	-9.61409
총	-9.61521
▁참석한	-9.61566
마다	-9.61577
il	-9.6159
휘	-9.61648
▁전략	-9.61666
몬	-9.61678
ation	-9.6168
▁비타민	-9.6173
▁착륙	-9.6173
▁업무	-9.61732
쳤다	-9.61734
▁접속	-9.61751
▁치러진	-9.61784
▁집계	-9.61797
▁부르	-9.61811
▁예상된다	-9.6182
▁빠져	-9.61859
▁대형	-9.61874
▁기억	-9.61967
▁예방	-9.61977
▁근무	-9.6202
라도	-9.62044
▁재개	-9.62048
▁않았으	-9.62065
▁극	-9.62141
▁경찰관	-9.62169
▁가능한	-9.62184
▁공장	-9.62438
▁고통	-9.62479
학자	-9.6251
문제	-9.62536
▁목표로	-9.62719
▁매일	-9.62758
▁이용해	-9.62989
서는	-9.62994
▁받았	-9.63109
▁이미지	-9.63182
장이	-9.63284
▁홍보	-9.63365
▁마드리드	-9.63396
▁폭풍	-9.63402
연맹	-9.63404
60	-9.63404
▁뇌	-9.63412
▁표현	-9.63416
▁풀	-9.63558
연합	-9.63582
▁승객	-9.63631
20	-9.63715
성이	-9.63766
▁소리	-9.63789
▁추정	-9.63835
▁임기	-9.63878
▁계속되	-9.63879
▁방문한	-9.63941
▁대피	-9.63944
▁계	-9.64086
▁연구소	-9.64112
▁터	-9.64151
장관	-9.64187
▁작가	-9.64203
▁인터뷰	-9.6432
▁시간이	-9.64334
▁외국	-9.64657
▁나온	-9.6474
▁선언	-9.6483
▁현장에	-9.64881
능	-9.64895
돌	-9.64991
▁자연	-9.65032
▁떨어져	-9.65091
▁제임스	-9.65091
▁오딩가	-9.65092
▁국방장관	-9.65093
▁엄마	-9.65109
▁추락	-9.65109
▁진출	-9.6512
▁공습	-9.65126
견	-9.65137
▁출마	-9.65141
▁관계자들	-9.65188
▁받게	-9.65217
▁사상	-9.65225
▁지지하	-9.65225
▁모르	-9.65243
▁얻었다	-9.65249
▁반발	-9.65256
▁판	-9.65269
▁떠나	-9.65271
▁상원	-9.65349
정책	-9.65439
돌리	-9.65502
▁의심	-9.65562
lo	-9.65582
▁사과	-9.65604
▁태	-9.65797
▁되어	-9.6622
▁순	-9.66275
▁비난하	-9.66326
▁하락	-9.66332
▁전국	-9.66378
▁군부	-9.66396
례	-9.66406
▁취하	-9.66527
▁총선에서	-9.66544
▁연합	-9.66598
▁프리	-9.66673
▁참	-9.66697
▁언제	-9.66751
▁병원에	-9.66796
▁오늘	-9.668
▁맺	-9.66811
▁논쟁	-9.66815
▁확대	-9.66815
▁로봇	-9.66819
▁스스로	-9.66821
▁오픈	-9.66839
▁두고	-9.6685
▁설립	-9.66852
▁국내	-9.66863
▁사례	-9.66868
▁제재	-9.66957
▁물질	-9.66972
둔	-9.67042
▁쥐	-9.6712
한다면	-9.67125
▁속에	-9.67201
▁l	-9.67247
▁되지	-9.67393
▁ap	-9.6748
▁j	-9.6753
▁피해자	-9.67556
▁감행	-9.68007
ve	-9.68083
▁환영	-9.6812
▁한번	-9.68135
▁둔	-9.68204
▁나가	-9.68361
▁먼	-9.68428
25	-9.68465
▁공격으로	-9.68513
▁미군이	-9.68526
▁시대	-9.68532
났다	-9.68535
▁전투	-9.68557
▁달라이라마	-9.6857
▁디즈니	-9.6857
▁도쿄	-9.6857
▁잘못	-9.68572
▁마이크	-9.68575
▁처벌	-9.68578
▁다윈	-9.68592
▁교체	-9.68626
▁근처	-9.68632
▁공공	-9.68682
▁수천	-9.68713
▁제거	-9.68798
▁나토	-9.68808
▁거부	-9.68871
▁r	-9.68886
▁목사	-9.6891
샤	-9.68972
▁사령관	-9.69025
ic	-9.69031
▁사기	-9.69053
▁고든	-9.69194
▁발생할	-9.6927
드리	-9.69433
▁화	-9.69504
베나	-9.69542
▁바라고	-9.69563
▁연결	-9.69614
▁용	-9.69629
▁개혁	-9.69644
름	-9.69758
▁당선	-9.69809
기가	-9.69982
▁알게	-9.70013
▁사장	-9.70118
▁한다는	-9.70121
▁목	-9.70223
▁위원장	-9.70307
욕	-9.70323
춘	-9.70323
▁싱가포르	-9.70355
▁키바키	-9.70355
▁칠레	-9.70358
▁정상회담	-9.70358
▁움직임	-9.70361
▁게이츠	-9.70361
▁양국	-9.70367
▁유럽연합	-9.70382
▁패배	-9.70392
▁결론	-9.70407
▁병사	-9.70407
▁도중	-9.70422
▁총재	-9.70433
▁밖	-9.70458
▁추진	-9.70471
▁통치	-9.70493
▁38	-9.70567
▁후반	-9.70637
▁벤	-9.70639
▁기업들	-9.70699
씩	-9.70756
▁o	-9.7086
▁수퍼	-9.70905
▁항공기	-9.70952
▁들어가	-9.71031
ia	-9.71053
▁집행	-9.71224
되었	-9.71249
▁이래	-9.71274
▁단지	-9.71312
조치	-9.71325
▁카메라	-9.71332
▁수색	-9.71362
▁효과	-9.71493
웃	-9.7167
답	-9.71832
▁시작된	-9.71854
▁군인	-9.71855
자와	-9.71857
웨	-9.71899
▁대법원	-9.71921
백	-9.71929
us	-9.7198
▁설명	-9.72039
▁되면	-9.72147
컵	-9.72171
▁쓰촨성	-9.72174
▁오랫동안	-9.72174
딘	-9.72174
▁매들린	-9.72174
▁홍수	-9.72178
▁고위관리	-9.72187
▁법률	-9.72189
▁긴급	-9.72192
▁연락	-9.72207
▁정말	-9.72207
▁지도부	-9.72211
▁귀국	-9.72237
999	-9.7233
기관	-9.72335
▁모양	-9.7235
▁어린	-9.72357
▁고속도로	-9.72391
▁황	-9.72489
▁미국인들	-9.72536
▁실수	-9.72559
▁실제로	-9.72588
▁있는지	-9.72603
▁올리	-9.72878
▁외국인	-9.72886
▁상징	-9.7297
거래	-9.72994
▁후보로	-9.73087
▁입원	-9.73268
▁글	-9.73705
▁약간	-9.73762
▁회사들	-9.73767
람	-9.7379
▁제외	-9.73853
▁전반	-9.73879
▁장치	-9.73888
▁가져	-9.74007
▁휴	-9.74007
▁레바논	-9.74025
▁에콰도르	-9.74025
라운드	-9.74029
▁클럽	-9.74029
▁압력	-9.74052
▁커피	-9.74052
▁노래	-9.74066
▁점령	-9.74083
▁도착했다	-9.74089
▁무역	-9.74118
▁양측	-9.74121
▁시행	-9.74188
▁비판	-9.742
▁즐기	-9.74203
▁무장	-9.74396
▁축구	-9.74442
▁동시	-9.7445
ro	-9.74474
악	-9.74515
▁증	-9.74518
▁항의	-9.74531
▁저장	-9.74619
▁고문	-9.74642
기간	-9.74649
▁농	-9.74725
갔다	-9.74746
포인트	-9.74755
사가	-9.74787
▁맞아	-9.74811
만큼	-9.74867
▁하원	-9.75159
해졌다	-9.75212
▁포함한	-9.75255
▁학	-9.75342
▁의원들	-9.75392
▁수요	-9.75537
▁기관	-9.75547
로운	-9.75657
▁클	-9.7577
사인	-9.75794
▁이들이	-9.75813
▁장식	-9.75873
▁크리스마스	-9.75906
▁pkk	-9.75912
▁노스캐롤라이나	-9.75912
▁뉴질랜드	-9.75912
씬	-9.75912
▁아파트	-9.75913
▁충격	-9.75913
▁휴대폰	-9.75914
▁드러났다	-9.75915
▁복용	-9.75918
▁운항	-9.75919
▁보여	-9.75931
▁출발	-9.75941
▁연합군	-9.75945
센트	-9.75952
짜리	-9.75969
▁상품	-9.75986
▁중요하다	-9.76031
▁여당	-9.76042
▁그린	-9.76061
▁정신	-9.76205
▁보낸	-9.76213
ur	-9.76217
▁신부	-9.76221
▁가졌다	-9.76238
▁전통	-9.76395
▁이라크에서	-9.76413
▁돌아가	-9.76538
▁슈	-9.76597
▁걸어	-9.76636
▁일간	-9.76641
막	-9.76722
kg	-9.7675
▁명령	-9.76779
▁벨	-9.76791
▁이전에	-9.76796
▁사랑	-9.76893
▁이스라엘과	-9.77046
시설	-9.77165
▁크기	-9.77202
▁급	-9.77314
▁가격이	-9.77318
▁견	-9.77383
▁질	-9.77395
▁조건	-9.77476
▁시기	-9.7748
▁스리랑카	-9.77835
싼	-9.77835
▁루이스	-9.77843
▁구속	-9.77844
▁갖추	-9.7785
▁개봉	-9.77855
▁않겠다	-9.77883
▁개표	-9.77889
▁숨진	-9.77925
▁가입	-9.7799
▁윌리엄스	-9.77999
▁영상	-9.78013
▁놀라	-9.78099
▁전문가	-9.78101
▁과학	-9.7817
▁순간	-9.78176
베이	-9.78213
▁권	-9.7831
▁들었다	-9.78323
▁400	-9.78337
▁위기에	-9.78365
▁세력	-9.78408
▁보장	-9.78412
▁전달	-9.78413
▁외교	-9.78417
▁허용	-9.7843
장에서	-9.78477
▁37	-9.78488
▁만들	-9.78531
밀	-9.78542
불	-9.78649
벨	-9.78658
평	-9.78706
글	-9.7877
▁공원	-9.78771
인들이	-9.78771
▁박	-9.7879
▁48	-9.78951
렸	-9.78954
▁실시되	-9.79026
▁휴가	-9.79301
ta	-9.79347
▁테러가	-9.79634
▁보건	-9.79667
레스	-9.797
▁증가했다	-9.79748
폰	-9.79768
윈	-9.7977
▁그에게	-9.79781
▁남동부	-9.79796
▁소프트웨어	-9.79796
▁케네디	-9.79796
▁할리우드	-9.79796
▁파예드	-9.79796
▁침체	-9.79798
▁결의안	-9.79801
▁확산	-9.79812
시장	-9.79824
▁절반	-9.79832
▁가옥	-9.79839
▁핵심	-9.79877
▁경계	-9.79882
▁성공했다	-9.79972
년부터	-9.79981
▁해당	-9.79995
지역에서	-9.80042
▁알아	-9.80083
▁경매	-9.80093
▁티	-9.80141
▁만일	-9.80184
▁필	-9.8027
la	-9.80421
en	-9.80438
▁mo	-9.80616
▁마리	-9.80767
센	-9.80784
▁받기	-9.80849
시키기	-9.8089
관계	-9.80972
▁킹	-9.81037
▁옷	-9.81138
스터	-9.81194
▁유가	-9.81227
▁않기	-9.81274
▁뉴	-9.81275
▁목격자들	-9.81317
▁초기	-9.81374
▁회원국	-9.8156
▁힘들	-9.81604
켈	-9.81776
젠	-9.81796
▁찾는	-9.81796
▁협조	-9.81796
렛	-9.81796
▁카스트로	-9.81797
▁스위스	-9.81797
▁질환	-9.81806
▁남아공	-9.81809
▁급등	-9.81812
제도	-9.81823
▁투입	-9.81835
▁검거	-9.81839
▁중앙	-9.81868
▁웹	-9.81953
▁대중	-9.8196
▁당신이	-9.82063
장에	-9.82106
▁당한	-9.82179
▁가질	-9.82181
▁유사	-9.82292
▁둘	-9.82329
▁라디오	-9.8237
▁밝혀	-9.82377
▁인하	-9.82492
▁사상자	-9.8252
▁지배	-9.82649
cm	-9.82778
▁곳이	-9.82944
들도	-9.83006
▁말라	-9.83057
려고	-9.83176
▁성적	-9.83186
▁42	-9.83241
▁정부와	-9.83366
▁일어나	-9.83444
분기	-9.83679
▁확산되	-9.83719
▁느끼	-9.83754
▁놀	-9.83776
▁분쟁	-9.83837
▁캠페인	-9.83837
▁분위기	-9.83838
▁월드컵	-9.8384
▁일으키	-9.8385
▁아랍	-9.83864
▁죽음	-9.83875
▁철회	-9.83891
▁자격	-9.83906
▁pc	-9.83926
▁페루	-9.83934
▁선물	-9.83982
▁특정	-9.84001
▁며칠	-9.84068
▁합	-9.84071
▁시내	-9.84158
포드	-9.84166
▁대처	-9.84182
▁깨	-9.8421
▁150	-9.84236
조직	-9.84279
▁돼	-9.84329
▁측	-9.84527
트리	-9.84544
▁전까지	-9.84547
70	-9.84564
▁시드	-9.8459
슈	-9.8464
500	-9.84677
▁인사	-9.84741
▁신체	-9.84912
10	-9.84952
▁진술	-9.84987
▁경찰서	-9.85088
▁벌인	-9.85104
▁밝혔	-9.85159
벌	-9.85169
▁전력	-9.852
▁유리	-9.85232
활동	-9.85273
▁범인	-9.8548
▁조정	-9.8557
체제	-9.85596
운동	-9.85627
▁어려	-9.85672
퇴	-9.85682
▁늘어	-9.8569
▁진입	-9.85724
tal	-9.85751
▁프라이머리에서	-9.85761
▁떠	-9.85811
득	-9.85813
좌	-9.85906
팅	-9.85906
텐	-9.8592
▁dvd	-9.8592
▁사우디아라비아	-9.8592
▁활용	-9.85922
▁1997	-9.8593
▁찰스	-9.85957
▁사용하는	-9.85958
▁화산	-9.85965
▁선두	-9.85992
▁조금	-9.86065
▁사임	-9.86077
▁직	-9.86115
▁만화	-9.86151
▁울	-9.86268
▁연구진	-9.86275
▁사망했으	-9.86276
▁금리	-9.86289
▁전투기	-9.86312
▁속에서	-9.86312
▁크리스	-9.86332
▁문서	-9.86403
▁지불	-9.86496
▁집에	-9.86589
▁자녀	-9.86668
향	-9.86749
▁가수	-9.8693
▁대만	-9.86936
취	-9.87014
년이	-9.87049
누	-9.87116
갔	-9.87167
▁요구한	-9.87171
▁코커스	-9.87263
▁임신	-9.87316
▁백인	-9.87472
▁중이	-9.87554
겠	-9.87655
킬	-9.87905
▁지정	-9.87918
▁상점	-9.87924
▁승리한	-9.87942
념	-9.87947
냐	-9.8796
률	-9.8801
▁공개했다	-9.88019
▁징역	-9.88025
▁스테	-9.88027
꺼	-9.88046
싱	-9.88048
▁다이아몬드	-9.88048
▁인디애나	-9.88048
▁최악	-9.88048
쯤	-9.88048
▁전당대회	-9.88048
▁캠프	-9.88049
▁스미스	-9.8805
▁신뢰	-9.88058
▁구체적	-9.88068
▁올렸다	-9.88083
▁입양	-9.88093
▁영토	-9.88113
▁압둘라	-9.88125
▁인류	-9.88138
▁팬	-9.88143
▁우주선	-9.88194
▁알려지	-9.88219
▁강도	-9.88332
▁것인지	-9.88386
▁갑	-9.88503
불어	-9.88544
것	-9.88595
▁감사	-9.88595
▁분석	-9.88597
▁방해	-9.88726
ion	-9.88747
▁de	-9.88757
▁당했다	-9.88761
▁현재까지	-9.88794
개발	-9.8888
▁인정했다	-9.89101
▁그림	-9.89142
▁생명	-9.89155
▁식품	-9.89213
▁에드	-9.8926
▁제출	-9.89271
시킨	-9.89393
▁받으	-9.89394
리오	-9.8942
산업	-9.89555
▁살아	-9.89594
숙	-9.89614
▁소비	-9.89631
▁수반	-9.8969
▁형	-9.89747
▁51	-9.89768
▁거주	-9.89809
▁만든	-9.89828
▁케	-9.89853
▁근거	-9.89867
▁부정	-9.89899
▁머	-9.90053
ate	-9.90058
빙	-9.90152
▁스키	-9.90199
뜨	-9.90211
▁내린	-9.90219
솔	-9.90221
훨	-9.90222
▁드라마	-9.90224
▁한반도	-9.90225
▁공산당	-9.90237
▁유죄	-9.90242
▁불참	-9.90247
▁완화	-9.90257
▁산림	-9.90257
▁영국에서	-9.90273
▁지지율	-9.90275
▁웨스트	-9.90277
▁손실	-9.90294
웠다	-9.90301
▁국회	-9.90327
▁신경	-9.90331
▁신속	-9.90337
▁남성이	-9.90348
라스	-9.90389
기에	-9.90408
▁도전	-9.90421
▁등록	-9.90424
▁그룹	-9.90461
▁분명	-9.9053
▁다니	-9.90664
▁44	-9.90736
▁맡	-9.90761
▁철도	-9.90794
▁이웃	-9.90828
▁향하	-9.9083
▁총리와	-9.90851
▁해제	-9.90936
▁정확한	-9.90955
▁운전	-9.91027
▁펜	-9.9105
▁시위자들	-9.91054
▁46	-9.91118
▁마시	-9.91265
▁바이	-9.9128
▁용의자들	-9.91289
▁했으	-9.91346
합니	-9.91395
▁아이들이	-9.91451
▁행	-9.91506
▁사용할	-9.91522
▁예상했다	-9.91522
▁십	-9.91544
비아	-9.91776
▁곳에	-9.91864
▁때문이	-9.91907
▁흡연	-9.91947
▁포함해	-9.91957
▁치르	-9.92021
계획	-9.92027
▁라이	-9.92051
▁곳으로	-9.92054
▁작	-9.92314
▁자기	-9.92345
균	-9.92399
▁이중	-9.92426
께	-9.9244
▁믿고	-9.92444
▁블랙	-9.92444
▁지지선언	-9.92444
▁심지어	-9.92445
▁면담	-9.92449
▁멀	-9.92453
▁맨유	-9.9246
▁소녀	-9.92462
▁의료진	-9.9249
▁해변	-9.92513
▁소요	-9.92537
▁기후	-9.92581
▁대결	-9.92586
▁출시	-9.92644
▁대단	-9.9278
▁빠르	-9.92796
▁대기	-9.92812
▁re	-9.92829
드는	-9.92833
량이	-9.92875
▁마크	-9.92924
▁즐	-9.93139
▁축하	-9.93198
▁약물	-9.93204
된다고	-9.9322
id	-9.93311
▁인사들	-9.93315
▁실시한	-9.93541
▁서명	-9.93608
▁대비	-9.93614
▁현장에서	-9.93724
들어	-9.93755
해진	-9.93795
▁진행된	-9.93894
▁긴	-9.93902
▁연구원	-9.94006
학교	-9.9402
▁방법으로	-9.94183
푸	-9.94335
명에	-9.94487
켜	-9.94527
상태	-9.94571
▁군대	-9.94575
▁아카데미	-9.94621
펠	-9.94709
▁frb	-9.94717
▁결선투표	-9.94717
▁레스토랑	-9.94717
▁모하메드	-9.94717
▁바르셀로나	-9.94717
▁아르헨티나	-9.94717
▁얻어	-9.94717
▁예비선거	-9.94717
▁좋지	-9.94717
▁샌프란시스코	-9.94717
▁외무부	-9.94717
룬	-9.94717
▁침몰	-9.94717
▁복귀	-9.94718
▁디스크	-9.94733
▁여왕	-9.94734
▁시험	-9.94747
주간	-9.94747
▁마틴	-9.94751
▁소년	-9.94752
▁집권	-9.94759
▁격차	-9.94762
▁만들었다	-9.94778
▁추방	-9.94784
▁하와이	-9.94786
웨이	-9.94794
▁결혼식	-9.94815
▁축제	-9.9483
▁시절	-9.94846
▁잡지	-9.94858
▁헬	-9.94923
▁술	-9.9495
▁이뤄지	-9.95028
▁소개	-9.95045
혔다	-9.95086
▁피해가	-9.95199
▁업체	-9.95296
▁무사	-9.95379
▁이곳에	-9.95427
▁이혼	-9.95482
련	-9.95502
명에게	-9.95506
▁개의	-9.95555
▁본사	-9.95798
▁지하	-9.95876
▁평화적	-9.95955
▁심리	-9.96078
널	-9.96098
마일	-9.96224
▁정확	-9.96264
x	-9.96272
▁빛	-9.96313
▁사전	-9.96375
▁있는데	-9.96417
▁짐	-9.96447
▁광	-9.96478
▁보이지	-9.9648
▁그것이	-9.96569
카르	-9.96609
▁기자들	-9.96613
▁주가	-9.96685
압	-9.96686
▁델	-9.96693
안에	-9.96711
왕	-9.96737
▁시작한	-9.96757
▁근로자들	-9.96771
맨	-9.96873
▁시위에	-9.96906
▁아이오와	-9.9693
▁교전	-9.96999
소를	-9.96999
▁줄이	-9.97008
▁걱정	-9.97042
▁고객들	-9.97042
▁스티븐	-9.97042
▁스포츠	-9.97042
▁얘기	-9.97042
▁에베레스트	-9.97042
▁올메르트	-9.97042
▁목숨	-9.97043
▁봉쇄	-9.97043
▁수니파	-9.97044
▁목소리	-9.97045
▁득표율	-9.97045
▁나쁜	-9.97055
▁복제	-9.97057
▁오늘날	-9.97064
▁장애	-9.97078
▁1980	-9.97087
▁벌금	-9.97099
▁마쳤다	-9.97107
▁아바스	-9.97112
▁오랜	-9.97114
▁52	-9.97118
▁배출	-9.97122
▁형성	-9.97132
▁연루	-9.97159
▁지목	-9.97178
▁통화	-9.97211
▁주고	-9.97237
▁지급	-9.97261
줬다	-9.97269
▁영어	-9.97286
▁상원의원과	-9.97344
▁여러분	-9.97383
▁유전자	-9.97402
▁53	-9.97578
▁주로	-9.97598
▁있어서	-9.9762
▁연장	-9.97655
▁숙	-9.97695
▁외부	-9.97862
▁전면	-9.97943
했는지	-9.98031
주년	-9.98047
▁격	-9.98099
▁응	-9.9814
해지	-9.98245
대회	-9.98267
▁사용되	-9.98325
▁케이	-9.98371
▁수백	-9.98387
▁이주	-9.98451
▁희생	-9.98629
▁서울	-9.98707
▁전개	-9.98796
▁동원	-9.98814
▁파악	-9.98872
▁희생자들	-9.9893
▁교도소	-9.99101
▁받았으	-9.99116
▁의원이	-9.99217
▁후보에	-9.9924
▁지켜	-9.99271
▁ba	-9.99359
덴	-9.9938
▁승리했다	-9.99394
접	-9.994
▁길이	-9.99415
▁무릎	-9.99423
▁찾기	-9.99423
▁태어난	-9.99423
▁누군가	-9.99424
▁와인하우스	-9.99425
▁쉽게	-9.99426
▁얼음	-9.99432
니스	-9.99433
▁케이블	-9.99434
▁증언	-9.99436
▁검색	-9.99438
▁근육	-9.99448
▁cia	-9.9945
▁관계당국	-9.99463
▁걸릴	-9.99465
▁존재	-9.99482
▁나누	-9.99485
▁조합	-9.99487
▁33	-9.99491
▁55	-9.99493
ce	-9.99496
▁분노	-9.99501
▁날씨	-9.99517
▁대선에서	-9.99539
사들	-9.99546
▁서방	-9.99561
▁나달	-9.99564
▁불안	-9.99573
▁거뒀다	-9.9959
▁법정	-9.99598
▁방화	-9.99637
▁기반	-9.99647
▁id	-9.99759
▁없으	-9.99761
▁경쟁자	-9.9979
▁차지했다	-9.99806
▁올린	-9.99823
▁높아지	-9.99881
▁중국에서	-9.99917
▁노동자	-10
가격	-10.0001
▁베르	-10.0001
▁발생했으	-10.0004
▁be	-10.0017
▁가량	-10.0029
▁번째	-10.0034
대학	-10.0038
et	-10.0042
am	-10.0042
▁소장	-10.0044
▁잔	-10.0046
▁중이라고	-10.0047
▁방향	-10.005
였으	-10.0056
▁받	-10.0058
▁이번주	-10.0059
▁일반적	-10.0073
▁총기	-10.0078
자로	-10.008
▁슬	-10.008
▁학생들이	-10.0087
▁소비자	-10.0101
▁보관	-10.0101
▁참석했다	-10.0106
▁오바마와	-10.0108
전에	-10.0115
므로	-10.0118
▁방문할	-10.0122
▁중부	-10.0128
▁자산	-10.0128
▁등이	-10.0136
낸	-10.0136
▁분리	-10.0145
드시	-10.0145
졌으	-10.0166
국은	-10.0175
활	-10.0177
탁	-10.0177
래서	-10.0178
극	-10.0179
▁모습이	-10.0186
7000	-10.0186
▁1990	-10.0186
▁600	-10.0186
▁남자친구	-10.0186
▁에드워즈	-10.0186
▁엘리자베스	-10.0186
▁쿠데타	-10.0186
▁허커비	-10.0186
▁크루즈	-10.0186
▁말리키	-10.0186
▁섹스	-10.0186
▁말하고	-10.0187
▁운송	-10.0187
▁1998	-10.0187
▁규제	-10.0187
▁건축	-10.0188
▁허락	-10.0188
▁성관계	-10.019
풍	-10.0191
▁빙하	-10.0194
▁행진	-10.0194
작업	-10.0194
▁바람	-10.0194
▁마무리	-10.0196
철	-10.0196
▁의한	-10.02
▁피터	-10.0201
주일	-10.0203
▁묻	-10.0206
▁했었다	-10.0211
▁진화	-10.0213
▁영향력	-10.0214
없이	-10.0217
▁방어	-10.023
▁엔	-10.0231
▁라이트	-10.0245
▁가해	-10.0257
▁나타내	-10.0287
▁us	-10.0305
▁깊	-10.0306
▁75	-10.0308
개월간	-10.031
송	-10.0321
▁사항	-10.0323
▁뿐만	-10.033
월까지	-10.0331
▁달라	-10.0386
▁후보들	-10.0403
68	-10.041
조차	-10.041
▁행성	-10.0414
▁윌리엄	-10.0415
물이	-10.0418
순	-10.042
▁pa	-10.0423
항공	-10.0428
▁항의하	-10.043
▁무엇	-10.0431
▁협회	-10.0434
▁취임	-10.0436
▁유나이티드	-10.0436
▁최신	-10.0436
▁출구조사	-10.0436
▁획득	-10.0436
▁돌고래	-10.0436
▁사드르	-10.0436
▁인터폴	-10.0436
▁베컴	-10.0437
▁빈곤	-10.0437
▁혁명	-10.0437
다른	-10.0439
▁분열	-10.044
▁폭행	-10.0441
▁크리스티	-10.0441
▁언어	-10.0443
▁찬성	-10.0443
스크	-10.0444
▁사인	-10.0446
찬	-10.0446
▁테러범	-10.0447
▁동물원	-10.0453
▁추적	-10.0454
▁서신	-10.0455
칸	-10.0457
▁입국	-10.0458
tv	-10.0459
점이	-10.0459
▁경찰서장	-10.046
▁지키	-10.0461
▁스타디움에서	-10.0461
▁주목	-10.0462
▁치안	-10.0463
▁약속했다	-10.0465
린다	-10.0467
▁공정	-10.0467
엄	-10.0468
▁주위	-10.0475
▁기타	-10.0476
ti	-10.048
▁보좌관	-10.0508
자기	-10.0514
▁아부	-10.0518
스키	-10.0519
▁세포	-10.0522
▁치러지	-10.0522
위에	-10.0528
▁현대	-10.0532
▁수사관	-10.0532
▁구성된	-10.0532
▁사실상	-10.0535
▁없었	-10.0544
어야	-10.056
▁니	-10.0569
80	-10.0569
▁밖에서	-10.0573
왔으	-10.0581
ig	-10.0597
▁역사적	-10.0598
▁ac	-10.0604
▁시청	-10.0606
▁인식	-10.0611
제를	-10.0617
웠	-10.0623
쪽	-10.0625
▁베이	-10.0636
▁권한	-10.0645
▁속도	-10.0659
▁순찰	-10.0674
40	-10.068
▁대부분이	-10.0683
멘	-10.0691
q	-10.0692
▁베트남	-10.0693
▁앞섰	-10.0693
▁오스트리아	-10.0693
▁온난화	-10.0693
▁창기라이	-10.0693
▁챔피언스리그	-10.0693
▁천연가스	-10.0693
▁화장실	-10.0693
▁훌륭	-10.0693
컬	-10.0693
▁nasa	-10.0693
▁북서부	-10.0693
▁벌어진	-10.0693
▁롬니	-10.0693
▁테이프	-10.0693
▁에어버스	-10.0693
▁육군	-10.0693
▁설득	-10.0693
▁억류	-10.0693
▁앨범	-10.0694
파운드	-10.0694
▁산불	-10.0695
▁토론회	-10.0696
ode	-10.0697
▁머물	-10.0697
▁진행되	-10.0698
▁의혹	-10.0698
▁연구팀	-10.0701
진다	-10.0702
▁아침	-10.0703
델	-10.0706
▁증상	-10.0706
하려고	-10.071
▁대량	-10.0711
j	-10.0712
▁우선	-10.0712
봉	-10.0719
▁지진이	-10.0719
▁프로	-10.072
▁무선	-10.0723
듯	-10.0723
생활	-10.0727
곡	-10.0729
▁120	-10.073
▁국민들이	-10.073
▁의사들	-10.073
▁텍사스주	-10.0731
▁자유롭	-10.0731
▁그중	-10.0738
▁음	-10.0739
▁기다리고	-10.0756
▁법원에	-10.0757
▁중국이	-10.0767
▁수집	-10.0773
▁대상	-10.0785
▁워	-10.0793
▁보기	-10.0807
▁타이	-10.0808
▁49	-10.0833
ma	-10.0848
치고	-10.0851
▁내전	-10.0852
▁주인	-10.0855
▁특사	-10.0857
▁i	-10.0857
▁경기장	-10.0858
▁탈	-10.086
겼	-10.087
▁국장	-10.0874
▁내용이	-10.0874
해주	-10.0879
▁친구들	-10.0892
▁연설에서	-10.0893
▁발생하는	-10.0911
▁난민	-10.0911
▁조명	-10.0915
▁승객들	-10.0919
▁중국과	-10.0923
▁확정	-10.0925
정보	-10.0928
▁이루	-10.0929
▁찬	-10.0933
▁보고했다	-10.0946
력이	-10.0947
▁축	-10.0947
딕	-10.0953
슬	-10.0954
세이	-10.0955
멸	-10.0956
▁떨어지	-10.0956
▁여자친구	-10.0956
▁장례식	-10.0956
▁답변	-10.0956
▁반기문	-10.0956
▁겨울	-10.0956
▁공룡	-10.0956
▁스티브	-10.0957
▁새끼	-10.0957
▁산사태	-10.0957
▁예멘	-10.0957
▁주인공	-10.0958
▁인권단체	-10.0959
▁야생	-10.0961
▁토론	-10.0962
▁폭우	-10.0965
▁기준	-10.0965
▁벽	-10.0967
▁조각	-10.0969
▁벗어나	-10.0969
▁오바마에	-10.0969
▁기본	-10.0969
▁장군	-10.097
▁공중	-10.0971
▁군함	-10.0972
▁화면	-10.0973
tion	-10.0976
ml	-10.0977
▁증명	-10.0979
▁견해	-10.0983
▁악어	-10.0984
▁현실	-10.0989
▁손상	-10.0989
필드	-10.0995
▁언급하지	-10.0996
되어야	-10.0996
힐	-10.0999
귀	-10.0999
시에	-10.0999
참	-10.1
카운티	-10.1007
▁나와	-10.101
▁집에서	-10.1012
▁사회적	-10.1013
▁뉴욕주	-10.1028
▁많다	-10.1032
▁수용	-10.1032
▁이틀	-10.1042
▁의식	-10.1043
스코	-10.1043
▁박사	-10.1049
도시	-10.106
▁준	-10.1068
▁사용하	-10.1071
▁고래	-10.1081
▁목격	-10.1082
▁부대	-10.1084
▁목격자	-10.1086
장치	-10.1088
▁악화	-10.1092
들로	-10.1093
▁아일랜드	-10.1098
▁못하는	-10.1098
▁64	-10.1109
▁해고	-10.1114
▁매장	-10.1115
▁발간	-10.1133
▁승무원	-10.114
▁레이	-10.1141
▁치러	-10.1144
▁하루에	-10.1181
영화	-10.119
▁선원	-10.1192
▁나갈	-10.1203
▁확실	-10.1203
탕	-10.121
▁생존자	-10.121
젤	-10.122
롱	-10.1226
▁덴마크	-10.1226
▁마이애미	-10.1226
▁마찬가지	-10.1226
▁브루니	-10.1226
▁옆에	-10.1226
▁펼치	-10.1226
▁포르투갈	-10.1226
▁프로젝트	-10.1226
▁nato	-10.1226
▁고등학교	-10.1226
▁중남미	-10.1226
▁리히터	-10.1226
▁쓰레기	-10.1226
▁삭제	-10.1226
▁복구	-10.1227
▁asp	-10.1228
▁cat	-10.1228
▁자극	-10.123
▁번역	-10.123
▁음모	-10.123
▁밀란	-10.1232
▁단속	-10.1234
▁개입	-10.1235
▁ht	-10.1235
▁발병	-10.1236
▁종식	-10.1238
▁여론	-10.1238
▁실행	-10.1239
▁동반	-10.1239
▁생물	-10.124
왔	-10.1246
잡	-10.1248
▁복잡	-10.1264
▁조지아	-10.1264
▁입수	-10.1266
업자	-10.1267
▁광장	-10.1271
▁보수	-10.1276
▁맛	-10.1276
▁시점	-10.1285
완	-10.1286
▁태도	-10.1292
▁의무	-10.1292
▁취할	-10.1293
칭	-10.1293
▁절대	-10.1307
▁흔들	-10.1307
▁카드	-10.1322
▁클린턴에	-10.1324
입어	-10.1324
380	-10.1344
▁못한다	-10.1344
▁주제	-10.1356
▁이재민	-10.1356
주는	-10.1368
▁설	-10.1376
조사	-10.1377
자들에게	-10.1386
전선	-10.1387
▁소지	-10.1391
리나	-10.1403
▁정부에	-10.1413
▁수백만	-10.1413
▁보험	-10.1424
▁남북	-10.1427
우스	-10.1429
▁북	-10.143
▁것이었다	-10.1432
▁눈에	-10.1434
▁것보다	-10.1437
▁환	-10.1438
▁차지	-10.1439
▁39	-10.1443
▁주장한	-10.1451
▁카페	-10.1454
▁장비	-10.1474
달라고	-10.1475
el	-10.1478
▁와인	-10.1491
▁남자들	-10.1492
징	-10.1498
▁줄어들	-10.1499
헌	-10.1499
딩	-10.1502
▁궤도	-10.1504
▁끝난	-10.1504
▁리버풀	-10.1504
▁마흐디	-10.1504
▁북동부	-10.1504
▁스탈린	-10.1504
▁훼손	-10.1504
겐	-10.1504
▁원숭이	-10.1504
▁라호르	-10.1504
▁조종사	-10.1504
▁대다수	-10.1504
▁하원의원	-10.1504
▁핵프로그램	-10.1504
▁심각하	-10.1506
▁관영	-10.1507
▁황금	-10.1507
▁출동	-10.1507
▁애플	-10.1508
▁식당	-10.1509
▁임금	-10.1509
▁지휘	-10.1509
▁생긴	-10.151
▁사막	-10.1512
▁진실	-10.1513
▁연속	-10.1513
▁인종	-10.1518
▁들어갔다	-10.1522
▁재산	-10.1523
▁몰아	-10.1523
▁카터	-10.1524
▁싸	-10.1524
▁대체	-10.1528
▁의료	-10.153
▁가능	-10.1536
▁밑	-10.1541
▁피트	-10.155
▁상황에서	-10.1552
▁선언했다	-10.1553
▁고려	-10.1555
쓰	-10.1557
▁시작됐다	-10.156
▁보유	-10.1564
▁주에서	-10.1564
▁고향	-10.1565
▁대치	-10.1572
▁발생하지	-10.1574
수가	-10.1577
경찰	-10.1585
섬	-10.1586
▁상업	-10.1587
▁본부	-10.1588
방송	-10.1591
▁움직이	-10.1595
▁미니	-10.1596
▁하락했다	-10.1605
해줄	-10.1608
렸으	-10.1611
▁제기	-10.1612
ca	-10.1624
▁수정	-10.1629
▁일하	-10.1631
▁34	-10.1662
▁국경지역	-10.1671
▁동물들	-10.1674
닝	-10.1689
▁사람에게	-10.1698
▁사무	-10.1725
주의자	-10.1728
▁갖는	-10.1746
▁푸	-10.1748
▁추정되	-10.1752
▁실제	-10.1754
▁선거에서	-10.1759
찰	-10.1763
▁회원	-10.1765
▁광산	-10.1766
▁반군이	-10.1773
▁송	-10.1776
▁굴	-10.1776
멜	-10.1778
▁버지니아	-10.1779
▁국가비상사태	-10.1788
렉	-10.179
▁블라디미	-10.179
▁샌디에이고	-10.179
▁휘발유	-10.179
▁휴대전화	-10.179
▁긍정적	-10.179
▁요르단	-10.179
▁자르다리	-10.179
▁천주교	-10.179
▁ibm	-10.179
▁보이콧	-10.179
▁쇼핑	-10.179
▁면접	-10.179
▁침대	-10.1791
▁mdc	-10.1792
▁소련	-10.1793
▁바꾸	-10.1793
▁예술	-10.1793
▁선거운동	-10.1793
쪽으로	-10.1794
▁체중	-10.1795
▁만드는	-10.1795
▁왕실	-10.1795
▁상대방	-10.1796
▁기능	-10.1797
▁절차	-10.1799
▁선전	-10.1801
▁신청	-10.1801
▁인형	-10.1806
▁연관	-10.1807
▁공포	-10.1808
▁유발	-10.1808
▁물건	-10.181
▁오하이오주	-10.1813
▁항소	-10.1819
▁발생하	-10.1821
▁아난	-10.1823
리에	-10.1825
▁상처	-10.1825
▁폐기	-10.1828
▁신호	-10.1841
▁사살	-10.1841
행위	-10.1846
▁조성	-10.1854
▁총장	-10.1861
▁웨	-10.1864
▁전날	-10.187
▁기구	-10.1876
▁의문	-10.1877
▁문제로	-10.1887
전에서	-10.1887
▁상황에	-10.1887
농	-10.1888
칼	-10.189
화물	-10.1891
▁자제	-10.1894
82	-10.1896
▁요리	-10.1898
킹	-10.1899
co	-10.1909
▁환자들	-10.1909
▁비상	-10.1914
했습니다	-10.1915
▁요인	-10.1935
▁장면이	-10.1938
타임	-10.1943
▁대통령에게	-10.1945
▁수석	-10.1952
요원	-10.1954
▁의도	-10.1957
나갔다	-10.1966
▁요원	-10.1967
▁주의	-10.1967
어져	-10.1972
▁41	-10.1977
이기	-10.1981
▁거두	-10.1987
▁생각하고	-10.199
▁세워	-10.1993
▁부과	-10.2009
▁대답	-10.2013
▁그와	-10.2028
▁명단	-10.2031
▁끌어	-10.2039
했기	-10.2047
▁착용	-10.2053
ir	-10.2067
▁ch	-10.2069
▁감염된	-10.2073
틴	-10.2074
효	-10.2075
옥	-10.2075
▁공항에서	-10.2079
▁이끌어	-10.208
▁영국인	-10.208
럴	-10.2081
묘	-10.2081
롤	-10.2083
홍	-10.2083
▁가택연금	-10.2084
▁기독교	-10.2084
▁토네이도	-10.2084
킬로미터	-10.2084
햄	-10.2084
▁히드로	-10.2084
▁시리즈	-10.2084
▁습격	-10.2084
▁타임즈	-10.2084
▁승부	-10.2085
▁노벨	-10.2087
▁출석	-10.2087
▁원자로	-10.2088
▁순방	-10.2088
▁학살	-10.2088
▁무엇보다	-10.2089
▁라덴	-10.2089
▁도입	-10.2091
▁입증	-10.2092
▁경호	-10.2093
▁테러단체	-10.2094
▁콜	-10.2094
비치	-10.2094
번째로	-10.2095
▁비율	-10.2099
▁분명히	-10.2099
▁돌파	-10.2099
▁상공	-10.21
▁보통	-10.2103
▁66	-10.2105
▁모여	-10.2106
▁잔해	-10.2108
▁검토	-10.2111
▁만들어진	-10.212
▁뼈	-10.2123
▁화해	-10.2129
버렸다	-10.2131
▁소수	-10.2134
드라	-10.214
▁발표하	-10.2141
부장	-10.2144
▁세상	-10.2163
▁야기	-10.2167
놓	-10.2167
▁민	-10.2174
▁정치인	-10.2174
패	-10.2177
ba	-10.2177
▁방법이	-10.2186
▁가는	-10.2187
디스	-10.219
▁기상	-10.219
▁고립	-10.2192
▁검	-10.2194
▁it	-10.2195
at	-10.2196
▁현상	-10.2198
걸	-10.2198
후드	-10.2199
▁해결하기	-10.22
▁데이	-10.2206
74	-10.2211
대표	-10.2222
▁59	-10.2228
▁54	-10.2229
보호	-10.2234
▁린	-10.2235
업계	-10.2239
▁형태	-10.2251
▁참석하	-10.2254
▁56	-10.2258
93	-10.226
택	-10.2282
▁에어	-10.2284
84	-10.2286
▁연구원들	-10.2291
▁발표된	-10.2316
세트	-10.232
▁해안에서	-10.2324
▁가했다	-10.2335
▁강타	-10.2344
▁가까이	-10.2356
▁지연	-10.2358
▁공기	-10.2363
▁시작되	-10.2367
▁43	-10.237
▁조사에	-10.237
치는	-10.2373
▁뉴햄프셔	-10.2374
괴	-10.2376
켓	-10.2379
▁800	-10.2387
▁그렇지	-10.2387
▁베어스턴스	-10.2387
▁베탕쿠르	-10.2387
▁왼쪽	-10.2387
▁쿠웨이트	-10.2387
▁헨리	-10.2387
▁흥분	-10.2387
▁미성년자	-10.2387
▁쇠고기	-10.2387
▁폴란드	-10.2387
▁남서부	-10.2387
▁혜택	-10.2387
▁치열한	-10.2387
▁다르푸르	-10.2387
▁북핵	-10.2387
▁바스라	-10.2387
▁일으킨	-10.2387
▁맞춰	-10.2388
▁다니엘	-10.2388
▁타이틀	-10.2388
▁침해	-10.2389
▁단순	-10.2389
▁1994	-10.239
분의	-10.2391
▁폭설	-10.2392
▁경호원	-10.2394
▁대책	-10.2395
▁시드니	-10.2395
pe	-10.2397
▁돌아오	-10.2398
▁확실히	-10.2399
퍼센트	-10.24
▁키우	-10.2402
▁공식적으로	-10.2403
▁존슨	-10.2403
▁혹	-10.2405
테니스	-10.2406
▁읽	-10.2411
▁간단	-10.2413
▁예를들	-10.2416
▁학대	-10.2417
▁아동	-10.2417
▁열대	-10.2429
▁160	-10.2429
었습니다	-10.2429
▁날개	-10.243
▁화학	-10.2431
▁보호하기	-10.2434
75	-10.2436
▁일본에서	-10.2436
▁연주	-10.2442
▁위대	-10.2443
▁직장	-10.2443
▁노동자들	-10.2443
▁주연	-10.2444
na	-10.2447
op	-10.2466
▁자사	-10.2491
▁편지	-10.2499
뿐	-10.2502
▁법적	-10.2503
히려	-10.2507
▁한국은	-10.2508
곤	-10.2515
남	-10.2516
값	-10.2517
▁촉구하	-10.2517
헤	-10.2519
응	-10.2525
▁z	-10.2534
잔	-10.2534
▁런던에서	-10.2534
빠진	-10.2537
으면	-10.2548
브라	-10.2549
▁못했	-10.2549
▁노인	-10.2557
▁전역	-10.2562
▁이식	-10.2565
▁중재	-10.2569
▁거절	-10.2572
▁지시했다	-10.2583
▁취소	-10.2583
▁나서	-10.2585
타르	-10.2596
▁운전자	-10.2598
▁금년	-10.2604
▁그대로	-10.2606
▁정신적	-10.2608
▁생일	-10.2621
행사	-10.2633
um	-10.2634
▁생각하는	-10.2638
▁즉각적	-10.2642
▁표했다	-10.2646
릭	-10.2667
▁민간	-10.2668
▁지시	-10.2672
▁풍	-10.2672
di	-10.2673
▁생각했다	-10.2677
시대	-10.2681
스톤	-10.2682
▁펼쳐	-10.2685
덕	-10.2698
넬	-10.2699
짝	-10.2699
▁ioc	-10.2699
▁떨어졌다	-10.2699
▁미시시피	-10.2699
▁사우스캐롤라이나	-10.2699
▁수퍼대의원	-10.2699
▁예루살렘	-10.2699
▁주최측	-10.2699
▁줄리아니	-10.2699
▁페더러	-10.2699
▁활주로	-10.2699
▁선관위	-10.2699
▁세계대전	-10.2699
▁완벽	-10.2699
▁받아들일	-10.27
▁자선단체	-10.27
▁엄청	-10.27
▁여학생	-10.27
▁상하이	-10.2701
▁1996	-10.2701
▁모기지	-10.2701
▁nation	-10.2701
ment	-10.2702
▁감축	-10.2702
▁영양	-10.2703
▁통합	-10.2703
▁해결책	-10.2703
▁진영	-10.2703
▁탐사	-10.2705
▁출산	-10.2705
▁소매	-10.2705
▁종류	-10.2706
▁리비아	-10.2707
▁가득	-10.2709
▁무료	-10.2711
버그	-10.2711
▁시장에서	-10.2713
▁파병	-10.2713
▁오염	-10.2714
▁아니었다	-10.2717
▁물체	-10.272
▁압	-10.272
▁대학교	-10.2721
▁김치	-10.2722
▁수위	-10.2723
▁un	-10.273
▁불러	-10.273
ity	-10.2733
시장에서	-10.2734
▁세우	-10.2736
국장	-10.2737
▁확인됐다	-10.2737
▁궁	-10.2742
▁달린	-10.2745
▁유치	-10.275
▁적절한	-10.2753
▁물이	-10.2755
▁제보	-10.2756
▁달성	-10.277
▁농장	-10.2771
▁공격에	-10.2775
국인	-10.2781
▁사라	-10.2786
▁수영	-10.2797
▁인근에서	-10.2801
▁앞에	-10.2802
▁구조대	-10.2807
차전	-10.2813
▁노출	-10.2814
▁분야	-10.2819
▁밴	-10.2821
▁감지	-10.2825
해준	-10.2826
▁on	-10.2829
▁죄	-10.2833
▁극장	-10.2835
▁전역에	-10.2839
얼	-10.2841
폐	-10.2846
▁이라크에	-10.285
법원	-10.285
ut	-10.2857
▁투자자들	-10.2867
▁수배	-10.2867
▁청소년	-10.2871
사항	-10.2876
▁방지	-10.2881
▁못해	-10.2901
▁장악	-10.2903
▁방문했다	-10.2914
▁이민	-10.2922
▁남편이	-10.2931
▁색	-10.294
▁비용이	-10.2942
▁구조대원들	-10.2942
백만	-10.2947
▁동의	-10.2955
시위	-10.2965
▁왔	-10.2972
됐을	-10.2976
▁실망	-10.2982
▁코트	-10.2991
▁불과	-10.2994
▁67	-10.3002
럽	-10.3002
▁전통적	-10.3012
▁태양	-10.302
▁맨체스터	-10.3022
▁골키퍼	-10.3022
▁메드베데프	-10.3022
▁뮤지컬	-10.3022
▁스웨덴	-10.3022
▁우라늄	-10.3022
▁헤즈볼라	-10.3022
▁리조트	-10.3022
▁봉송	-10.3022
▁화이트	-10.3022
▁북극	-10.3022
▁드러냈다	-10.3022
▁해리포터	-10.3023
▁복원	-10.3023
았던	-10.3023
▁발굴	-10.3024
▁급증	-10.3025
▁소탕	-10.3025
▁평양	-10.3025
▁게재	-10.3026
▁폭동	-10.3027
장인	-10.3027
▁부패	-10.3027
▁사생활	-10.3028
▁소행성	-10.3028
▁자본	-10.3032
▁접전	-10.3034
▁같	-10.304
▁재난	-10.304
▁상사	-10.3041
▁개방	-10.3042
▁자행	-10.3043
▁보급	-10.3043
▁경보	-10.3043
시키려	-10.3044
▁제공하는	-10.3046
▁얼마전	-10.3048
▁공격이	-10.3048
▁어디	-10.3049
▁점차	-10.305
▁원조	-10.3054
▁파티	-10.3056
▁주는	-10.3056
▁이스라엘군	-10.3058
▁밝혔으	-10.306
▁날아	-10.3064
▁위협이	-10.3076
▁호세	-10.308
▁성과	-10.3081
들로부터	-10.3082
▁나선	-10.3083
▁안보리	-10.3085
▁플로리다주	-10.3085
▁지속	-10.3086
▁남아	-10.3088
▁일으	-10.3095
z	-10.3099
▁작동	-10.3102
▁버리	-10.3108
▁빅	-10.3112
▁이론	-10.3122
▁전복	-10.3122
▁이익	-10.3123
▁700	-10.3126
당한	-10.3137
▁벗	-10.3141
man	-10.3141
▁받는다	-10.3145
▁ha	-10.315
건의	-10.3151
▁진술했다	-10.3158
▁체제	-10.3162
▁승리하	-10.3167
▁이하	-10.3173
ow	-10.3176
▁fa	-10.3177
▁해적	-10.3182
됐었다	-10.3189
▁원하는	-10.3191
▁47	-10.3201
상황	-10.3209
원인	-10.3212
사태	-10.3224
▁포기	-10.3225
▁참여하	-10.3229
▁봤다	-10.3238
스타인	-10.3257
기술	-10.3261
니아	-10.3264
▁협상이	-10.3269
녀	-10.3269
▁폭탄이	-10.3273
지역에	-10.3275
▁자택	-10.3281
▁농민들	-10.3304
▁바그다드에서	-10.3308
▁경매에	-10.3309
ter	-10.331
▁테러리스트	-10.3314
▁가게	-10.3325
▁시기에	-10.3328
▁재정	-10.3333
▁책임자	-10.3333
▁씨	-10.3335
느냐	-10.3348
▁왕세자	-10.335
혜	-10.3354
릿	-10.3355
▁저녁	-10.3355
8000	-10.3355
▁imf	-10.3355
▁네트워크	-10.3355
▁동티모르	-10.3355
▁오사마빈라덴	-10.3355
▁이산화탄소	-10.3355
꾼	-10.3355
▁나타난	-10.3355
▁랭킹	-10.3355
▁아메리칸	-10.3355
웬	-10.3355
▁받아들여	-10.3355
▁일어난	-10.3355
▁롤링	-10.3355
▁잇따	-10.3355
▁패트릭	-10.3356
▁연쇄	-10.3356
▁슈퍼	-10.3356
▁지붕	-10.3356
▁가벼	-10.3356
▁품목	-10.3356
▁동굴	-10.3357
▁레알	-10.3357
▁대선주자	-10.3357
▁드러내	-10.3358
▁출입	-10.3358
▁행복	-10.3358
▁고유가	-10.3359
심한	-10.336
▁맞추	-10.3361
▁둘러	-10.3361
▁미국에	-10.3362
▁국적	-10.3362
▁포기하	-10.3362
▁플레이어	-10.3364
▁부담	-10.3365
▁넓	-10.3365
▁수십명	-10.3366
▁인생	-10.3367
▁통계	-10.3368
▁각국	-10.3368
▁일주일	-10.3368
▁벨기에	-10.3368
▁직면	-10.3371
▁배경	-10.3371
▁돌려	-10.3372
▁보석	-10.3372
▁예선	-10.3372
▁포터	-10.3372
▁보복	-10.3374
ke	-10.3374
▁기소됐다	-10.3376
▁as	-10.3379
▁잃었다	-10.3384
▁개정	-10.3385
▁57	-10.3392
▁내릴	-10.3395
슬리	-10.3396
▁요구하고	-10.34
▁있어야	-10.3404
▁요소	-10.3407
리차드	-10.3408
▁at	-10.3408
▁li	-10.3411
▁지점에서	-10.3412
▁국민들에게	-10.3414
▁250	-10.3416
▁누리	-10.3419
▁걸린	-10.3424
▁마르	-10.3425
▁영국군	-10.3431
간에	-10.3431
▁인질들	-10.3431
▁초대	-10.3436
▁되기	-10.344
분간	-10.3454
▁고어	-10.3458
▁대통령에	-10.3461
▁그리	-10.3463
▁묘사	-10.3466
▁유대인	-10.3467
▁미국인들이	-10.347
▁원한다	-10.3485
어질	-10.3485
▁클린턴과	-10.3495
▁셀	-10.3507
▁마비	-10.3511
▁의존	-10.3513
▁오브	-10.3516
▁논란	-10.3522
▁논란이	-10.3532
필	-10.3544
죄	-10.3546
▁곤	-10.3549
▁전사	-10.3555
테러	-10.3561
▁일본은	-10.3563
▁전부터	-10.3563
▁부위	-10.3575
뿐만	-10.3578
▁보면	-10.358
▁피해자들	-10.3592
▁좋아	-10.3593
업자들	-10.3603
▁ma	-10.3606
작전	-10.3608
▁투어	-10.3609
▁199	-10.3612
▁공간	-10.3617
▁않으면	-10.3623
▁맡은	-10.3648
▁보유하	-10.3649
▁se	-10.365
▁발생했	-10.3658
▁듯	-10.3659
▁남아있	-10.3661
▁경영	-10.3663
▁사람들과	-10.367
▁행사에	-10.3681
▁가리	-10.3682
차량	-10.3682
롭	-10.3683
▁차지하	-10.3684
▁상승했다	-10.369
픈	-10.3695
핑	-10.3697
넷	-10.37
▁america	-10.37
▁식료품	-10.37
▁쏟아	-10.37
▁인명피해	-10.37
▁케르비엘	-10.37
닷컴	-10.37
룰	-10.37
▁cbs	-10.37
▁콜로라도	-10.37
▁양키스	-10.37
▁월요일	-10.37
▁호랑이	-10.37
▁ceo	-10.37
▁교통사고	-10.37
▁마사지	-10.37
▁엄격	-10.3701
▁태풍	-10.3701
▁who	-10.3702
▁화합	-10.3702
▁연행	-10.3703
▁외교관	-10.3703
▁강풍	-10.3705
▁디자인	-10.3705
▁테러조직	-10.3706
▁타밀	-10.3706
▁지켜보	-10.3706
▁에릭	-10.3708
자회담	-10.3708
78	-10.3711
▁사담	-10.3711
▁동결	-10.3712
▁폭파	-10.3712
▁형제	-10.3712
▁불편	-10.3712
▁예산	-10.3712
▁이에따라	-10.3713
▁미첼	-10.3715
▁토마	-10.3716
▁지도	-10.3718
▁강요	-10.3718
▁신중	-10.3721
▁동맹국	-10.3727
호가	-10.3728
▁쓸	-10.3728
▁비교적	-10.3732
스카	-10.3733
▁우리베	-10.3733
▁추정된다	-10.3735
▁달려	-10.3736
▁내각	-10.3737
▁늘어나	-10.3737
▁관찰	-10.3739
▁무력	-10.374
▁인도분	-10.374
▁이루어	-10.3742
▁생산량	-10.3749
▁의지	-10.3753
▁올라가	-10.3755
▁자원	-10.3763
land	-10.3765
▁실종됐다	-10.3765
▁맞서	-10.3765
▁가능하다	-10.3773
▁걸리	-10.3789
체계	-10.3789
▁올려	-10.3789
▁경기에	-10.3789
▁정부군과	-10.3792
▁거리에	-10.3799
▁내놓	-10.3801
▁엑스	-10.3806
▁확인하	-10.3816
▁md	-10.3817
▁다르	-10.3818
▁조사에서	-10.3819
해달라	-10.3834
유로	-10.3839
회의에서	-10.384
▁프레스	-10.3841
88	-10.385
▁탈출	-10.3857
편의	-10.3869
타운	-10.3869
▁거부했다	-10.3877
세인	-10.3877
▁해산	-10.3887
▁화재로	-10.3889
▁과학자	-10.3889
위해	-10.3898
▁알라	-10.3899
▁65	-10.3901
▁값	-10.3904
▁도착한	-10.3907
펜	-10.3921
4000	-10.3922
▁지수	-10.3923
쳤	-10.3926
시스템	-10.3929
투표	-10.393
암	-10.3931
▁완	-10.3938
▁나에게	-10.3939
▁95	-10.394
▁위협하	-10.3941
▁과도	-10.3951
위로	-10.3955
▁내에	-10.3957
수록	-10.3958
▁적극적	-10.3961
냈	-10.3974
▁예상되	-10.3975
▁생존	-10.3976
▁비교	-10.3977
▁국가에서	-10.3981
▁61	-10.3996
▁부리	-10.3997
자료	-10.3999
▁약세	-10.4001
총리	-10.4002
▁여론조사에서	-10.4007
▁북쪽	-10.4013
▁낸	-10.4016
노조	-10.4022
▁래	-10.4027
준다	-10.404
▁불가능	-10.4054
▁uefa	-10.4057
▁국제공항	-10.4057
▁펼쳤다	-10.4057
▁협박	-10.4057
닉	-10.4057
턱	-10.4057
▁그루지아	-10.4057
▁명확	-10.4057
▁알코올	-10.4057
▁과반수	-10.4057
▁오마르	-10.4057
▁은신처	-10.4057
▁테일러	-10.4057
▁유혈사태	-10.4057
▁어떠	-10.4057
▁티벳	-10.4057
▁일요일	-10.4058
▁복무	-10.4058
▁송환	-10.4058
▁dna	-10.4059
▁국민투표	-10.4059
▁조약	-10.4059
▁실질적	-10.406
▁구호단체	-10.406
▁보존	-10.4061
▁징역형	-10.4061
▁개헌안	-10.4062
▁영화배우	-10.4062
▁오스카	-10.4062
▁러드	-10.4065
▁판사들	-10.4065
▁남성들	-10.4067
▁봄	-10.4068
▁준수	-10.4068
▁청구	-10.4068
▁대항	-10.4068
▁타격	-10.4068
▁봉사	-10.4068
▁구출	-10.4071
▁가담	-10.4072
▁매각	-10.4073
▁심문	-10.4075
▁진단	-10.4076
▁제목	-10.4077
▁결승전	-10.4086
▁선보	-10.4087
▁의학	-10.4087
▁차단	-10.4091
▁180	-10.4091
▁사설	-10.4091
▁만났다	-10.4096
▁가동	-10.4096
▁거래됐다	-10.4097
▁메르	-10.4097
▁te	-10.4098
▁특수	-10.4101
▁갖게	-10.4103
▁기여	-10.4106
▁보건부	-10.4106
all	-10.4108
▁잡고	-10.4112
져야	-10.4116
아야	-10.4116
▁시티	-10.4117
▁주간	-10.4124
▁용기	-10.413
▁실패했다	-10.4131
▁일간지	-10.4142
▁선거관리위원회	-10.4142
▁이와같	-10.4153
▁전역에서	-10.416
▁상어	-10.4162
▁템	-10.4162
과정	-10.4167
▁승무원들	-10.4173
da	-10.4182
트라	-10.4182
▁wa	-10.4185
▁기분	-10.4191
스가	-10.42
▁72	-10.4201
▁me	-10.4203
▁주기	-10.4204
▁아르	-10.4206
▁메이	-10.4208
▁센	-10.4209
▁주었다	-10.4213
▁태평양	-10.4219
장으로	-10.4233
▁이해	-10.4239
▁sa	-10.4244
▁지속적	-10.4251
▁언론에	-10.4258
자금	-10.4261
sa	-10.4267
▁만들고	-10.427
▁도시에서	-10.4274
▁아래	-10.4275
▁공화국	-10.4276
▁발언에	-10.4285
▁열어	-10.4292
▁제안했다	-10.4293
존	-10.4293
no	-10.4302
▁가족과	-10.4302
▁북한에	-10.4306
700	-10.4309
하고자	-10.4309
▁선포했다	-10.4312
300	-10.4312
▁외교적	-10.4313
팔	-10.4315
▁99	-10.4318
둘	-10.432
▁칼리	-10.4339
▁대회에서	-10.435
▁니콜	-10.4352
▁유럽의	-10.4355
▁제도	-10.4373
▁포함돼	-10.4375
흘	-10.4376
▁실적	-10.4376
▁위에	-10.4397
▁부문	-10.4399
▁적십자	-10.4402
험	-10.4402
▁결승	-10.4403
첼	-10.4411
▁필요로	-10.4412
▁증가하	-10.4413
▁압둘	-10.4414
▁제공한	-10.4415
닥	-10.4416
셔	-10.4424
렬	-10.4424
픽	-10.4425
촉	-10.4426
!	-10.4427
6000	-10.4427
▁그루지야	-10.4427
▁마이크로소프트	-10.4427
▁샤라포바	-10.4427
▁쌍둥이	-10.4427
▁이슬라마바드	-10.4427
밍	-10.4427
▁검문소	-10.4427
▁광우병	-10.4427
▁러닝메이트	-10.4427
▁오토바이	-10.4427
▁여겨지	-10.4428
▁활약	-10.4428
▁좌석	-10.4428
▁북부에	-10.4428
▁졸리	-10.4428
▁택시	-10.4428
▁쉽지	-10.4428
▁두바이	-10.4429
▁새벽	-10.4429
▁순례	-10.4429
▁보잉	-10.443
▁남극	-10.443
▁이사	-10.443
▁국회의원	-10.4431
▁걸렸다	-10.4431
▁합류	-10.4431
▁민감	-10.4431
▁교환	-10.4431
▁핵시설	-10.4432
▁환호	-10.4432
▁성향	-10.4433
▁변경	-10.4434
▁통증	-10.4435
▁1993	-10.4435
▁예약	-10.4436
▁폐기물	-10.4436
우드	-10.4437
▁닐	-10.4438
▁관여	-10.444
▁재판관	-10.4441
▁젊은이들	-10.4442
▁음성	-10.4442
▁1950	-10.4443
▁배후	-10.4443
▁우주비행사	-10.4443
▁치명적	-10.4443
▁공약	-10.4444
▁중대	-10.4444
▁총격전	-10.4447
▁강경	-10.4448
▁말해	-10.4448
▁다루	-10.4451
스럽게	-10.4464
▁중독	-10.4467
▁차량에	-10.4468
▁무시	-10.4472
▁권고했다	-10.4472
▁공개됐다	-10.4475
▁것인가	-10.4476
▁연안	-10.4483
▁이름이	-10.4484
▁대법원장	-10.4484
본부	-10.4485
▁130	-10.4489
▁제대	-10.449
▁지내	-10.449
▁크레	-10.449
▁다르다	-10.4497
▁모금	-10.4499
009	-10.45
▁즉각	-10.4501
▁카페인	-10.4503
▁로한	-10.4504
▁제프	-10.4508
▁간주	-10.4509
▁이용하는	-10.4517
▁끼	-10.4517
▁중요성	-10.4521
▁초점	-10.4525
▁수립	-10.4532
▁범인이	-10.4538
▁방문해	-10.4542
▁무대	-10.4548
▁휴일	-10.4548
금지	-10.4566
▁인근에	-10.4569
▁물에	-10.4569
▁베리	-10.4573
▁해병	-10.4579
▁극복	-10.4583
▁차지하고	-10.4586
이었으	-10.4593
▁거절했다	-10.4599
15	-10.4602
▁사용자들	-10.4606
▁확신한다	-10.461
▁자라	-10.4611
▁기대한다	-10.4614
▁여성들이	-10.463
▁얼	-10.4634
▁참석해	-10.4636
▁무리	-10.4644
▁이후에	-10.4645
▁결정에	-10.4645
▁파손	-10.4649
▁재단	-10.4653
속도로	-10.4658
▁신장	-10.4659
▁국제적	-10.466
ry	-10.4664
▁경비	-10.4674
▁검은	-10.4675
▁수행하	-10.4678
끼	-10.469
▁인정하	-10.47
짓	-10.4702
몰	-10.4706
알	-10.4708
▁알바	-10.471
400	-10.4712
1000	-10.4713
사령관	-10.4713
▁파리에서	-10.4715
특	-10.4716
연구소	-10.4717
▁해적들	-10.4736
af	-10.4743
▁일본이	-10.4744
스케	-10.4749
▁곡	-10.475
▁인민	-10.4754
▁흉	-10.4754
▁옮겨	-10.4757
세포	-10.4772
▁이행	-10.4774
▁있다면	-10.4776
▁co	-10.4783
▁년간	-10.4784
램	-10.4791
▁네바다	-10.48
닌	-10.48
▁an	-10.4801
럭	-10.4811
딜	-10.4812
▁opec	-10.4812
▁구호물품	-10.4812
▁내무장관	-10.4812
▁느낄	-10.4812
▁사형집행	-10.4812
▁아랍에미리트	-10.4812
▁아웅산수치	-10.4812
▁앤더슨	-10.4812
▁유니세프	-10.4812
▁일으켰다	-10.4812
▁최선	-10.4812
▁평화협상	-10.4812
▁플라스틱	-10.4812
▁협정	-10.4812
▁호나우두	-10.4812
콤	-10.4812
큐	-10.4812
▁침입	-10.4812
▁라파엘	-10.4812
▁범행	-10.4813
▁라이벌	-10.4813
▁숨졌으	-10.4813
▁제재조치	-10.4813
▁탄압	-10.4814
▁관람	-10.4814
▁커플	-10.4815
▁대륙	-10.4816
▁직업	-10.4816
▁음반	-10.4816
▁현지경찰	-10.4817
▁계산	-10.4819
▁일리노이주	-10.482
▁도망	-10.4821
▁2010	-10.4823
▁화려	-10.4825
으려	-10.4825
▁도난	-10.4826
▁알래스카	-10.4826
▁열심	-10.4827
▁해병대	-10.4829
▁대학생	-10.4829
▁만난	-10.4829
▁신임	-10.4829
▁우리에게	-10.483
▁이슬람교	-10.483
▁이씨	-10.483
▁기대하	-10.4832
▁지구에	-10.4833
▁조작	-10.4833
▁감정	-10.4833
▁기증	-10.4833
▁받아야	-10.4834
▁들여	-10.4835
▁지출	-10.4836
▁3000	-10.4836
▁마무	-10.4836
▁구금	-10.4837
▁해임	-10.4838
연승	-10.4838
▁떠났다	-10.4841
▁폭격기	-10.4841
▁숲	-10.4843
▁마리아	-10.4844
▁사법	-10.4846
▁당부	-10.4859
▁북쪽으로	-10.4861
▁성당	-10.4862
▁달한다	-10.4863
▁다이	-10.4864
▁중국에	-10.4867
▁병사들	-10.4868
▁주석	-10.4869
▁캘리포니아주	-10.4872
▁폭스	-10.4874
▁다수	-10.4875
▁이송	-10.488
더라	-10.4883
226	-10.4889
▁클레	-10.489
▁총상	-10.4893
▁국기	-10.4898
나무	-10.4902
▁이라크군	-10.4903
▁꽃	-10.4904
▁군인들	-10.491
▁사용자	-10.4911
▁제기했다	-10.4918
▁월드	-10.4919
레즈	-10.4927
점으로	-10.4943
▁딸이	-10.4948
▁막아	-10.4954
▁코커스에서	-10.4957
▁의회에서	-10.4961
미터	-10.4973
▁촉구	-10.4979
▁투표할	-10.4989
▁싶어	-10.4989
▁반지	-10.4998
▁작년	-10.5006
▁인터넷에	-10.5007
내내	-10.5009
▁가르	-10.5013
▁바위	-10.5014
▁전쟁에	-10.5019
▁중단할	-10.5025
▁떼	-10.503
to	-10.5042
▁탐	-10.5058
▁풀어	-10.5078
검	-10.5087
▁급속	-10.5095
황	-10.5104
▁유럽에서	-10.5106
▁칭	-10.5109
▁동쪽	-10.5116
갑	-10.5118
났	-10.5121
▁제이	-10.5121
셀	-10.5123
▁일본에	-10.5124
2000	-10.513
축구	-10.5132
뉴스	-10.5143
▁신도들	-10.5143
go	-10.5148
공급	-10.5152
▁봉	-10.5152
▁먹이	-10.5155
▁차량이	-10.5158
▁so	-10.5161
▁마감	-10.5167
▁폭격	-10.5186
돼있다	-10.5203
얀	-10.5206
▁감독이	-10.5206
▁청소	-10.5206
▁않으	-10.5206
둥	-10.5208
▁민족	-10.5211
웅	-10.5211
▁객실	-10.5212
▁골든글로브	-10.5212
▁노대통령	-10.5212
▁산타클로스	-10.5212
톱	-10.5212
틱	-10.5212
▁아칸소	-10.5212
▁응답자	-10.5212
▁두려움	-10.5212
▁아스널	-10.5212
▁아이디어	-10.5212
▁히틀러	-10.5212
▁라모스	-10.5212
▁토요일	-10.5212
▁파나마	-10.5212
▁스트레스	-10.5212
▁베를린	-10.5212
▁암컷	-10.5212
▁첼시	-10.5213
▁지하철	-10.5213
▁코미디	-10.5213
▁보여줬다	-10.5213
▁응급	-10.5213
▁이뤄졌다	-10.5213
▁알려져	-10.5213
▁이메일	-10.5214
▁abc	-10.5214
▁리처드슨	-10.5214
▁공개된	-10.5214
▁급락	-10.5215
▁데이터	-10.5216
▁제작사	-10.5216
▁패션	-10.5217
▁정보부	-10.5217
▁괴한	-10.5217
▁하워드	-10.5217
▁결합	-10.5218
▁경영진	-10.5219
▁구글	-10.5219
▁연예	-10.522
▁추측	-10.522
▁차별	-10.5221
▁현금	-10.5221
▁58	-10.5222
에이커	-10.5224
▁이사회	-10.5224
▁만날	-10.5225
▁상병	-10.5228
▁조절	-10.5229
▁수용소	-10.5229
ine	-10.5229
▁도살	-10.5229
▁존경	-10.523
▁소설	-10.5232
▁접수	-10.5232
▁공개적으로	-10.5234
▁라울	-10.5234
▁발발	-10.5236
▁뿐이다	-10.5237
▁직전	-10.5238
▁발전소	-10.5239
▁골프	-10.524
▁초반	-10.5241
▁토니	-10.5242
▁기록하	-10.5242
▁유력	-10.5242
▁차질	-10.5242
▁꼭	-10.5244
▁정식	-10.5249
▁나오지	-10.5253
▁한때	-10.5253
▁이륙	-10.5257
▁가난한	-10.5259
▁맥주	-10.5262
▁소화	-10.5265
▁선박이	-10.527
했음	-10.528
▁지지자들에게	-10.528
▁달러화	-10.5282
▁피부	-10.5283
▁상원의원에	-10.5283
라이트	-10.5285
통한	-10.5287
▁외치	-10.5287
▁하락하	-10.5288
쳤으	-10.5289
▁소비자들	-10.5289
▁정전	-10.5294
▁하나로	-10.5294
더스	-10.5295
▁필요성	-10.5302
▁기부	-10.5303
▁예정이었다	-10.5304
▁자택에서	-10.5307
▁상상	-10.5317
슬로	-10.5319
▁당수	-10.5319
▁문제들	-10.5322
▁중단했다	-10.5323
네스	-10.5333
▁근거로	-10.5334
▁앨	-10.5348
▁착수했다	-10.535
ga	-10.536
▁모르는	-10.5371
▁고대	-10.5375
▁시사	-10.5378
▁힘들다	-10.5384
▁부서	-10.5387
▁지상	-10.5391
▁클로	-10.5397
▁만들기	-10.5401
▁말까지	-10.5411
▁수업	-10.542
▁해주	-10.5424
▁열리	-10.5429
▁부여	-10.5433
▁계기	-10.5436
구역	-10.5439
▁문제점	-10.5447
▁등에	-10.5447
▁성공적	-10.5449
▁것들	-10.5449
▁이라크와	-10.5453
▁원인이	-10.5456
▁윤	-10.5458
ers	-10.5459
전시회	-10.5463
▁엘리	-10.5463
▁경선이	-10.547
▁도달	-10.5471
▁등장	-10.5493
▁완전한	-10.5505
▁76	-10.5513
▁제작한	-10.552
ak	-10.5524
▁기도	-10.5532
▁주지	-10.5536
▁측정	-10.5541
▁세대	-10.5545
▁페이지	-10.5549
▁대상이	-10.5553
▁공개하	-10.5554
먹	-10.5555
궁	-10.5555
휴	-10.5557
벤	-10.5562
콘	-10.5564
100	-10.5566
▁인정받	-10.5567
▁사용해	-10.559
짜	-10.5604
▁파키스탄에서	-10.5608
▁높아	-10.5608
▁언론과	-10.5611
▁플레이	-10.5618
촌	-10.5622
▁표시	-10.5625
▁기본적	-10.5625
▁에티오피아	-10.5626
섭	-10.5627
캔	-10.5628
첨	-10.5629
랭	-10.5629
슛	-10.5629
▁vi	-10.5629
▁wfp	-10.5629
▁넘겨	-10.5629
▁노르웨이	-10.5629
▁다우존스	-10.5629
▁데이빗	-10.5629
▁맥도날드	-10.5629
▁붙여	-10.5629
▁사카쉬빌리	-10.5629
▁스타벅스	-10.5629
▁원자바오	-10.5629
▁웨스트버지니아	-10.5629
▁유죄판결	-10.5629
▁인플레이션	-10.5629
▁프리미어리그	-10.5629
▁휩쓸	-10.5629
무장혁명군	-10.5629
핀	-10.5629
▁유조선	-10.5629
▁호르타	-10.5629
▁겨냥	-10.5629
▁김정일	-10.5629
▁기번스	-10.5629
ood	-10.5629
▁촉발	-10.5629
▁서식지	-10.5629
▁탐험	-10.5629
▁벌어지	-10.5629
▁그린피스	-10.5629
▁남자아이	-10.563
▁구멍	-10.563
▁앤드류	-10.563
▁싸움	-10.563
▁영웅	-10.563
▁소규모	-10.563
▁무렵	-10.563
▁남학생	-10.563
▁에이즈	-10.563
▁술집	-10.5631
▁fda	-10.5631
▁스피처	-10.5631
day	-10.5631
▁함유	-10.5632
▁호송	-10.5632
▁합병	-10.5632
▁영변	-10.5632
▁사냥	-10.5633
▁핵개발	-10.5633
▁기쁘	-10.5633
▁채택	-10.5633
▁pro	-10.5633
▁냉	-10.5633
▁서식하	-10.5633
▁건너	-10.5633
▁소득	-10.5634
스티	-10.5634
▁1995	-10.5634
▁델타	-10.5636
▁분류	-10.5639
▁서양	-10.5639
▁쓰러	-10.5639
▁파손됐다	-10.5639
▁태우	-10.564
▁분량	-10.564
▁상영	-10.564
▁1960	-10.5641
▁연임	-10.5641
▁보안군	-10.5643
▁도심	-10.5645
▁나올	-10.5646
▁반박했	-10.5647
▁해양	-10.5649
▁문신	-10.5651
▁cd	-10.5651
▁존중	-10.5652
▁음주	-10.5652
▁조류	-10.5652
▁부채	-10.5652
▁인터	-10.5653
ell	-10.5653
▁로저	-10.5654
▁문구	-10.5655
47	-10.5658
▁예전	-10.5659
nt	-10.5662
▁유도	-10.5664
▁140	-10.5668
▁기계	-10.5674
▁상당수	-10.5675
▁정상적	-10.5675
▁동기	-10.5675
경제	-10.5675
▁잠시	-10.5685
▁220	-10.5685
▁곳곳	-10.5687
워터	-10.5692
▁기차	-10.5695
▁단어	-10.5699
▁호수	-10.5701
▁출장	-10.5701
▁ai	-10.5702
명인	-10.5707
▁어렵다	-10.5709
▁남아있다	-10.5716
▁계속될	-10.5721
▁세트	-10.5721
▁폭발물	-10.5724
970	-10.5724
▁리드	-10.5727
▁리치	-10.574
▁포장	-10.5741
▁함	-10.5744
▁짓	-10.5744
▁사용된	-10.5748
▁생기	-10.5748
▁프레	-10.575
▁죽어	-10.5753
▁사용한	-10.5754
rg	-10.5755
▁보상	-10.5757
▁영화제	-10.5758
▁일제	-10.576
▁들어간	-10.5764
▁사망자수	-10.5767
▁매니저	-10.5768
라트	-10.5776
▁정의	-10.5778
나와즈	-10.5779
이라면	-10.5784
▁북한과	-10.5787
▁책임이	-10.5788
▁4000	-10.5789
▁합니	-10.5792
▁단장	-10.5805
▁아프간에서	-10.5806
▁바르	-10.5807
▁con	-10.5811
학생	-10.5813
로써	-10.5814
▁먹는	-10.5816
▁토지	-10.5819
▁잡아	-10.5822
되자	-10.5823
▁체인	-10.5841
▁생각이	-10.5851
▁살았	-10.5852
대사	-10.586
▁일에	-10.589
▁이내	-10.5893
▁글로	-10.5898
▁수감자	-10.5899
스탄	-10.5901
▁보였	-10.5909
▁민주	-10.5924
▁수상자	-10.5928
▁단체들	-10.5939
▁오리	-10.5942
▁개막식	-10.5951
▁공학	-10.5954
▁위로	-10.5976
바니	-10.5976
▁고급	-10.5988
기록	-10.5989
▁강조하	-10.599
▁힐	-10.5991
▁경제에	-10.5998
▁연구에	-10.6003
밖에	-10.6005
▁합동	-10.6011
동맹	-10.6013
싸	-10.6014
놀	-10.6014
에르	-10.6016
그룹	-10.6017
폴	-10.6022
감독	-10.6025
▁국가로	-10.6025
▁전하고	-10.6031
ess	-10.6032
구조	-10.6042
▁주문	-10.6051
부대	-10.6053
▁최소한	-10.6056
▁무슬림	-10.6058
▁두번째	-10.6058
쁘	-10.6059
▁한국인	-10.6061
▁섭취	-10.6063
곰	-10.6063
컨	-10.6063
▁bbc	-10.6064
▁라우터바흐	-10.6064
▁서브프라임	-10.6064
▁선거캠페인	-10.6064
▁수하르토	-10.6064
▁스튜디오	-10.6064
▁앉아	-10.6064
▁언색호	-10.6064
▁얻고	-10.6064
▁오차범위	-10.6064
▁유람선	-10.6064
▁최루탄	-10.6064
▁캐릭터	-10.6064
닭	-10.6064
덜	-10.6064
랩	-10.6064
▁게릴라	-10.6064
▁에르도간	-10.6064
▁온실가스	-10.6064
▁아마디네자드	-10.6064
▁징후	-10.6064
▁첩보	-10.6064
▁광범위	-10.6064
▁멸종	-10.6064
▁균형	-10.6064
▁정거장	-10.6064
▁재무장관	-10.6064
▁거짓말	-10.6064
▁부동산	-10.6064
▁승점	-10.6065
▁농축	-10.6065
▁당황	-10.6066
▁측근	-10.6066
▁갑작스	-10.6066
▁자치구	-10.6066
▁특징	-10.6067
미디어	-10.6067
▁대피령	-10.6068
▁기존	-10.6069
▁방침	-10.6069
▁체결	-10.607
▁화석	-10.607
▁싸우	-10.607
▁영업	-10.6071
▁나토군	-10.6071
▁주식시장	-10.6071
▁받아들이	-10.6071
▁밝혀내	-10.6071
▁부탁	-10.6072
프레드	-10.6073
▁방출	-10.6073
▁금속	-10.6073
▁상관	-10.6073
▁예배	-10.6073
▁소집	-10.6074
▁식수	-10.6076
▁수컷	-10.6077
▁몰려	-10.6078
▁아시아에서	-10.608
대와	-10.6081
▁체니	-10.6083
▁경로	-10.6084
▁프라	-10.6085
▁전형적	-10.6087
▁재건	-10.6087
▁상태에서	-10.6088
▁경관	-10.6088
▁도디	-10.6093
▁실린	-10.6095
▁미치는	-10.6095
▁상호	-10.61
▁파산	-10.61
▁양쪽	-10.6102
▁사람과	-10.6109
리그	-10.6114
▁x	-10.6118
▁전환	-10.612
▁쏘	-10.6122
▁기금	-10.6123
▁교도소에	-10.6123
▁베네	-10.6124
▁추세	-10.6126
se	-10.6127
▁주류	-10.6127
▁많아	-10.6129
▁직접적	-10.613
▁가방	-10.6133
▁공안	-10.6135
▁대안	-10.6139
선수	-10.6143
▁레드	-10.6146
▁청사	-10.6151
▁마감했다	-10.6154
▁sp	-10.6157
▁실종자	-10.6163
▁제공할	-10.6164
▁반전	-10.6166
▁남부에	-10.6173
▁적합	-10.6181
▁86	-10.6186
▁가구	-10.6199
리어	-10.6203
포스트	-10.6204
▁브리	-10.6217
48	-10.6217
▁목적으로	-10.6222
▁판다	-10.6224
ice	-10.6233
14	-10.6242
ck	-10.6245
▁나아	-10.6246
▁전달했다	-10.6247
▁할지	-10.625
▁hd	-10.6256
▁감자	-10.6256
ent	-10.6262
▁트리	-10.6263
▁석	-10.627
ib	-10.6274
▁추구하	-10.6278
▁바라	-10.6282
▁위험성	-10.6282
18	-10.629
▁맡고	-10.6295
▁깊이	-10.631
▁71	-10.631
▁가상	-10.6311
▁최근에	-10.6319
53	-10.6321
▁취해	-10.6322
▁털	-10.6333
▁권고	-10.6336
레나	-10.6337
▁하다	-10.6349
▁교사	-10.6355
▁성공한	-10.6368
호프	-10.637
세력	-10.6374
▁대비해	-10.6374
▁대학에서	-10.6383
▁회담이	-10.6391
▁조기	-10.6396
▁경우에	-10.6396
▁입지	-10.6402
▁집회에	-10.6405
▁기다리	-10.6408
▁납	-10.6415
ai	-10.6416
▁가로	-10.6416
▁수감자들	-10.6425
▁안에서	-10.6426
버스	-10.6437
▁엄	-10.6448
▁적절	-10.6454
▁언	-10.6454
▁이뤄	-10.6455
▁정지	-10.646
륙	-10.646
▁보일	-10.6461
▁갈라	-10.6465
혹	-10.6466
▁자리에	-10.6468
▁재고	-10.6469
▁쓰고	-10.6469
▁출판	-10.6485
3000	-10.6489
맥	-10.6492
콜	-10.6493
해질	-10.6493
▁관계에	-10.6496
닐	-10.6496
공격	-10.6498
▁프랑	-10.6501
▁호소	-10.6501
폭탄	-10.6503
▁벗어	-10.6511
랍	-10.6511
죠	-10.6516
님	-10.6517
희	-10.6518
탑	-10.6518
▁관객들	-10.6518
▁나눴다	-10.6518
▁느낌	-10.6518
▁디지털	-10.6518
▁똑같	-10.6518
▁마이스페이스	-10.6518
▁숫자	-10.6518
▁야생동물	-10.6518
▁얻기	-10.6518
▁우비넨	-10.6518
▁잭슨	-10.6518
▁최우선	-10.6518
▁켄터키	-10.6518
▁파파라치	-10.6518
▁필라델피아	-10.6518
듀	-10.6518
찌	-10.6518
춤	-10.6518
▁부정선거	-10.6518
▁호킨스	-10.6518
▁클라크	-10.6518
▁페이스북	-10.6518
▁번호판	-10.6518
▁항공우주국	-10.6518
▁에드워드	-10.6519
▁블루	-10.6519
트랙	-10.6519
▁밝혀냈다	-10.652
▁개막	-10.6521
▁성장률	-10.6521
▁귀환	-10.6521
▁목록	-10.6522
▁드레스	-10.6522
▁종합	-10.6523
▁불과하다	-10.6523
▁정교회	-10.6523
▁성행위	-10.6523
▁로딕	-10.6524
▁탄생	-10.6524
▁곡물	-10.6524
▁증권	-10.6525
▁취재	-10.6525
▁제이미	-10.6525
▁사태에	-10.6526
▁억제	-10.6526
배우	-10.6526
▁식	-10.6527
▁대가	-10.6527
▁공산주의	-10.6527
▁작용	-10.6528
▁감금	-10.653
▁wh	-10.653
▁정권이	-10.653
▁성격	-10.6532
▁sg	-10.6532
연구	-10.6535
▁아담	-10.6535
▁찾아내	-10.6536
▁동맹	-10.6536
▁물품	-10.6537
▁반영	-10.6538
▁로렌	-10.6538
▁재배	-10.6538
▁fc	-10.6539
▁밝혀진	-10.6541
▁교내	-10.6541
▁다이애나비	-10.6542
▁들어오	-10.6542
▁거쳐	-10.6544
▁운동가들	-10.6545
▁소형	-10.6545
한번	-10.6545
▁마친	-10.6547
세가	-10.6549
▁알려	-10.6549
▁시각	-10.6549
▁산타	-10.655
▁유산	-10.6553
▁형사	-10.6553
▁증가한	-10.6554
ng	-10.6555
사업	-10.6556
▁변호인	-10.6557
▁여야	-10.6561
▁내려진	-10.6563
▁상승세	-10.6566
▁후임	-10.6567
▁호텔에	-10.6568
▁걸려있	-10.6572
▁신분	-10.6573
▁근로자	-10.6574
▁드러	-10.6574
▁석방됐다	-10.6577
날드	-10.6578
▁테러리스트들	-10.6578
▁매케인에	-10.6579
▁미술	-10.658
▁조용	-10.6581
받았다	-10.6583
▁생각했	-10.6588
▁난사	-10.659
▁인기가	-10.6595
▁의석	-10.6596
▁호텔에서	-10.6597
▁공유	-10.6598
▁카를로	-10.6601
▁잇	-10.6603
▁암살된	-10.6604
▁연어	-10.6607
▁좋아하	-10.6608
▁운전사	-10.661
▁포함됐다	-10.6615
▁지점	-10.6616
▁돼지	-10.6622
▁콩고	-10.6623
없는	-10.6626
▁언급하	-10.6628
▁건물에	-10.6638
64	-10.664
▁않았던	-10.6652
분만	-10.6653
▁여자들	-10.6655
▁미군과	-10.666
▁일치	-10.6661
▁강세	-10.6669
기금	-10.6685
▁온도	-10.6686
▁의미한다	-10.6695
▁해상	-10.67
anu	-10.6709
같은	-10.6722
▁스타일	-10.6731
▁근본	-10.6734
▁포함되어	-10.6739
▁매체	-10.6739
▁이해하	-10.675
▁벌였	-10.6752
블리	-10.6754
▁ge	-10.6777
▁동료들	-10.6779
▁군인들이	-10.6792
▁회사에	-10.6796
▁있을지	-10.6798
▁나타내는	-10.6799
▁사용했다	-10.6801
위안	-10.6808
▁사용한다	-10.6809
▁비행사	-10.6821
분에	-10.6827
▁대피했다	-10.6838
▁제공하	-10.6839
▁이란과	-10.6843
화된	-10.6851
시오	-10.6852
▁현상이	-10.6857
▁전파	-10.6862
▁보지	-10.6862
▁이른	-10.6867
▁바라는	-10.6881
▁사용하기	-10.6882
▁하면	-10.6886
▁담당자	-10.69
191	-10.6909
혔	-10.6916
▁처한	-10.6917
▁뉴욕에서	-10.6941
▁손에	-10.695
리스트	-10.6955
▁아들이	-10.6959
벽	-10.6969
▁미라	-10.6975
rs	-10.6977
▁81	-10.6978
▁학교에서	-10.6979
▁취했다	-10.6979
▁노스	-10.6982
흡	-10.6992
▁챔피언	-10.6994
▁동영상에서	-10.6994
깃	-10.6994
▁nymex	-10.6994
▁넘어섰다	-10.6994
▁뉴올리언스	-10.6994
▁라왈핀디	-10.6994
▁로드리게스	-10.6994
▁매사추세츠	-10.6994
▁무승부	-10.6994
▁브로드웨이	-10.6994
▁블레어	-10.6994
▁성추행	-10.6994
▁여행객들	-10.6994
▁유튜브	-10.6994
▁이끌었	-10.6994
▁카리스마	-10.6994
▁캄보디아	-10.6994
▁캥거루	-10.6994
▁코끼리	-10.6994
▁톰슨	-10.6994
▁페르난데스	-10.6994
▁홈페이지	-10.6994
됩	-10.6994
쉐	-10.6994
엠	-10.6994
▁기준금리	-10.6994
▁나이지리아	-10.6994
▁뉴욕타임스	-10.6994
▁신용위기	-10.6994
▁카르자이	-10.6994
▁파트너	-10.6994
▁안락사	-10.6994
▁연구결과	-10.6994
▁흐름	-10.6994
▁퇴임	-10.6994
▁무장대원	-10.6994
▁유적지	-10.6994
▁지역사회	-10.6995
▁재미있	-10.6995
▁대지진	-10.6995
▁부사장	-10.6995
▁둘러싸	-10.6995
▁알제리	-10.6995
▁수색작업	-10.6996
▁군사작전	-10.6996
▁케빈	-10.6996
▁호흡	-10.6996
▁기상청	-10.6997
▁관측	-10.6997
▁면역	-10.6997
▁메이저	-10.6997
▁농업	-10.6997
앤	-10.6998
▁2012	-10.6999
▁불가능하다	-10.6999
▁wti	-10.6999
▁물고기	-10.6999
▁생명체	-10.7
▁카라치	-10.7
▁부검	-10.7
▁극단주의자들	-10.7001
▁저항	-10.7001
▁아이폰	-10.7001
ard	-10.7002
▁회수	-10.7003
▁피닉스호	-10.7003
▁치매	-10.7003
▁상담	-10.7003
▁추산했	-10.7004
▁포착	-10.7004
▁풍부	-10.7004
▁명예	-10.7005
▁당초	-10.7005
▁정치범	-10.7005
▁처방	-10.7006
▁백신	-10.7006
▁pf	-10.7006
▁gm	-10.7008
▁축소	-10.7009
▁대립	-10.701
▁초래	-10.7011
▁버지니아주	-10.7011
▁은퇴	-10.7016
▁맞는	-10.7017
제품	-10.7019
▁일환	-10.7019
▁대표단	-10.702
▁불행	-10.7022
▁파편	-10.7024
▁신발	-10.7025
▁맨	-10.7026
▁적십자사	-10.7028
▁주립	-10.7029
▁보여준다	-10.703
▁들어가는	-10.703
▁멀리	-10.7031
▁쓴	-10.7033
▁관점	-10.7037
▁향상	-10.7041
▁탄소	-10.7041
▁배제	-10.7042
▁미칠	-10.7045
▁2500	-10.7045
▁부실	-10.7046
▁경영자	-10.7046
▁파업이	-10.7046
▁품	-10.7047
프링	-10.7048
▁나노	-10.7053
자르	-10.7054
▁다음주	-10.7058
▁흘러	-10.706
▁인원	-10.7061
르트	-10.7068
▁전국적	-10.7068
답했다	-10.707
▁몸에	-10.7071
▁식사	-10.7072
▁흔	-10.7073
▁연대	-10.7073
▁문어	-10.7076
mp	-10.7076
▁흉기	-10.7077
안보	-10.7081
부문	-10.7085
ox	-10.7087
▁서서	-10.7088
▁결과로	-10.7088
하우스	-10.7096
▁강조	-10.7099
어서	-10.7099
▁구역	-10.7108
▁참여할	-10.7114
▁명단에	-10.7119
▁논	-10.7124
▁취소했다	-10.7128
타이거	-10.713
▁심의	-10.7133
▁생각하지	-10.7138
▁지지한다	-10.7139
▁높게	-10.7141
▁프랑스와	-10.7141
▁주당	-10.7142
▁테리	-10.7144
▁개시	-10.7146
에게서	-10.7147
베르	-10.7148
▁기록한	-10.7155
▁69	-10.7164
▁중계	-10.7169
일정	-10.7179
▁정리	-10.7187
워드	-10.7198
▁연이	-10.7203
▁애도	-10.7207
▁유지하	-10.7207
곳에서	-10.7217
▁선고했다	-10.7222
▁진행자	-10.7229
▁나빠	-10.723
▁무게	-10.7232
▁무고	-10.7236
▁시작했	-10.724
▁전반적	-10.7241
공사	-10.7258
▁명령했다	-10.7279
▁스톤	-10.7281
피스	-10.7297
▁포인트	-10.7298
▁해왔다	-10.7311
▁보인	-10.7313
▁준다	-10.7328
▁정상들	-10.7335
▁자신과	-10.7337
▁소식이	-10.7346
▁거부한	-10.7352
▁원주민	-10.7353
시까지	-10.7355
▁보고서에따	-10.7363
19	-10.7366
▁지불하	-10.7369
▁부모들	-10.7369
▁국경지역에	-10.7371
▁악화되	-10.7372
▁고려하	-10.7373
병원	-10.7374
▁공항에	-10.7383
직원	-10.7393
▁어렵	-10.74
▁진전	-10.7401
▁물가	-10.7404
▁때문이라	-10.7406
▁모스크바	-10.7415
▁부당	-10.7416
▁발견한	-10.7421
▁민간인들	-10.7423
▁유감	-10.7437
▁이들에게	-10.7443
▁과격	-10.7449
mm	-10.7456
리안	-10.7459
▁장착	-10.7461
▁보고서에	-10.7462
tic	-10.7467
▁su	-10.747
▁콩	-10.7473
▁63	-10.7474
58	-10.7475
▁활동하	-10.7481
▁리처드	-10.7492
▁교착상태	-10.7494
▁느낀다	-10.7494
▁단백질	-10.7494
▁댈러스	-10.7494
▁붙잡	-10.7494
▁뿌리	-10.7494
▁임산부	-10.7494
▁재검토	-10.7494
▁친선경기	-10.7494
▁크리스토퍼	-10.7494
▁파바로티	-10.7494
▁펼친	-10.7494
헴	-10.7494
▁인디아나	-10.7494
룸	-10.7494
▁다행히	-10.7494
▁깨끗	-10.7494
▁멈추	-10.7494
▁카트리나	-10.7494
▁감바리	-10.7494
▁도메인	-10.7494
▁주유소	-10.7494
▁장난감	-10.7494
▁활발	-10.7494
▁솔직	-10.7495
▁플래	-10.7495
▁공무원	-10.7495
▁글로벌	-10.7495
▁격렬	-10.7495
▁살아남	-10.7495
▁힌두교	-10.7496
▁오른쪽	-10.7496
▁intern	-10.7497
▁재활용	-10.7497
▁홀랜드	-10.7497
▁환경보호	-10.7497
▁급격	-10.7498
▁적응	-10.7499
▁동일한	-10.7499
▁레이건	-10.7499
▁제조업체	-10.7499
▁낮추	-10.7499
▁교황청	-10.75
▁산책	-10.7501
▁추천	-10.7501
▁이뤄진	-10.7501
▁노엘	-10.7501
▁교외	-10.7502
▁대기업	-10.7502
▁jp	-10.7503
▁출신으로	-10.7503
▁구축	-10.7504
▁다음날	-10.7505
▁비극	-10.7505
▁엔진	-10.7507
▁통행	-10.7508
굴	-10.7509
▁풀려	-10.7509
▁헐	-10.7509
▁낸시	-10.7512
▁나라에서	-10.7513
▁휴전	-10.7514
▁연금	-10.7515
▁입법	-10.7515
▁항구	-10.7516
▁이룩	-10.7517
쇼	-10.7517
▁어두	-10.7518
▁군복	-10.7521
전문가	-10.7521
▁힐러리경	-10.7522
전략	-10.7522
▁약혼	-10.7522
달아	-10.7523
폭탄테러	-10.7524
슬러	-10.7524
▁피난	-10.7524
▁중순	-10.7524
▁권위	-10.7527
위원장	-10.7528
▁수감됐다	-10.753
▁노선	-10.7532
▁머리에	-10.7533
▁붐	-10.7535
▁겁	-10.7535
▁경쟁력	-10.7538
생산	-10.754
▁62	-10.754
▁열었다	-10.7541
▁생성	-10.7541
▁73	-10.7543
▁무너지	-10.7544
▁화가	-10.7545
▁해당하	-10.7545
조약	-10.7545
후보	-10.7546
▁동전	-10.7548
사람	-10.7549
▁말하	-10.7549
▁불길	-10.7557
디아	-10.7557
▁호소했다	-10.7561
▁총회	-10.7562
▁베어	-10.7563
검사	-10.7566
▁경력	-10.7567
▁정원	-10.7569
▁들소	-10.757
▁자신감	-10.757
▁끌어들	-10.7571
▁최고치	-10.7572
▁지질	-10.7573
▁로비	-10.7575
▁지낸	-10.7577
▁중단됐다	-10.7577
▁리그	-10.7577
▁농민	-10.7578
▁지식	-10.7578
▁애국	-10.7582
▁빨간	-10.7582
▁이어지	-10.7587
▁world	-10.7589
▁정상에	-10.7589
▁우리들	-10.7591
▁기울이	-10.7593
▁피해지역	-10.7596
▁한국과	-10.7598
▁조국	-10.7606
ts	-10.7607
▁라일	-10.761
안전	-10.761
▁슈퍼대의원	-10.7611
▁조선	-10.7615
▁아메리카	-10.7616
▁움직	-10.7616
▁폐지	-10.7617
▁번지	-10.7622
▁손해	-10.7625
으면서	-10.7628
▁공격했다	-10.7631
비용	-10.7631
▁일단	-10.7641
▁맹	-10.7643
▁들어있는	-10.7646
때까지	-10.7648
▁아내와	-10.7656
▁척	-10.7658
▁분리주의	-10.766
▁경비원	-10.7662
측에	-10.767
▁감기	-10.7671
▁가족들과	-10.7678
▁카라	-10.7683
▁충돌이	-10.7686
▁인적	-10.7697
▁남기	-10.7703
▁다가	-10.7715
▁분석가	-10.7716
처분	-10.7719
▁맡았	-10.7725
▁진지	-10.7727
▁시도하	-10.7727
▁말했으	-10.7731
▁커지	-10.7737
▁해소	-10.7742
었는지	-10.7743
▁소니	-10.7748
시킨다	-10.7754
▁입원했다	-10.776
▁시장에	-10.7766
▁테러와	-10.7787
▁시일	-10.7788
▁갔다	-10.7791
▁유기	-10.7808
▁동성애자	-10.7815
▁코스	-10.7821
스런	-10.7829
▁사용하지	-10.7832
▁강진이	-10.7837
▁말하는	-10.784
▁착수	-10.7842
▁여지	-10.785
95	-10.785
▁예정인	-10.7852
천만	-10.7856
▁투표에	-10.7869
지원	-10.7869
브레	-10.7877
ly	-10.789
차기	-10.7901
▁정치인들	-10.7903
▁제출한	-10.7916
기업	-10.7919
▁생각하	-10.7919
피트	-10.794
▁내렸	-10.7949
ton	-10.7964
▁상태에	-10.7969
▁83	-10.797
▁협상에	-10.7971
▁개인적	-10.798
992	-10.799
학과	-10.7997
44	-10.7997
▁루이지애나	-10.8006
끔	-10.8014
첸	-10.8016
쾌	-10.8017
▁nbc	-10.8021
▁뉴욕상업거래소	-10.8021
▁마호메트	-10.8021
▁믿는다	-10.8021
▁박테리아	-10.8021
▁소렌스탐	-10.8021
▁이브라힘	-10.8021
▁잃어버	-10.8021
▁저질렀다	-10.8021
▁짝짓기	-10.8021
▁키드먼	-10.8021
▁투탕카멘	-10.8021
▁평화유지군	-10.8021
▁푸에르토리코	-10.8021
▁호주오픈	-10.8021
▁후진타오	-10.8021
넨	-10.8021
댄	-10.8021
안토니오	-10.8021
줘	-10.8021
▁브리트니	-10.8021
▁소방대원	-10.8021
▁침략	-10.8021
▁시나리오	-10.8021
▁center	-10.8021
▁니케이	-10.8021
▁대주교	-10.8021
▁자전거	-10.8021
▁피해여성	-10.8021
▁개체수	-10.8021
▁프리츨	-10.8021
▁좌익	-10.8021
▁후쿠다	-10.8021
▁흡수	-10.8021
▁북극곰	-10.8021
▁언덕	-10.8021
▁잔혹	-10.8021
▁페라로	-10.8021
▁용납	-10.8021
▁모로코	-10.8022
▁대략	-10.8022
▁방콕	-10.8022
▁혜성	-10.8022
▁포획	-10.8022
▁자리잡	-10.8022
▁터널	-10.8022
▁보조금	-10.8023
▁산맥	-10.8023
▁애쓰	-10.8023
▁cdc	-10.8024
▁선거자금	-10.8025
▁못하다	-10.8025
▁복수	-10.8025
▁쿠퍼	-10.8025
▁혼자	-10.8025
▁토마토	-10.8025
▁불안감	-10.8026
▁출범	-10.8026
▁구호품	-10.8026
봐야	-10.8026
▁무죄	-10.8026
▁관료	-10.8027
▁빠졌다	-10.8027
▁지휘관	-10.8027
▁표준	-10.8027
▁테스트	-10.8027
▁풍선	-10.8028
▁요격	-10.8028
▁부총리	-10.8028
▁탄약	-10.8028
▁창설	-10.8029
▁nh	-10.8029
▁마찰	-10.8029
▁위축	-10.803
me	-10.803
▁뇌물	-10.8031
▁사우스	-10.8031
▁외출	-10.8034
▁체코	-10.8034
▁동생	-10.8036
▁퀸	-10.8036
▁원래	-10.8037
▁확실하지	-10.8038
▁결함	-10.8039
▁필수	-10.804
▁서류	-10.8041
▁지하드	-10.8042
▁고조되	-10.8042
▁대대적	-10.8043
▁장교	-10.8044
▁대출	-10.8047
▁선발	-10.8047
▁인공	-10.8048
▁자동	-10.8048
▁구경	-10.8049
▁적발	-10.805
▁하락세	-10.805
▁피살	-10.805
▁방문하	-10.8051
▁의자	-10.8051
▁부품	-10.8054
▁군중	-10.8056
부분	-10.8057
age	-10.8061
▁반복	-10.8062
▁재판에	-10.8063
▁소문	-10.8063
▁모술	-10.8065
▁일상적	-10.8066
▁모집	-10.8067
▁첫번째	-10.8068
▁아이티	-10.8068
▁교전이	-10.807
▁임대	-10.8074
▁행사에서	-10.8076
▁인력	-10.8076
서비스	-10.8079
▁그래	-10.8079
▁1500	-10.8082
▁진행됐다	-10.8085
▁시계	-10.8086
▁안내	-10.8089
▁평화상	-10.809
버릴	-10.8096
▁이르기	-10.8097
대변인	-10.8098
▁논의하기	-10.8105
▁일어났다	-10.8106
▁저가	-10.8107
▁설명하	-10.8114
▁음와	-10.8118
▁각자	-10.812
▁작가들	-10.8122
▁사라지	-10.8124
▁지냈	-10.813
▁분석가들	-10.813
▁따르	-10.8133
▁당선자	-10.8138
▁중상	-10.8138
▁투명	-10.814
▁기원	-10.814
▁모여들	-10.8141
▁군과	-10.8142
▁칼라	-10.8146
▁관광지	-10.8154
▁파악하	-10.8156
▁강타한	-10.8161
▁분야에서	-10.8161
연대	-10.8168
명에서	-10.817
▁회담에서	-10.8173
▁아크	-10.818
▁여진이	-10.818
▁확보했다	-10.8183
년전	-10.8186
자마	-10.8191
▁중반	-10.8193
▁생산하는	-10.8201
▁낙	-10.8201
▁부정적	-10.8207
▁중이었다	-10.821
질러	-10.8218
▁임신한	-10.8222
▁동성애	-10.8231
▁직원이	-10.8234
▁데리	-10.8236
▁당원	-10.8238
63	-10.8239
▁파손되	-10.8249
▁달간	-10.8253
94	-10.8301
▁별도	-10.8302
▁이양	-10.8302
▁강진	-10.8303
▁희망한다	-10.831
▁총선에	-10.8316
러스	-10.832
담당	-10.8325
▁도착하	-10.8339
네트	-10.8342
▁전용	-10.8344
벨리	-10.835
320	-10.8352
▁진행되는	-10.8369
▁승인했다	-10.8401
▁85	-10.8406
바르	-10.841
▁해결하	-10.8414
▁방송사	-10.8414
▁모건	-10.8416
▁학교에	-10.8426
▁선택했다	-10.8437
▁101	-10.8438
▁가사	-10.8447
▁의제	-10.8448
▁몽	-10.8453
▁고마	-10.8453
▁시도했	-10.8455
▁독재	-10.8464
▁보조	-10.8465
▁전세계적	-10.8472
▁we	-10.8489
▁수상한	-10.8493
▁국왕이	-10.8494
▁계속하고	-10.8496
▁193	-10.8504
▁89	-10.8513
▁실려	-10.8518
나갈	-10.8543
rea	-10.8547
▁유전	-10.8549
▁통제하	-10.8555
웰	-10.8558
▁애리조나	-10.8564
▁피닉스	-10.8566
▁암호	-10.8568
▁지위	-10.8568
▁그곳에	-10.8568
잉	-10.857
냥	-10.8571
▁배심원	-10.8572
▁데일리	-10.8573
췄	-10.8575
겔	-10.8576
▁bmw	-10.8576
▁usgs	-10.8576
▁겪었다	-10.8576
▁금메달	-10.8576
▁기후변화	-10.8576
▁넣었다	-10.8576
▁뉴델리	-10.8576
▁라크시미	-10.8576
▁맨해튼	-10.8576
▁메릴랜드	-10.8576
▁미끄러	-10.8576
▁방문객들	-10.8576
▁법무장관	-10.8576
▁브라이언	-10.8576
▁빼앗	-10.8576
▁선거기부금	-10.8576
▁세실리아	-10.8576
▁윈프리	-10.8576
▁천문학자들	-10.8576
▁총기난사	-10.8576
▁컬럼비아호	-10.8576
▁피라미드	-10.8576
▁흰색	-10.8576
렁	-10.8576
쌍	-10.8576
연방수사국	-10.8576
펀	-10.8576
▁아테네	-10.8576
▁펠로시	-10.8576
툴	-10.8576
▁뉴욕증시	-10.8576
▁대서양	-10.8576
▁몸무게	-10.8576
▁산악지역	-10.8576
▁예언자	-10.8576
▁일어날	-10.8576
▁나이로비	-10.8576
▁좌절	-10.8576
▁두뇌	-10.8576
▁침투	-10.8576
▁요즘	-10.8576
▁낙찰	-10.8577
▁돌아다니	-10.8577
▁본격적	-10.8577
▁낙태	-10.8577
▁일으킬	-10.8577
▁행렬	-10.8577
▁치솟	-10.8577
▁출연해	-10.8577
▁작곡	-10.8577
▁공군기지	-10.8577
▁침수	-10.8577
▁매코맥	-10.8578
▁졸업	-10.8578
▁환율	-10.8579
▁감옥	-10.8579
▁가져올	-10.8579
▁날짜	-10.8579
▁원칙	-10.8579
▁축출	-10.8579
▁상륙	-10.858
▁금액	-10.8582
▁명백	-10.8583
▁탐사선	-10.8583
▁식물	-10.8583
▁철저	-10.8584
▁세균	-10.8584
▁국방성	-10.8584
▁증산	-10.8585
▁중동평화회의	-10.8585
▁앞서있다	-10.8586
▁메달	-10.8586
▁푸미	-10.8587
▁형식	-10.8587
▁북미	-10.8587
▁노예	-10.8588
▁이송됐다	-10.859
▁my	-10.859
▁창문	-10.8591
▁광부	-10.8592
▁조언	-10.8592
▁포함된	-10.8593
▁네바다주	-10.8594
▁분실	-10.8595
▁본토	-10.8596
▁주주들	-10.8597
▁중심부	-10.8598
시키는데	-10.8598
▁히트	-10.86
▁초청	-10.8601
▁오락	-10.8602
▁알렸다	-10.8603
▁두목	-10.8608
▁유행	-10.8608
▁인체	-10.8609
▁발포	-10.8611
lif	-10.8611
▁순위	-10.8614
▁약탈	-10.8614
▁무슨	-10.8615
▁피고인	-10.8618
▁격리	-10.8618
▁참여했다	-10.862
▁화상	-10.862
▁증세	-10.8621
▁흔적	-10.8622
▁알았다	-10.8627
▁부른	-10.8628
▁돌입했다	-10.863
강전에서	-10.8631
▁일반인들	-10.8632
▁산소	-10.8633
라드	-10.8635
▁자문	-10.8636
▁유통	-10.8639
세대	-10.864
▁사망했	-10.8642
▁예수	-10.8642
▁유타	-10.8642
▁하스	-10.8643
▁신용	-10.8644
뉴	-10.8645
▁여유	-10.8647
▁보호소	-10.8647
▁칩	-10.8652
홀	-10.8654
▁출전한	-10.8656
삼	-10.8656
새	-10.8659
▁저자	-10.866
▁낮아	-10.8662
범죄	-10.8663
▁숨기	-10.8667
거래소	-10.8677
▁겸	-10.8681
▁하나인	-10.8708
페이스	-10.8713
▁개들	-10.8715
▁케리	-10.872
▁지나가	-10.8723
▁써	-10.8726
혀있	-10.8729
▁아미	-10.8731
▁대통령직	-10.8733
▁법원에서	-10.8736
▁서장	-10.8736
▁셰	-10.8737
려진	-10.874
내용	-10.8742
▁목격했다	-10.8743
제국	-10.8748
▁고안	-10.8754
▁종교적	-10.8762
세계	-10.8765
▁변호사들	-10.8765
▁금지하	-10.8768
여부	-10.8772
▁중앙은행	-10.8773
▁과학적	-10.8787
▁제작자	-10.8806
버린	-10.8809
▁그랜드	-10.882
24	-10.8835
되었으	-10.8846
▁인정하지	-10.8857
▁제시하	-10.8861
▁도시인	-10.8876
지도자	-10.888
▁빠지	-10.8884
▁소비자들이	-10.8899
▁발휘	-10.8908
▁가고	-10.891
어졌	-10.8912
▁기소했다	-10.8913
▁선장	-10.8918
▁부상으로	-10.8924
롭게	-10.8926
ot	-10.8939
▁위치해	-10.8943
▁아시	-10.8945
▁언급했다	-10.895
재판소	-10.8953
▁매달	-10.8974
국들	-10.8979
▁패스	-10.8986
▁아프가니스탄에서	-10.899
▁허용하	-10.9002
▁달러에	-10.9006
▁하락한	-10.9008
▁두려워	-10.9008
▁거리에서	-10.9009
▁미시간	-10.901
▁떠올	-10.9016
▁지방에서	-10.9018
▁군사적	-10.9028
▁파기	-10.9035
▁기분이	-10.9043
국민	-10.9043
같이	-10.9049
▁일어났	-10.9069
▁부상자들	-10.9087
▁상태로	-10.9089
층에서	-10.9103
시경	-10.9104
▁지어	-10.9111
끈	-10.9113
▁워싱턴에서	-10.9119
▁한국인들	-10.912
▁고발	-10.9129
▁총격으로	-10.9138
▁98	-10.9141
▁미트	-10.9145
봐	-10.9158
튜	-10.9161
칙	-10.9161
▁아름다	-10.9164
켄	-10.9164
삭	-10.9164
▁associat	-10.9164
▁경기후퇴	-10.9164
▁끊임없	-10.9164
▁냄새	-10.9164
▁노무현	-10.9164
▁망원경	-10.9164
▁메사추세츠	-10.9164
▁소수민족	-10.9164
▁왕복선	-10.9164
▁작가조합	-10.9164
▁최고경영자	-10.9164
▁크로아티아	-10.9164
▁테러지원국	-10.9164
▁토크쇼	-10.9164
▁펌프	-10.9164
▁프랭크	-10.9164
▁플루토늄	-10.9164
▁하이브리드	-10.9164
넌	-10.9164
뤘	-10.9164
릇	-10.9164
밥	-10.9164
샘	-10.9164
팩	-10.9164
▁human	-10.9164
▁노트북	-10.9164
▁녹화	-10.9164
▁클루니	-10.9164
▁퍼거슨	-10.9164
▁해리왕자	-10.9164
▁로리언	-10.9164
▁마라톤	-10.9164
▁카라카스	-10.9164
▁두개골	-10.9164
▁마리화나	-10.9164
▁목요일	-10.9164
▁타디치	-10.9164
▁수족관	-10.9164
▁나눠	-10.9165
▁이소연	-10.9165
▁벌써	-10.9165
▁침공	-10.9165
▁시티그룹	-10.9165
▁합법적	-10.9165
▁회견	-10.9165
▁하원의장	-10.9165
▁세계은행	-10.9166
▁바꿔	-10.9166
▁1986	-10.9166
▁포셋	-10.9166
▁효력	-10.9166
▁자치정부	-10.9166
▁터뜨	-10.9167
▁피난민	-10.9167
▁교섭	-10.9167
▁남녀	-10.9167
▁사라졌다	-10.9167
▁집필	-10.9167
▁연방법원	-10.9167
▁박탈	-10.9168
▁소방관	-10.9168
▁부분이	-10.9168
▁낙관	-10.9168
▁차관보	-10.9168
▁이뤄질	-10.9169
▁떠날	-10.9169
▁보험금	-10.9169
▁eta	-10.9169
▁경향	-10.917
▁모아이	-10.917
▁출생	-10.9171
▁떠난	-10.9171
▁설교	-10.9171
▁각료	-10.9172
▁개념	-10.9172
▁외환	-10.9173
▁종양	-10.9173
▁취임식	-10.9173
▁전인대	-10.9173
▁채취	-10.9173
▁분명하다	-10.9173
▁토양	-10.9173
▁접종	-10.9173
▁세웠다	-10.9173
▁행정	-10.9173
▁정보기관	-10.9173
▁종료	-10.9173
▁진료	-10.9174
▁불평	-10.9174
▁압도적	-10.9174
▁왕세자비	-10.9175
▁카불	-10.9175
▁잡았다	-10.9175
▁소환	-10.9175
▁시민권	-10.9175
▁차림	-10.9178
됐는지	-10.9178
▁매매	-10.9178
▁오프라	-10.9179
▁맞았다	-10.9182
주전	-10.9183
▁밀려	-10.9183
▁첫날	-10.9183
웰스	-10.9184
▁상표	-10.9185
▁선임	-10.9186
▁유출	-10.9186
▁117	-10.9189
▁시골	-10.919
▁트레	-10.919
▁휴대	-10.9191
▁코피	-10.9191
▁치른	-10.9192
▁연계	-10.9194
▁문화원	-10.9194
▁야구	-10.9195
▁대도시	-10.9196
▁부족하다	-10.9197
▁배급	-10.9197
▁우방	-10.9197
▁단식	-10.9198
▁750	-10.9199
▁나이트	-10.9207
▁전송	-10.9212
▁밀어	-10.9214
▁장착된	-10.9214
베키	-10.9215
▁일시적	-10.9215
▁당했	-10.9215
▁해저	-10.9217
▁헤어	-10.922
▁비유	-10.9222
▁좋아한다	-10.9234
▁110	-10.9234
▁성분	-10.9239
▁간부	-10.9242
per	-10.9243
▁가중	-10.9244
▁상승한	-10.9245
▁동성	-10.9248
▁면적	-10.9248
▁분석했다	-10.9249
▁골드	-10.9253
▁본드	-10.9253
35	-10.9256
▁참가자들	-10.9257
▁막대	-10.9258
▁무크	-10.9265
▁기술자	-10.9266
▁도주	-10.9269
납	-10.9282
▁과제	-10.9284
▁포트	-10.9285
페이지	-10.9286
풀	-10.9288
▁결정될	-10.929
▁먼지	-10.9293
시즌	-10.9293
음악	-10.9295
몽	-10.9296
▁정신과	-10.93
▁아프	-10.93
▁자치	-10.9302
▁상세	-10.9305
fi	-10.9305
▁아바	-10.9307
▁신도	-10.9314
▁위장	-10.9321
▁개장	-10.9325
데르	-10.9327
여행	-10.933
▁것임	-10.9336
▁주관	-10.9336
ple	-10.9341
▁신문사	-10.9342
▁기아	-10.9345
▁상자	-10.9351
▁계속됐다	-10.9363
▁있었기	-10.9363
▁무어	-10.9365
번호	-10.9372
널리	-10.9377
▁지원하는	-10.938
ty	-10.9388
▁당해	-10.94
▁경사	-10.941
마트	-10.941
▁없애	-10.9411
소리	-10.9414
▁당국자들	-10.943
▁범죄자들	-10.9445
사무소	-10.9467
▁장소로	-10.9471
▁하트	-10.9472
▁중장	-10.9475
▁북부지역	-10.9488
▁청소년들	-10.9491
▁합의한	-10.9505
▁누르	-10.9509
▁모색	-10.9514
버려	-10.9516
▁출연했다	-10.9523
▁메리	-10.9525
장비	-10.9539
▁가서	-10.9543
군데	-10.9547
▁불구	-10.9556
45	-10.9561
ue	-10.958
▁살아가	-10.9592
▁참석하기	-10.9595
▁편집	-10.9618
43	-10.9623
▁내장	-10.9629
▁확보해	-10.9642
▁방영	-10.9645
▁백악관에서	-10.9645
▁위원	-10.9651
▁안나	-10.9653
담당자	-10.9669
▁독자	-10.9669
▁거부하	-10.9685
▁근무하	-10.9689
▁물어	-10.9698
▁나왔	-10.9709
봤	-10.9716
▁물러	-10.9735
▁사살했다	-10.975
▁그들에게	-10.9771
▁뉴저지	-10.9777
▁남겨	-10.9779
▁중동평화	-10.9779
덤	-10.9786
뢰	-10.9786
쇠	-10.9787
컴	-10.9788
▁경제성장	-10.9789
멈	-10.9789
▁자원봉사	-10.9789
▁국립공원	-10.9789
▁국영언론	-10.9789
▁농작물	-10.9789
▁대중교통	-10.9789
▁동유럽	-10.9789
▁동점골	-10.9789
▁떨어질	-10.9789
▁라스베이거스	-10.9789
▁메릴린치	-10.9789
▁민주변화	-10.9789
▁밀리밴드	-10.9789
▁스코틀랜드	-10.9789
▁승용차	-10.9789
▁시애틀	-10.9789
▁싶었	-10.9789
▁여객선	-10.9789
▁최우수	-10.9789
▁터미널	-10.9789
▁퍼레이드	-10.9789
▁퍼트레이어스	-10.9789
▁혐오	-10.9789
▁확률	-10.9789
▁후지모리	-10.9789
▁흥정	-10.9789
긋	-10.9789
왈	-10.9789
찔	-10.9789
킴	-10.9789
톨	-10.9789
▁불능화	-10.9789
▁윈도우	-10.9789
▁항생제	-10.9789
▁무장괴한	-10.9789
▁아라비아	-10.9789
▁알렉스	-10.9789
▁재규어	-10.9789
▁효율적	-10.9789
▁저녁식사	-10.9789
▁보스턴	-10.9789
▁전자메일	-10.9789
▁콘서트	-10.9789
▁트로피	-10.9789
▁수류탄	-10.9789
▁의뢰인	-10.9789
▁도덕적	-10.9789
▁북서쪽	-10.979
▁깃발	-10.979
▁담겨있	-10.979
▁코카인	-10.979
▁덴버	-10.979
▁크라우	-10.979
▁살모넬라균	-10.979
▁소아과	-10.979
▁프레슬리	-10.979
▁소탕작전	-10.979
▁습관	-10.979
▁도와주	-10.979
▁존드로	-10.979
▁1989	-10.979
▁타이완	-10.979
▁잠재적	-10.9791
▁아마존	-10.9791
▁잡혀있	-10.9791
▁의약품	-10.9791
▁리옹	-10.9791
▁결승골	-10.9791
▁캐롤	-10.9791
▁성직자	-10.9791
▁버려진	-10.9791
▁늘어났다	-10.9791
▁다짐	-10.9792
▁라이언	-10.9792
▁급습	-10.9793
▁당혹	-10.9793
▁제압하	-10.9793
▁파키스탄인민당	-10.9793
▁저택	-10.9793
▁ex	-10.9794
▁받아왔다	-10.9794
▁논문	-10.9794
▁faa	-10.9794
▁밀림	-10.9794
▁미술관	-10.9794
▁영광	-10.9794
▁환급	-10.9795
▁국가안보	-10.9795
▁몸집	-10.9795
▁계열	-10.9795
▁난폭	-10.9795
▁폴락	-10.9796
▁어려워	-10.9797
▁팔렸다	-10.9798
▁평범	-10.9798
▁들어갈	-10.9799
▁제패	-10.98
▁나이키	-10.98
▁제작자들	-10.9801
▁생겨	-10.9801
▁스카이	-10.9801
▁오델	-10.9802
▁실현	-10.9802
▁참모	-10.9802
▁기밀	-10.9804
▁유명하다	-10.9804
▁변형	-10.9805
▁태어났다	-10.9805
▁시인했다	-10.9807
▁이어졌다	-10.9807
▁대통령궁	-10.9808
▁석상	-10.9808
▁편안	-10.9809
▁발달	-10.9809
way	-10.9812
▁유입	-10.9814
▁신병	-10.9815
▁느끼지	-10.9815
▁소방	-10.9816
▁공산	-10.9818
▁과실	-10.9819
▁가축	-10.982
▁승자	-10.982
▁아이오와주	-10.9821
▁감량	-10.9821
▁비행선	-10.9821
▁싶어한다	-10.9822
▁do	-10.9823
▁보았다	-10.9825
▁메디	-10.9827
▁정체	-10.9828
▁방문했	-10.983
▁시위자	-10.983
▁준장	-10.983
▁귀성	-10.983
▁유포	-10.9833
▁강연	-10.9833
▁대피소	-10.9833
▁차관	-10.9836
▁au	-10.9838
▁북해	-10.9838
▁죽었다	-10.9839
▁반대했다	-10.9839
▁않는다면	-10.9839
▁확정된	-10.984
▁들어있다	-10.9843
▁부유	-10.9845
▁표명했다	-10.9845
▁흐르	-10.9846
▁공모	-10.9847
▁수송	-10.9848
▁경비대	-10.9849
▁이틀간	-10.9852
달간	-10.9854
▁파타	-10.9854
▁데려	-10.9855
▁반대한다	-10.9856
라이프	-10.986
▁표면	-10.9861
▁눈물	-10.9863
▁전례	-10.9864
차원에서	-10.9864
▁업적	-10.9864
▁제방	-10.9865
▁구단	-10.9867
▁개인적으로	-10.9873
ef	-10.9874
▁제거하	-10.9878
▁기내	-10.9879
▁대우	-10.9888
▁계속된	-10.9891
▁공부	-10.9893
▁게이	-10.9896
▁총리직	-10.9902
▁이루어지	-10.9905
▁그때	-10.991
▁걸스	-10.9911
▁sh	-10.9911
12	-10.9912
▁자녀들	-10.9917
▁행한	-10.9918
▁법적으로	-10.9925
▁도착할	-10.9925
▁웨인	-10.9926
▁반미	-10.9928
▁확인되	-10.9932
▁미친	-10.9939
▁일원	-10.9944
▁비교해	-10.9944
▁수습	-10.9951
짐	-10.9952
회담	-10.9953
잠	-10.9956
캐	-10.9956
훈련	-10.9958
떨어진	-10.9958
▁쥐들	-10.996
▁개막식에	-10.996
논	-10.9964
▁피하기	-10.9967
므	-10.9971
▁보트	-10.9971
▁루디	-10.9972
레이크	-10.9975
▁선수로	-10.998
▁세운	-10.9984
▁무너	-10.9991
▁나온다	-10.9992
치료	-10.9995
▁요청할	-10.9999
때보다	-10.9999
조건	-11
▁보여주기	-11.0005
▁전설	-11.0017
▁등정	-11.002
▁상승하	-11.0023
티드	-11.0026
▁이겼다	-11.0037
사이트	-11.0038
▁방송국	-11.0046
▁시청자들	-11.0047
▁심리학자	-11.0057
▁생물학	-11.0069
유지	-11.0078
ny	-11.0078
▁분야에	-11.0081
▁감염자	-11.0083
▁이외	-11.0102
▁남성과	-11.0103
▁여성에게	-11.0111
▁투표했다	-11.0117
49	-11.014
▁손님	-11.0162
보라	-11.0162
▁한달	-11.0164
▁던지	-11.017
▁참가한	-11.0182
▁들었	-11.019
매치	-11.019
▁손자	-11.0198
65	-11.0211
▁압수	-11.0248
▁개발도상국	-11.0248
▁내주	-11.0255
코트	-11.0265
▁벌여	-11.0266
▁ab	-11.0293
▁소식통들	-11.0298
관계자	-11.0299
▁미사	-11.0314
▁촉진	-11.0327
▁91	-11.0341
▁없었으	-11.0345
카트	-11.0354
세트에서	-11.0364
▁제기되	-11.0369
▁의상	-11.0372
▁매력	-11.0376
줬	-11.0388
▁얻었	-11.0393
28	-11.0394
관련	-11.0396
▁운명	-11.0398
▁돌입	-11.0404
낸다	-11.0408
▁중국인들	-11.0409
▁외국인들	-11.0432
ect	-11.0435
▁버몬트	-11.0441
▁모두에게	-11.0442
▁일리노이	-11.0443
꾸	-11.0445
▁허리케인	-11.0446
퀴	-11.0448
▁new	-11.0449
▁최저	-11.045
춰	-11.0453
첩	-11.0453
▁국방	-11.0454
콕	-11.0454
팍스	-11.0454
훈	-11.0456
꿀	-11.0456
9000	-11.0456
▁hiv	-11.0456
▁iaea	-11.0456
▁다운로드	-11.0456
▁마케팅	-11.0456
▁무혐의	-11.0456
▁박격포	-11.0456
▁불매운동	-11.0456
▁슈나이더	-11.0456
▁스파이스	-11.0456
▁안전보장이사회	-11.0456
▁알렉산더	-11.0456
▁애완동물	-11.0456
▁억만장자	-11.0456
▁오키나와	-11.0456
▁우주정거장	-11.0456
▁유엔사무총장	-11.0456
▁의료보험	-11.0456
▁초등학교	-11.0456
▁침팬지	-11.0456
▁커뮤니티	-11.0456
▁페르난도	-11.0456
▁피추시킨	-11.0456
껏	-11.0456
듬	-11.0456
믹	-11.0456
샬	-11.0456
윗	-11.0456
젭	-11.0456
▁갤런	-11.0456
캄	-11.0456
▁비즈니스	-11.0456
▁캠벨	-11.0456
마누엘	-11.0456
참모총장	-11.0456
▁멸종위기	-11.0456
▁되풀이	-11.0456
▁법무상	-11.0456
▁중질유	-11.0456
▁하토야	-11.0456
▁배터리	-11.0456
▁모니터	-11.0456
▁하버드	-11.0456
▁싱글	-11.0456
▁오렌지	-11.0456
▁혼합	-11.0456
▁충족	-11.0456
▁클라인	-11.0456
▁산악인	-11.0456
▁unite	-11.0456
▁첨단	-11.0456
▁프린스	-11.0456
▁복합	-11.0456
▁액체	-11.0457
▁발자국	-11.0457
▁빅토리아	-11.0457
▁풀려났다	-11.0457
퍼스	-11.0457
▁저렴	-11.0457
▁공략	-11.0457
▁왕궁	-11.0458
▁무엇인가	-11.0458
▁긴밀	-11.0458
▁회동	-11.0458
▁안드레	-11.0458
▁놀랄	-11.0459
▁완료	-11.0459
▁보건당국	-11.0459
▁구조작업	-11.0459
▁국영방송	-11.046
▁돌아갔다	-11.046
▁열렬	-11.046
▁포경선	-11.046
▁무덤	-11.046
▁점검	-11.046
▁빌딩	-11.046
▁하렐	-11.046
▁묘지	-11.046
▁돌아왔다	-11.0461
▁배심원단	-11.0461
▁건립	-11.0461
▁지명되기	-11.0461
▁매춘부	-11.0462
▁태양계	-11.0462
▁글렌	-11.0462
▁피터슨	-11.0462
▁lg	-11.0462
▁시사회	-11.0463
▁버튼	-11.0463
▁삼았다	-11.0464
▁대리인	-11.0464
▁투항	-11.0464
▁확실하다	-11.0464
▁가난	-11.0464
▁대기권	-11.0464
▁가끔	-11.0465
▁냉전	-11.0465
▁외쳤다	-11.0465
▁아닐	-11.0465
▁채널	-11.0465
▁사진기자	-11.0465
▁air	-11.0465
▁청색	-11.0466
▁독립국가	-11.0466
▁정글	-11.0466
▁tr	-11.0466
▁로켓포	-11.0466
▁투표율	-11.0467
▁카누	-11.0467
연패	-11.0467
되었는데	-11.0467
▁분출	-11.0468
▁배제하지	-11.0468
▁하더라	-11.0469
▁사탕	-11.047
▁지속될	-11.047
▁사귀	-11.047
▁조항	-11.0474
▁복지	-11.0474
▁부장관	-11.0476
▁후송	-11.0476
▁바탕	-11.0477
▁취소됐다	-11.0477
▁92	-11.0479
▁삼바	-11.0479
▁것이냐	-11.0479
▁확정됐다	-11.0481
▁발령	-11.0483
▁이빨	-11.0484
▁교토	-11.0486
▁드물	-11.0488
▁당연	-11.0489
▁입장권	-11.049
▁위법	-11.049
그램	-11.0492
▁분리주의자들	-11.0492
▁남측	-11.0494
▁정기적	-11.0494
▁대령	-11.0495
▁남용	-11.0498
▁버진	-11.0499
▁여파	-11.0501
▁호우	-11.0501
▁서안	-11.0504
분경	-11.0505
▁예비	-11.0505
▁놓았다	-11.0506
▁질서	-11.0507
▁경유	-11.0515
▁240	-11.0515
▁실시됐다	-11.0517
▁줄여	-11.0517
▁우즈	-11.052
▁방치	-11.0523
노동자당	-11.0526
▁미쳤다	-11.0526
▁입었으	-11.0528
▁시체	-11.0528
▁박스	-11.0532
▁170	-11.0535
▁학생들에게	-11.0538
▁부상했으	-11.0541
▁맡았다	-11.0542
▁비방	-11.0542
▁103	-11.0543
▁회원국들	-11.055
▁제외하고	-11.0551
▁호위	-11.0552
▁시간대	-11.0552
타그	-11.0556
▁데비	-11.0557
▁물었다	-11.0558
▁그곳에서	-11.056
▁살해됐다	-11.0561
▁의약	-11.0563
▁취급	-11.0564
▁모스크바에서	-11.0564
▁폐쇄했다	-11.0573
▁일본인들	-11.0574
▁식으로	-11.0576
▁you	-11.0577
▁난민들	-11.0587
▁일어나지	-11.059
▁서부지역	-11.0593
▁주사	-11.0595
▁중심지	-11.0597
▁거물	-11.0598
▁주도하고	-11.06
▁모터	-11.0602
▁안개	-11.0603
▁이른다	-11.0606
거라고	-11.0621
▁살리	-11.0622
▁치료제	-11.0628
▁정부로부터	-11.0629
▁이슈	-11.0629
▁우주국	-11.0631
▁두려워하	-11.0637
▁진전이	-11.0646
▁구조대원	-11.0648
▁전달한	-11.065
▁보였으	-11.0652
▁생존자들	-11.0654
▁남북한	-11.0654
▁소위	-11.0659
자리에	-11.066
ko	-11.0664
책임자	-11.0669
빛	-11.067
힘	-11.0672
▁피어	-11.0673
▁명성	-11.068
바닥에	-11.0682
▁하비	-11.0682
옷	-11.0684
▁서울에서	-11.0685
전원이	-11.0693
▁만든다	-11.0698
ase	-11.0701
▁공격하기	-11.0704
▁우려해	-11.0705
차장	-11.0712
27	-11.0715
코프	-11.0716
회사들	-11.0719
▁물러나	-11.0722
▁설치된	-11.0732
▁가능하	-11.0746
▁가졌	-11.0767
▁선출된	-11.0769
만개	-11.0774
▁참가했다	-11.0777
조정	-11.0778
▁한쪽	-11.0787
니까	-11.079
▁아버지와	-11.0792
▁아기들	-11.0802
하겠	-11.0825
▁아이들에게	-11.0827
ug	-11.0833
테르	-11.0833
조원	-11.0846
▁통과하	-11.0869
▁지원하기	-11.0869
해왔	-11.0876
23	-11.0902
▁남부지역	-11.0914
자산	-11.0929
▁묘사하	-11.0933
▁석방했다	-11.0936
end	-11.094
엑	-11.095
▁취한	-11.097
레비	-11.0984
▁살라	-11.0985
▁상업적	-11.0988
▁수요일	-11.099
▁운전자들	-11.1015
▁여진	-11.1023
▁전장에	-11.103
▁87	-11.1047
▁실시했다	-11.1064
▁기울	-11.107
71	-11.1089
istan	-11.109
▁모가디슈	-11.109
▁전달하	-11.1097
▁소유하	-11.1102
▁보내기	-11.111
극적으로	-11.1115
▁제공했다	-11.1121
▁나라들	-11.1142
▁암시	-11.1143
무라	-11.1144
▁미시건	-11.1154
획	-11.116
쉽	-11.1163
롬	-11.1165
틸	-11.1165
졸	-11.1166
▁힌두	-11.1168
▁살모넬라	-11.117
뷰	-11.117
뮤	-11.117
▁녹음	-11.117
▁빈민층	-11.117
press	-11.117
▁right	-11.117
▁sncf	-11.117
▁with	-11.117
▁검정색	-11.117
▁넘겼다	-11.117
▁다비덴코	-11.117
▁대기오염	-11.117
▁대선예비후보	-11.117
▁되돌아	-11.117
▁듀프레	-11.117
▁드라이브	-11.117
▁모하마드	-11.117
▁백과사전	-11.117
▁버냉키	-11.117
▁불확실	-11.117
▁블룸버그	-11.117
▁세계보건기구	-11.117
▁손해배상	-11.117
▁심장질환	-11.117
▁예방접종	-11.117
▁와이오밍	-11.117
▁잉그리드	-11.117
▁자카르타	-11.117
▁캔자스	-11.117
▁클랩튼	-11.117
▁하드웨어	-11.117
▁하르툼	-11.117
됨	-11.117
푼	-11.117
퓨	-11.117
▁가솔린	-11.117
▁볼리비아	-11.117
▁브래드	-11.117
▁스머프	-11.117
▁양육권	-11.117
벡	-11.117
▁부작용	-11.117
▁석유수출	-11.117
▁선거유세	-11.117
▁쿠마르	-11.117
▁할머니	-11.117
▁자부심	-11.117
▁국가주석	-11.117
▁페리노	-11.117
▁time	-11.117
▁원자력	-11.117
▁세비르	-11.117
▁씨앗	-11.117
▁삭감	-11.117
▁반짝이	-11.117
▁빈민가	-11.1171
▁월경작전	-11.1171
▁영부인	-11.1171
▁섹시	-11.1171
▁경제학자들	-11.1171
▁etc	-11.1171
▁골드버그	-11.1171
▁얼룩말	-11.1171
▁알라스카	-11.1171
▁좌파	-11.1171
▁여자아이	-11.1171
▁주어진	-11.1171
▁어깨	-11.1171
▁친환경	-11.1171
▁사무국장	-11.1171
▁동맹관계	-11.1171
▁월마트	-11.1171
▁intel	-11.1171
▁소요사태	-11.1171
▁브레이크	-11.1172
▁복권	-11.1172
▁당직자	-11.1172
▁요새	-11.1172
▁세인트	-11.1172
▁불쾌	-11.1172
▁우간다	-11.1172
▁맥캔	-11.1172
▁덕분	-11.1172
▁격돌	-11.1173
▁iss	-11.1173
▁로널드	-11.1173
▁압승	-11.1173
▁중태라	-11.1173
▁벌어들	-11.1174
▁장벽	-11.1174
▁격추	-11.1174
▁고통스러	-11.1174
▁성범죄	-11.1174
베르토	-11.1175
▁당분간	-11.1176
▁xp	-11.1176
▁모르겠다	-11.1176
▁양곤	-11.1176
▁최저치	-11.1177
리서치	-11.1177
▁계층	-11.1177
▁레이저	-11.1177
▁그래미	-11.1177
▁매춘	-11.1177
▁휴전선	-11.1178
▁심장병	-11.1178
▁거짓	-11.1178
▁앙리	-11.1178
▁지하실	-11.1178
▁비싸	-11.1179
▁바퀴	-11.1179
▁연구조사	-11.1179
▁피델	-11.118
▁도왔다	-11.118
▁양빈	-11.1182
▁사법부	-11.1182
▁주차장	-11.1182
▁함정	-11.1182
▁아끼	-11.1182
▁소방서	-11.1183
011	-11.1183
▁절감	-11.1183
▁사찰	-11.1184
▁구름	-11.1184
▁gu	-11.1184
▁정규	-11.1184
▁미시간주	-11.1185
▁설정	-11.1186
▁발매	-11.1186
▁처형	-11.1186
▁브랜드	-11.1186
▁군사력	-11.1186
▁가택	-11.1187
▁폴슨	-11.1187
▁막았다	-11.1187
▁필립스	-11.1187
▁새겨	-11.1187
▁유독	-11.1188
▁ph	-11.1189
▁대담	-11.1189
디언	-11.1189
▁어디서	-11.1191
▁dc	-11.1192
럽게	-11.1192
폴리스	-11.1193
▁마침	-11.1193
▁만들어내	-11.1194
▁노동력	-11.1194
▁판정	-11.1194
▁번식	-11.1194
▁바스크	-11.1195
▁포경	-11.1195
▁심슨	-11.1196
▁사이버	-11.1196
▁테마	-11.1196
▁받아들였다	-11.1197
▁케이트	-11.1198
▁여권	-11.12
▁타이어	-11.1202
▁정복	-11.1204
▁측면	-11.1204
▁개설	-11.1205
▁우연	-11.1205
▁77	-11.1206
▁태아	-11.1206
▁수송기	-11.1208
▁외계	-11.1209
▁반등	-11.1211
장거리	-11.1211
▁예보	-11.1211
▁평소	-11.1211
▁재무	-11.1211
▁영원	-11.1212
▁국제법	-11.1213
▁재발	-11.1215
▁소란	-11.1218
▁부각	-11.1219
▁벌어졌다	-11.122
▁감소했다	-11.1221
돌렸다	-11.1221
▁남미	-11.1223
17	-11.1223
▁순찰대	-11.1224
▁제작진	-11.1228
▁포럼	-11.123
▁토레	-11.123
▁회원들	-11.1231
▁신고서	-11.1231
▁앤드	-11.1232
▁정문	-11.1233
▁열렸다	-11.1233
▁이끈	-11.1233
▁케이스	-11.1234
▁호화	-11.1234
▁인내	-11.1235
▁받아들이지	-11.1237
▁카카	-11.1239
▁삼성	-11.1241
▁되려	-11.1245
▁개제	-11.1247
▁레이더	-11.1247
▁착용하	-11.1248
▁누드	-11.1248
▁발행	-11.1249
▁앞당	-11.125
▁가이드	-11.1251
▁당선된	-11.1253
▁투표소	-11.1254
달라	-11.1255
아누	-11.1255
▁주거지	-11.1256
▁이해할	-11.1257
▁여아	-11.1259
▁집안	-11.126
▁구타	-11.1261
▁고려할	-11.1264
▁이민자들	-11.1264
▁나란	-11.1268
▁리비	-11.1271
▁체포됐으	-11.1272
▁로드	-11.1275
▁하산	-11.1285
▁양국간	-11.1285
ive	-11.1289
▁집어	-11.1291
▁표시했다	-11.1298
▁원치	-11.1308
99	-11.1315
mg	-11.1318
▁중령	-11.1319
▁tru	-11.1322
▁제정	-11.1323
▁몰리	-11.1325
▁양상	-11.1325
▁유아	-11.1331
▁사정	-11.1335
▁부문에서	-11.1335
▁지미	-11.1343
▁산하	-11.1347
▁구제	-11.135
▁뉴욕시	-11.1356
▁198	-11.1357
노브	-11.136
▁대신해	-11.1376
▁구사	-11.1378
▁원주민들	-11.138
▁나치	-11.1384
▁선원들	-11.1392
십	-11.1395
▁논의하고	-11.1406
▁문자	-11.1407
62	-11.1408
▁사면	-11.1414
▁석유회사	-11.1421
▁농부	-11.1421
▁지속되	-11.1429
베즈	-11.1432
▁후안	-11.1433
탐	-11.1434
ii	-11.1434
▁동원해	-11.1443
개혁	-11.1444
밤	-11.1449
봤다	-11.1465
▁수행했다	-11.1504
▁형태로	-11.1509
▁제기하	-11.1509
▁126	-11.1528
▁빌리	-11.1535
▁바라지	-11.1536
보드	-11.1536
잡지	-11.1537
▁판매되	-11.1541
▁싶어하	-11.1549
장난	-11.1554
▁난자	-11.1562
장소	-11.1569
▁석방된	-11.1571
▁자바	-11.1586
▁탈출했다	-11.1595
머리	-11.1595
▁대원	-11.1606
▁제공하기	-11.1613
게임	-11.1616
▁밝히기	-11.1632
▁웨스	-11.1636
▁발생하기	-11.1642
▁논의했다	-11.1648
az	-11.1649
▁사과했다	-11.165
▁강사	-11.1651
비오	-11.166
▁중단된	-11.1663
▁적극	-11.1687
▁제출했다	-11.1691
▁농부들	-11.1702
▁나비	-11.1705
▁바닥	-11.1707
▁승려들	-11.1711
▁보냈	-11.1714
파크	-11.1721
실적	-11.1738
교회	-11.175
▁슈퍼대의원들	-11.176
▁신고했다	-11.1777
▁추정하	-11.1798
따	-11.1811
tan	-11.1824
차원	-11.1851
▁관찰하	-11.1854
▁서쪽	-11.1862
▁스타디움	-11.1862
▁79	-11.1862
▁잃었	-11.1872
▁검토하	-11.1877
▁걸려	-11.1881
버렸	-11.19
아졌다	-11.1929
ven	-11.193
만톤	-11.1934
▁브랜	-11.1935
▁알바니아	-11.1937
▁inter	-11.1938
캠	-11.1939
눌	-11.1939
▁퍼시픽	-11.194
닙	-11.194
랫	-11.194
븐	-11.194
▁프리메라리가	-11.194
▁microsoft	-11.194
▁경기침체	-11.194
▁괜찮	-11.194
▁국가평의회	-11.194
▁끝내고	-11.194
▁나르기스	-11.194
▁낙하산	-11.194
▁농산물	-11.194
▁댕기열	-11.194
▁디자이너	-11.194
▁루마니아	-11.194
▁매릴랜드	-11.194
▁무하메드	-11.194
▁베테랑	-11.194
▁분리독립	-11.194
▁불렀다	-11.194
▁블로그	-11.194
▁사우스다코타	-11.194
▁서둘러	-11.194
▁숙박비	-11.194
▁신용카드	-11.194
▁아제르바이잔	-11.194
▁애널리스트	-11.194
▁여동생	-11.194
▁오클라호마	-11.194
▁조코비치	-11.194
▁주일미군	-11.194
▁초콜릿	-11.194
▁칸다하르	-11.194
▁캐시미르	-11.194
▁코네티컷	-11.194
▁쿠즈넷소바	-11.194
▁트러스트	-11.194
▁파르베즈	-11.194
▁프린트	-11.194
▁휩싸였다	-11.194
띠	-11.194
륭	-11.194
맘	-11.194
쉴	-11.194
시켰으	-11.194
쿨	-11.194
▁고이즈미	-11.194
▁로페즈	-11.194
▁무책임	-11.194
▁복부비만	-11.194
▁부동층	-11.194
▁에버튼	-11.194
▁인수제안	-11.194
▁촛불	-11.194
▁호르몬	-11.194
▁법무부	-11.194
▁부적절	-11.194
▁블로거	-11.194
▁축구팬들	-11.194
▁심사위원	-11.194
▁도미니	-11.194
▁주머니	-11.194
▁비영리	-11.194
▁앙겔	-11.194
▁오디오	-11.194
▁유니티	-11.194
▁카제미	-11.194
▁의구심	-11.194
▁메모리	-11.194
클라렌	-11.194
▁부회장	-11.194
▁오마바	-11.194
▁시달리	-11.194
▁contr	-11.194
▁만족한다	-11.194
헤럴드	-11.194
▁노리에가	-11.194
▁아스날	-11.194
▁포르노	-11.194
▁색깔	-11.194
▁탑재	-11.194
▁나타낸	-11.194
▁사마라	-11.194
▁경찰청장	-11.194
▁챔피언십	-11.194
▁바하마	-11.194
▁유태인	-11.194
▁서부텍사스산	-11.194
▁몬테	-11.194
▁징계	-11.194
▁침범	-11.194
▁멜론	-11.194
▁말리부	-11.194
▁억압	-11.194
▁관절염	-11.194
▁청와대	-11.194
▁쇼핑몰	-11.194
▁욕구	-11.194
▁기다려	-11.194
▁논평	-11.1941
▁복역	-11.1941
▁마스리	-11.1941
▁크리스틴	-11.1941
▁다국적군	-11.1941
▁척추	-11.1941
ence	-11.1941
▁오스만	-11.1942
▁완승	-11.1942
▁지방법원	-11.1942
▁물러난	-11.1942
▁인디언	-11.1943
▁nba	-11.1943
▁권총	-11.1943
▁연합통신	-11.1943
▁콜롬보	-11.1943
▁검증	-11.1944
▁이송됐으	-11.1944
▁상무위원	-11.1944
▁할렘	-11.1944
▁돌풍	-11.1944
▁워너	-11.1944
▁쉽다	-11.1945
▁유혹	-11.1945
▁동남	-11.1945
▁애견	-11.1945
▁다녀	-11.1946
▁명칭	-11.1946
▁가죽	-11.1946
▁민족주의	-11.1946
▁매몰	-11.1946
▁빅토	-11.1946
▁라싸	-11.1947
▁연합정부	-11.1947
▁정찰	-11.1948
▁몰래	-11.1948
▁기둥	-11.1948
▁운반	-11.1948
▁인접	-11.1949
▁연례	-11.1949
▁설계	-11.1949
놨다	-11.1949
▁절약	-11.195
▁취약	-11.195
▁통과시켰다	-11.195
▁오존	-11.195
▁지나친	-11.195
▁지닌	-11.195
▁납부	-11.195
▁평생	-11.1951
▁1988	-11.1951
▁던졌다	-11.1951
▁태형	-11.1952
▁지방정부	-11.1952
▁하얀	-11.1952
▁잔디	-11.1953
▁납치범	-11.1954
▁공급받	-11.1954
▁볼튼	-11.1954
▁마스크	-11.1954
▁줄어들었다	-11.1955
▁성능	-11.1955
▁휴식	-11.1955
▁관행	-11.1955
▁일방적	-11.1956
▁고위급	-11.1957
▁미시건주	-11.1957
▁영감	-11.1958
▁난동	-11.1959
▁연방정부	-11.1959
▁증오	-11.1959
▁발견됐으	-11.1959
▁코너	-11.1959
▁거둔	-11.196
▁호스트	-11.196
▁신랑	-11.1961
▁연행됐다	-11.1962
▁서열	-11.1962
▁금연	-11.1962
▁노동당	-11.1963
▁포탄	-11.1963
▁외교부	-11.1965
▁로케	-11.1965
▁놓여	-11.1966
공장	-11.1966
▁위생	-11.1967
▁책정	-11.1968
▁과속	-11.1968
▁후퇴	-11.1968
▁매출	-11.1968
▁유로화	-11.197
▁아카데미상	-11.1973
▁시작됐으	-11.1973
▁재임	-11.1973
▁점심	-11.1977
▁언제든	-11.1978
▁지나치	-11.1979
▁걸프	-11.198
시켜야	-11.198
▁독점	-11.1981
▁남쪽으로	-11.1986
▁난처	-11.1987
▁가르치	-11.1991
▁오메	-11.1991
▁후보작	-11.1992
▁새우	-11.1993
▁도구	-11.1993
▁지켜봤	-11.1995
▁서브	-11.1997
▁지났	-11.1997
▁제약	-11.1998
▁해석	-11.2
▁129	-11.2004
▁성공회	-11.2006
▁125	-11.2011
▁양보	-11.2013
▁해체	-11.2018
▁세관	-11.2019
▁재선	-11.202
▁공조	-11.202
▁ira	-11.2022
▁전해지	-11.2026
▁모가디슈에서	-11.2027
▁요원들	-11.2028
▁사체	-11.2029
▁피우	-11.2037
cur	-11.2042
▁농촌	-11.2043
▁복장	-11.2049
▁대조	-11.2052
▁모임	-11.2052
▁화제	-11.2053
▁350	-11.2053
▁행성들	-11.2059
▁자정	-11.206
▁중국정부	-11.2061
▁경상	-11.2063
▁지문	-11.2063
▁전용기	-11.2068
▁기록됐다	-11.2072
▁전술	-11.2076
▁단서	-11.208
▁개최되	-11.2089
▁재정적	-11.209
▁오프	-11.2095
▁신성	-11.2099
▁우세	-11.2102
▁독재자	-11.2109
▁사회주의	-11.211
▁주권	-11.2112
▁극심	-11.213
▁불과했다	-11.213
▁확인해	-11.2137
▁편집자	-11.2137
▁유대	-11.2141
▁환영한다	-11.2148
▁캐리	-11.2152
▁공세	-11.2154
▁상점들	-11.2157
푸르	-11.2174
▁승려	-11.2176
▁중재자	-11.2176
▁표명	-11.2177
▁부수	-11.2185
▁압수했다	-11.2206
▁민주적	-11.2212
▁ces	-11.2223
▁벌였으	-11.2249
▁들리	-11.2253
▁발견되지	-11.2264
털	-11.2266
버트	-11.2267
윤	-11.2267
공화국	-11.2268
죽	-11.2268
▁행해	-11.227
김	-11.2272
기자회견	-11.2275
85	-11.229
16	-11.2294
능력	-11.2299
티노	-11.2302
벨트	-11.2322
▁대표하	-11.2324
▁선박들	-11.2325
eri	-11.2335
▁고려해	-11.2336
▁베니	-11.2349
투어	-11.2352
▁발견되	-11.2382
▁살해했다	-11.239
티브	-11.2419
주재	-11.2425
▁무너졌	-11.2457
▁진압하	-11.2458
▁지배하	-11.2479
▁들어있	-11.2483
▁맞이하	-11.2505
내달	-11.2537
공학	-11.2554
▁당원들	-11.2597
포르	-11.2599
▁dr	-11.2603
ster	-11.2621
our	-11.2641
▁조심	-11.2651
▁적당	-11.2669
▁만났	-11.2697
피크	-11.2703
▁112	-11.2711
▁인명	-11.2732
▁남쪽	-11.2733
▁대변	-11.2743
▁이동하	-11.2751
▁옹호	-11.2756
▁설립자	-11.2758
혁	-11.276
▁위스콘신	-11.276
▁po	-11.2765
훔	-11.2766
쇄	-11.2767
뒀	-11.2768
▁콜롬	-11.2769
▁방해하	-11.2771
흙	-11.2771
▁득표	-11.2772
▁얼룩	-11.2772
슐	-11.2773
▁덩어리	-11.2773
▁아르메니아	-11.2773
엽	-11.2773
book	-11.2773
▁fifa	-11.2773
▁work	-11.2773
▁가비알	-11.2773
▁거머쥐었	-11.2773
▁구스마오	-11.2773
▁네그로폰테	-11.2773
▁뉴멕시코	-11.2773
▁독립선언	-11.2773
▁동남아시아	-11.2773
▁만토바니	-11.2773
▁무차별	-11.2773
▁버틀러	-11.2773
▁브뤼셀	-11.2773
▁사이언톨로지	-11.2773
▁솔라나	-11.2773
▁수족구병	-11.2773
▁슈워제네거	-11.2773
▁어소시에이	-11.2773
▁올랐으	-11.2773
▁우주왕복선	-11.2773
▁윌리암	-11.2773
▁죄책감	-11.2773
▁줄기세포	-11.2773
▁질렀다	-11.2773
▁청문회	-11.2773
▁카톨릭	-11.2773
▁키티호크	-11.2773
▁통합러시아당	-11.2773
▁틀림없	-11.2773
▁피츠버그	-11.2773
▁항공모함	-11.2773
▁회교도	-11.2773
▁히스패닉	-11.2773
밭	-11.2773
셈	-11.2773
▁록펠러	-11.2773
▁만델라	-11.2773
▁벤자민	-11.2773
▁블랙베리	-11.2773
▁스타워즈	-11.2773
▁고등법원	-11.2773
▁고래상어	-11.2773
▁무소속	-11.2773
▁외무성	-11.2773
▁중산층	-11.2773
▁비공개	-11.2773
▁스캔들	-11.2773
▁오피니언리서치	-11.2773
▁훔쳐	-11.2773
▁카펠로	-11.2773
▁로보트	-11.2773
▁리프트	-11.2773
▁로드아일랜드	-11.2773
▁선거결과	-11.2773
▁대선결과	-11.2773
▁재처리	-11.2773
▁포괄적	-11.2773
▁낭비	-11.2773
▁린제이	-11.2773
▁조사결과	-11.2773
▁넬슨	-11.2773
▁금요일	-11.2773
▁반도체	-11.2773
▁투데이	-11.2773
▁이라와디	-11.2773
▁유원지	-11.2773
▁통행금지	-11.2773
▁정해지지	-11.2773
▁화물선	-11.2773
▁번화가	-11.2773
▁sars	-11.2773
▁남아프리카	-11.2774
▁와일드	-11.2774
▁곤봉	-11.2774
▁디스커버리호	-11.2774
▁파키스탄무슬림리그	-11.2775
▁중앙정보	-11.2775
▁데뷔	-11.2775
▁1987	-11.2775
▁part	-11.2775
▁무너져	-11.2775
▁열쇠	-11.2776
▁계곡	-11.2776
▁크리스마스트리	-11.2776
▁불가피하다	-11.2776
▁회색	-11.2776
▁인쇄	-11.2776
▁구호작업	-11.2776
▁프렌	-11.2776
▁유의원	-11.2776
▁바람직하다	-11.2776
▁과잉	-11.2776
▁고고학자	-11.2776
▁조셉	-11.2776
▁농담	-11.2776
▁우리나라	-11.2776
▁토끼	-11.2776
▁기차역	-11.2776
▁둘째	-11.2777
▁따돌리	-11.2777
▁청년들	-11.2777
▁회계	-11.2777
▁경호원들	-11.2777
▁나눈	-11.2778
▁출항	-11.2778
▁디젤	-11.2778
▁스튜	-11.2778
▁wto	-11.2778
▁채굴	-11.2778
▁추산하	-11.2778
첸코	-11.2778
▁리콜	-11.2778
▁풍경	-11.2778
▁높아졌다	-11.2778
▁삼림	-11.2779
▁탄광	-11.2779
▁usb	-11.2779
▁친밀	-11.2779
▁재활	-11.2779
▁세레나	-11.2779
▁랄리	-11.2779
▁재무부	-11.278
▁종교단체	-11.2781
▁흉선	-11.2782
▁위스키	-11.2782
▁돌아갈	-11.2782
▁피켓	-11.2782
▁외교관계	-11.2782
▁증강	-11.2782
코맥	-11.2783
▁소도시	-11.2783
▁포스터	-11.2783
▁퍼져	-11.2784
▁핵문제	-11.2784
▁내려졌다	-11.2784
▁들렸다	-11.2786
▁정밀	-11.2786
▁연애	-11.2786
▁긴장감	-11.2786
▁가짜	-11.2787
▁성폭행범	-11.2788
▁개정안	-11.2789
▁격려	-11.279
▁od	-11.2791
▁격분	-11.2791
▁있을까	-11.2791
▁연출	-11.2793
▁존재하	-11.2794
▁진동	-11.2794
▁있느냐	-11.2795
▁황제	-11.2795
▁응원	-11.2795
▁급파	-11.2796
▁울프	-11.2796
▁즐거	-11.2797
없	-11.2797
▁공개되지	-11.2797
▁은폐	-11.2798
▁건조	-11.2801
▁데이트	-11.2801
▁올릴	-11.2801
▁편집장	-11.2801
널드	-11.2804
▁지침	-11.2804
▁준결승전	-11.2805
▁급진	-11.2805
▁추모	-11.2806
▁피플	-11.2806
▁시립	-11.2807
▁있겠	-11.2807
▁재생	-11.2807
▁진술서	-11.2811
▁유전적	-11.2812
▁에너지부	-11.2815
▁투여	-11.2817
▁친분	-11.2818
▁코란	-11.2819
▁당선됐다	-11.282
▁걸었다	-11.2821
▁정교	-11.2821
▁뉴욕시장	-11.2822
▁일축	-11.2822
▁통보	-11.2822
▁소포	-11.2823
▁제조회사	-11.2828
▁보행	-11.283
▁정부기관	-11.2831
▁저지르	-11.2832
▁작품상	-11.2833
▁생크	-11.2834
▁유실	-11.2835
▁공방	-11.2836
▁사이즈	-11.2838
▁게시	-11.2841
▁수백만명	-11.2843
▁부속	-11.2845
키마	-11.2846
▁실내	-11.2846
▁등장하	-11.2848
트래	-11.2851
▁구조됐다	-11.2852
▁앞선	-11.2853
퍼드	-11.2857
▁페니	-11.2858
▁양당	-11.2859
▁기권	-11.2861
▁포기할	-11.2862
▁소유주	-11.2863
▁자질	-11.2865
▁자연적	-11.2866
노프	-11.2867
▁약품	-11.2868
▁정오	-11.2868
▁대통령으로서	-11.2868
▁효과적인	-11.287
▁반란	-11.2874
▁팔려	-11.2875
셰르	-11.2876
▁자선	-11.2879
▁중단했으	-11.2882
▁투자가들	-11.2886
▁다비	-11.2886
ther	-11.2887
▁투수	-11.2892
▁어미	-11.2899
▁진압하기	-11.2901
▁탈라	-11.2901
▁모았다	-11.2902
▁주장했으	-11.2906
▁불화	-11.2907
cal	-11.2911
▁라파	-11.2912
▁취업	-11.2917
▁판매량	-11.2919
▁심어	-11.292
▁충돌했다	-11.2922
uss	-11.2923
▁외상	-11.2929
▁조니	-11.293
▁car	-11.2935
▁지연되	-11.2948
▁올라있	-11.2965
▁안되	-11.2967
강전	-11.2972
토프	-11.2972
▁자랑하	-11.2985
브리지	-11.2987
▁개성	-11.2999
▁생산성	-11.3001
▁퇴원했다	-11.3001
war	-11.3005
▁대답했다	-11.3009
방법	-11.3019
▁수의사	-11.3021
▁주문했다	-11.3033
▁성전	-11.3038
ite	-11.3045
마저	-11.3064
▁감행했다	-11.3074
모닝	-11.3081
▁거래되	-11.3124
ttle	-11.315
▁기적	-11.3151
▁손님들	-11.3159
▁재개했다	-11.3165
떼	-11.3172
▁스피	-11.3178
▁국정	-11.3178
카메라	-11.3181
핵	-11.3183
잘	-11.3183
프로그램	-11.3185
영향	-11.3188
아일랜드	-11.3192
규모	-11.3194
모델	-11.3195
▁실업	-11.3207
자녀	-11.3222
▁신체적	-11.3258
방식	-11.3259
▁못했으	-11.3267
ens	-11.3271
▁의존하	-11.3278
▁추구	-11.3278
▁모색하	-11.33
식품	-11.3301
모건	-11.3308
▁제조업	-11.3327
▁입었	-11.3346
▁자랑	-11.3349
주민들	-11.3355
ish	-11.3366
▁포기했다	-11.3404
▁정통	-11.3437
▁소행	-11.3443
▁스페	-11.3447
▁이용자들	-11.3452
▁내놓았	-11.3545
ance	-11.356
lan	-11.3603
▁나타났	-11.3619
▁거뒀	-11.3621
학회	-11.3641
▁동의했다	-11.3643
▁필립	-11.3663
곱	-11.3674
셉	-11.3678
엇	-11.3679
셋	-11.368
▁불러일으	-11.368
▁음료	-11.368
둑	-11.368
꼬	-11.3681
괄	-11.3682
갱	-11.3682
▁꼬리	-11.3682
쯔	-11.3682
▁국제사면위원회	-11.3682
▁국토안보	-11.3682
▁나이트클럽	-11.3682
▁내셔널	-11.3682
▁뉴캐슬	-11.3682
▁도라에몽	-11.3682
▁로맨틱	-11.3682
▁매카트니	-11.3682
▁신용경색	-11.3682
▁싱가폴	-11.3682
▁이바노비치	-11.3682
▁점유율	-11.3682
▁최첨단	-11.3682
▁출퇴근	-11.3682
▁클레멘스	-11.3682
▁활성화	-11.3682
▁황열병	-11.3682
▁흑색종	-11.3682
아프리카민족	-11.3682
톡	-11.3682
펴	-11.3682
light	-11.3682
▁agenc	-11.3682
▁commission	-11.3682
▁olpc	-11.3682
▁research	-11.3682
▁society	-11.3682
▁wwf	-11.3682
▁가톨릭	-11.3682
▁군사행동	-11.3682
▁노스웨스트	-11.3682
▁뉴잉글랜드	-11.3682
▁대량살상무기	-11.3682
▁뒷받침	-11.3682
▁만장일치	-11.3682
▁메르세데스	-11.3682
▁몬타나	-11.3682
▁미드필더	-11.3682
▁부시대통령	-11.3682
▁브리티시	-11.3682
▁안타까	-11.3682
▁알렉산드	-11.3682
▁알자와히리	-11.3682
▁애완견	-11.3682
▁엔지니어	-11.3682
▁엔터테인먼트	-11.3682
▁오마이뉴스	-11.3682
▁이르렀다	-11.3682
▁자바코뿔소	-11.3682
▁크메르루즈	-11.3682
▁클리블랜드	-11.3682
▁타블로이드	-11.3682
▁햇볕	-11.3682
▁햇빛	-11.3682
▁히말라야	-11.3682
돔	-11.3682
뚝	-11.3682
륜	-11.3682
멧	-11.3682
샹	-11.3682
슘	-11.3682
쩌	-11.3682
▁islam	-11.3682
▁공공장소에서	-11.3682
▁버클리	-11.3682
▁캠퍼스	-11.3682
▁깁슨	-11.3682
▁심장마비	-11.3682
▁파라과이	-11.3682
▁헤스턴	-11.3682
▁데이비스	-11.3682
▁프로세서	-11.3682
▁제네바	-11.3682
▁청원서	-11.3682
▁소실됐다	-11.3682
▁irna	-11.3682
▁아메드	-11.3682
▁루카스	-11.3682
▁오스본	-11.3682
▁메수드	-11.3682
▁스콜스	-11.3682
▁휘둘	-11.3682
학저널	-11.3682
▁파라오	-11.3682
▁혈압	-11.3682
▁남아프리카공화국	-11.3682
▁착취	-11.3682
▁본거지	-11.3682
▁카지노	-11.3682
▁혈액	-11.3682
▁바우어	-11.3682
▁침착	-11.3682
▁퇴역	-11.3682
▁afp	-11.3682
▁꾸미	-11.3682
▁힐러리여사	-11.3682
▁디아즈	-11.3682
▁부녀자	-11.3682
▁실업률	-11.3683
▁추락사고	-11.3683
▁이뤄져야	-11.3683
▁켄트	-11.3683
▁친척들	-11.3683
▁염두	-11.3683
▁강아지	-11.3683
▁침실	-11.3683
▁즐거움	-11.3683
▁확실시되	-11.3683
▁불상사	-11.3683
▁수하물	-11.3683
▁칭찬	-11.3683
▁퇴치	-11.3683
▁퇴진	-11.3683
▁애틀랜타	-11.3683
▁메인주	-11.3683
▁참혹	-11.3683
▁바르샤	-11.3684
▁파이프	-11.3684
▁히잡	-11.3684
▁도둑	-11.3684
▁항의시위	-11.3684
▁자살폭탄	-11.3684
▁바바라	-11.3684
▁등뼈	-11.3684
▁some	-11.3684
▁벽돌	-11.3684
▁힐튼	-11.3684
▁압축	-11.3685
▁금연법	-11.3685
▁화폐	-11.3685
▁몸값	-11.3685
▁펠리	-11.3685
▁자본주의	-11.3685
▁eng	-11.3686
▁암호키	-11.3686
▁식별	-11.3686
▁냉동	-11.3686
▁911	-11.3686
▁복부	-11.3686
▁sun	-11.3687
▁같았다	-11.3687
▁살아있는	-11.3687
▁종말	-11.3687
▁완공	-11.3688
▁올라왔다	-11.3688
▁즐겨	-11.3688
▁소년병	-11.3688
▁자발적	-11.3688
▁물리치	-11.3688
▁보석금	-11.3688
▁에티오피아군	-11.3689
▁바람직	-11.3689
▁암살사건	-11.3689
▁북경	-11.3689
▁궁금	-11.3689
▁만남	-11.3689
▁밀집	-11.3689
▁조사관들	-11.369
▁연극	-11.369
▁번영	-11.3691
▁품질	-11.3691
▁육성	-11.3691
▁다가오	-11.3691
▁바라보	-11.3691
▁폭등	-11.3692
▁숨겨	-11.3692
▁사이클	-11.3692
▁사라질	-11.3692
▁유효	-11.3692
▁기네스	-11.3692
▁무패	-11.3693
▁토로했다	-11.3694
▁종족	-11.3694
▁수사팀	-11.3694
▁머무	-11.3694
▁강철	-11.3695
▁역임했	-11.3696
▁수익금	-11.3696
▁라틴	-11.3696
▁안젤	-11.3696
▁영역	-11.3698
▁만찬에	-11.3698
▁통신망	-11.3699
▁저격	-11.3699
▁병역	-11.3699
▁우편	-11.37
▁뉴저지주	-11.37
▁시에나	-11.37
▁계란	-11.37
▁dis	-11.37
▁응용	-11.37
▁inc	-11.3701
▁불안정	-11.3701
▁중단하라	-11.3701
▁단절	-11.3702
▁유혈	-11.3702
▁동의안	-11.3703
▁바이오	-11.3704
▁따내	-11.3704
▁기름	-11.3706
▁만료	-11.3706
▁생중계된	-11.3706
트릭	-11.3707
▁부분적으로	-11.3708
▁대폭	-11.3708
▁원격	-11.371
▁스턴	-11.3711
▁시몬	-11.3711
▁소유즈	-11.3711
▁반환	-11.3712
▁있었는지	-11.3715
▁완성	-11.3716
▁예정이었으	-11.3716
▁내려오	-11.3717
▁투표권	-11.3717
▁감안	-11.3718
▁동의한다	-11.3718
멜라	-11.3718
▁공범	-11.3719
▁많았다	-11.3719
▁매입	-11.3719
▁지도력	-11.372
▁샤프	-11.372
▁본선거	-11.372
▁선동	-11.3721
▁대승	-11.3722
▁비준	-11.3722
탈루	-11.3723
▁코난	-11.3723
▁발견돼	-11.3723
▁펼쳐진	-11.3724
▁알려주	-11.3724
▁보수적	-11.3727
▁서버	-11.3727
▁480	-11.3727
▁확산됐다	-11.3729
▁토티	-11.373
▁구속됐다	-11.373
▁생선	-11.373
▁왕국	-11.3731
▁돌보	-11.3732
▁버크	-11.3736
▁본부장	-11.3737
먼트	-11.3737
▁헤비	-11.3737
▁4500	-11.3738
▁올림픽위원회	-11.3738
▁상금	-11.3741
▁시범	-11.3743
▁조그	-11.3744
▁유연	-11.3745
▁용서	-11.3745
▁인계	-11.3747
▁국민당	-11.3748
▁정계	-11.375
▁안건	-11.3752
▁심정	-11.3753
▁구직	-11.3753
▁발표되지	-11.3755
▁과오	-11.3756
▁안심	-11.3758
▁128	-11.3758
▁출판사	-11.3763
▁버전	-11.3766
▁일치하	-11.3771
▁마르코	-11.3773
▁밀수	-11.3774
▁음식점	-11.3784
투성이	-11.3784
ana	-11.3788
▁펜실베이니아주	-11.3792
▁흔들리	-11.3799
바락	-11.3809
▁파괴되	-11.3825
ber	-11.3833
▁본국	-11.3849
스프레	-11.3853
▁유물	-11.3854
심리에서	-11.3862
▁심리학	-11.3874
▁변수	-11.3875
▁측정하	-11.3908
▁다치	-11.3911
▁자회사	-11.3924
▁초고속	-11.3943
▁실종됐	-11.3944
▁소지하	-11.3949
▁새롭	-11.397
▁매력적	-11.3973
▁과장	-11.3976
▁벌여왔	-11.3989
▁세번째	-11.3993
▁장악하	-11.4046
▁선적	-11.407
▁선택하	-11.4077
▁올바	-11.4091
보관소	-11.4125
▁힘들었	-11.4136
▁차지했	-11.4144
▁종업원들	-11.4177
눈	-11.4177
팬	-11.4179
여객기	-11.4183
딸	-11.4183
돈	-11.4184
▁이재민들	-11.4198
▁사랑하	-11.4201
▁작동되	-11.4217
▁mar	-11.4221
노동	-11.4222
▁bot	-11.4249
▁생물학자	-11.4266
▁열렸	-11.4279
카니	-11.4296
tter	-11.432
▁정상회의에	-11.4328
▁수십억	-11.4368
▁적합하	-11.4431
▁선포하	-11.4449
▁인종차별	-11.4449
번씩	-11.4451
▁대원들	-11.4482
▁서있	-11.4503
▁취급하	-11.4536
역대	-11.4543
▁변호	-11.4582
▁들어왔	-11.4606
▁보여준	-11.4612
재단	-11.4622
▁종말론	-11.464
▁준결승	-11.4644
헤드	-11.4649
▁can	-11.4656
tte	-11.4657
렐	-11.4674
렵	-11.4675
렘	-11.4676
쁜	-11.4676
▁불가피	-11.468
낭	-11.4682
▁마다가스카르	-11.4682
▁북대서양	-11.4682
▁산티아고	-11.4682
▁아쿠아리움	-11.4682
▁은자메나	-11.4682
▁high	-11.4682
▁rdr	-11.4682
▁ufo	-11.4682
▁wild	-11.4682
▁개성공단	-11.4682
▁건강검진	-11.4682
▁관람객들	-11.4682
▁국제우주정거장	-11.4682
▁그랜드슬램	-11.4682
▁네브라스카	-11.4682
▁델라웨어	-11.4682
▁도미니카공화국	-11.4682
▁뒷좌석에	-11.4682
▁라이베리아	-11.4682
▁루프트한	-11.4682
▁류마티스	-11.4682
▁몬태나	-11.4682
▁몸싸움	-11.4682
▁베이징올림픽	-11.4682
▁부패혐의	-11.4682
▁부활절	-11.4682
▁비평가들	-11.4682
▁비핵화	-11.4682
▁생태계	-11.4682
▁서유럽	-11.4682
▁스턴트맨	-11.4682
▁아디다스	-11.4682
▁아흐메드	-11.4682
▁우울증	-11.4682
▁윔블던	-11.4682
▁지구온난화	-11.4682
▁카스파로프	-11.4682
▁컵케이크	-11.4682
▁콘텐트	-11.4682
▁타이타닉	-11.4682
▁토튼햄	-11.4682
▁티셔츠	-11.4682
▁파라마운트	-11.4682
▁파이어폭스	-11.4682
▁페르난데즈	-11.4682
▁포토맥	-11.4682
▁프랑크푸르트	-11.4682
▁플로렌스	-11.4682
▁핀란드	-11.4682
▁호주오픈테니스대회	-11.4682
▁휴전협정	-11.4682
굽	-11.4682
궈	-11.4682
뜯	-11.4682
뜰	-11.4682
릅	-11.4682
샷	-11.4682
쥬	-11.4682
▁epl	-11.4682
▁각성위원회	-11.4682
▁곤돌라	-11.4682
▁구소련	-11.4682
▁국제영화제	-11.4682
▁도요타	-11.4682
▁빈라덴	-11.4682
▁싫어하	-11.4682
▁양귀비	-11.4682
▁오리건주	-11.4682
▁제퍼슨	-11.4682
▁크누트	-11.4682
놈	-11.4682
뎀	-11.4682
쿤	-11.4682
▁라자스탄	-11.4682
▁바티칸	-11.4682
▁박스데일	-11.4682
▁베이루트	-11.4682
▁빙붕	-11.4682
▁여중생	-11.4682
▁오스네스	-11.4682
▁잠수함	-11.4682
▁전화통화	-11.4682
▁존엄성	-11.4682
▁총파업	-11.4682
▁터무니	-11.4682
▁패터슨	-11.4682
▁aey	-11.4682
▁고혈압	-11.4682
▁느껴	-11.4682
▁목걸이	-11.4682
▁소더비	-11.4682
▁신생아	-11.4682
▁장기기증	-11.4682
만배럴	-11.4682
▁가석방	-11.4682
▁마스터스	-11.4682
▁정신지체	-11.4682
▁즐긴다	-11.4682
▁괴롭	-11.4682
▁도서관	-11.4682
▁세계식량	-11.4682
▁하누만	-11.4682
▁희귀	-11.4682
▁꾸준	-11.4682
▁노던록	-11.4682
▁코레아	-11.4682
▁파이프라인	-11.4682
▁폭넓	-11.4682
▁폭락했다	-11.4682
▁왓슨	-11.4682
▁세비야	-11.4682
▁앗아	-11.4682
▁다저스	-11.4682
▁셰이크	-11.4682
▁오마하	-11.4682
▁셔츠	-11.4682
▁유니버	-11.4682
▁브루스	-11.4682
▁식량위기	-11.4682
▁하반기	-11.4682
▁선두주자	-11.4682
▁의정서	-11.4683
▁스크린	-11.4683
▁로하스	-11.4683
▁럭비	-11.4683
▁star	-11.4683
▁방수로	-11.4683
▁지질조사	-11.4683
▁꺼내	-11.4683
clu	-11.4683
▁섭취하	-11.4683
▁로이터	-11.4683
▁난민촌	-11.4683
▁괴물	-11.4683
▁수비수	-11.4683
▁페트로	-11.4683
▁갖춰	-11.4683
▁구조조정	-11.4684
▁바레인	-11.4684
▁나중에	-11.4684
▁진흙	-11.4684
▁포옹	-11.4684
▁복직	-11.4684
▁출몰	-11.4684
▁면밀	-11.4684
▁시청률	-11.4684
▁윤리적	-11.4684
▁밤새	-11.4685
▁봉착	-11.4685
▁메뉴	-11.4685
▁타계했다	-11.4685
▁감기약	-11.4685
▁인수가격	-11.4686
reven	-11.4686
▁간첩	-11.4686
▁밀접	-11.4686
▁프라임	-11.4686
▁니켈	-11.4686
▁관광산업	-11.4686
▁무엇인지	-11.4686
▁게시물	-11.4686
▁내보냈	-11.4686
▁태양열	-11.4686
▁탈락	-11.4687
▁검열	-11.4687
▁머레이	-11.4687
▁후계자	-11.4687
▁학습	-11.4688
▁폐허	-11.4688
▁켈리	-11.4688
▁다닐	-11.4688
▁엄중	-11.4688
▁범죄행위	-11.4688
▁모욕적	-11.4688
▁기획	-11.4688
▁니콜슨	-11.4688
▁응급실	-11.4689
▁인권문제	-11.4689
▁fao	-11.4689
▁키팅	-11.4689
▁총알	-11.4689
▁주어지	-11.4689
▁헬렌	-11.4689
▁형편	-11.4689
▁이민법	-11.4689
▁빈센트	-11.469
▁스프레이	-11.469
▁정황	-11.469
▁테러공격	-11.469
▁1945	-11.469
스테이트	-11.469
▁도착했을	-11.4691
▁동참	-11.4691
▁웨버	-11.4691
▁시민단체	-11.4691
▁쿠르드족	-11.4691
▁터너	-11.4691
▁합작	-11.4691
▁피셔	-11.4691
▁약화시키	-11.4692
▁어부들	-11.4692
▁fta	-11.4692
▁제라드	-11.4692
▁창출	-11.4693
▁회부	-11.4693
▁유괴	-11.4693
▁콜린	-11.4694
▁전국위원회	-11.4694
▁news	-11.4694
▁감추	-11.4694
▁숨져	-11.4694
▁추격	-11.4695
▁이끌어내	-11.4695
▁적대적	-11.4695
▁태워	-11.4696
peo	-11.4696
▁월경	-11.4696
▁지갑	-11.4696
▁권유	-11.4696
▁북측	-11.4696
▁일삼	-11.4697
▁야외	-11.4697
▁삼판	-11.4697
ark	-11.4697
▁종사하	-11.4697
▁추출	-11.4698
▁장려하	-11.4698
▁표본	-11.4698
▁유사하다	-11.4699
▁소총	-11.47
▁기대감	-11.47
▁환경단체	-11.4701
▁소유권	-11.4701
▁피살됐다	-11.4701
▁혼인	-11.4701
▁돌아온	-11.4702
▁속출	-11.4703
▁비참	-11.4703
▁집권당	-11.4703
▁상환	-11.4703
976	-11.4703
▁애리조나주	-11.4705
▁버몬트주	-11.4705
▁완수	-11.4705
▁온실	-11.4706
▁달렸다	-11.4707
▁악화될	-11.4708
▁역설	-11.4708
▁표결	-11.4708
▁bl	-11.4708
▁여긴	-11.4708
됐음	-11.4709
▁모험	-11.471
▁예정되어	-11.471
▁루이지애나주	-11.4711
▁개편	-11.4714
▁맺었다	-11.4715
▁만들어낸	-11.4715
▁메이어	-11.4716
▁비난했었다	-11.4716
▁05	-11.4717
▁높았다	-11.4717
▁건국	-11.4718
▁돌아보	-11.472
▁토레스	-11.472
▁로열	-11.4721
▁플로	-11.4722
▁루터	-11.4722
▁도피	-11.4722
▁뉴햄프셔주	-11.4724
▁동행	-11.4724
▁희생됐다	-11.4725
▁뒤집	-11.4725
▁이루어진	-11.4725
▁순수	-11.4727
▁기초	-11.4728
▁테크	-11.4728
▁목성	-11.473
▁비스타	-11.473
▁마리오	-11.4731
▁보증	-11.4731
▁버마	-11.4731
▁반격	-11.4732
▁메카	-11.4732
▁단호	-11.4733
▁만연	-11.4733
▁끼치	-11.4735
▁레이드	-11.4736
나갔으	-11.4736
▁간직	-11.474
▁십대	-11.474
▁로키	-11.4747
▁교정	-11.4752
▁설사	-11.4754
▁상관없	-11.4757
▁악성	-11.476
▁붕괴되	-11.4762
▁관대	-11.4767
▁수여하	-11.477
▁속편	-11.4772
▁이사장	-11.4785
▁몰린	-11.4792
▁과격주의	-11.4796
lay	-11.481
985	-11.4816
▁chin	-11.4855
▁적용되	-11.4856
▁고민하	-11.4857
테네시주	-11.486
▁알프레	-11.4865
▁유명인사들	-11.4877
인민당	-11.4882
▁촉진시키	-11.4884
▁상인들	-11.4914
▁민영	-11.4966
▁보험사	-11.4987
▁개발도상국들	-11.5008
▁동의하	-11.5022
own	-11.5034
▁배우들	-11.5071
shing	-11.5073
▁인식하	-11.5113
▁연결하	-11.516
▁발휘하	-11.5162
여금	-11.5197
▁나와있	-11.5198
form	-11.5201
▁spa	-11.5209
흔	-11.5287
태평양	-11.5288
즐	-11.5291
쥐	-11.5292
환경	-11.5302
방향	-11.5306
에너지	-11.5308
▁상징적	-11.5309
작품	-11.5318
비행기	-11.5327
▁극복하	-11.5336
42	-11.54
iz	-11.5403
▁노출되	-11.5407
gb	-11.5413
▁왔습니	-11.5472
▁퇴원	-11.5494
▁체포됐	-11.5518
26	-11.5564
▁유명인사	-11.5581
▁테네시	-11.5598
▁sho	-11.5613
▁복잡하	-11.5634
스럽다	-11.5651
▁운영되	-11.5693
▁벌어졌	-11.5718
▁프란시스	-11.5718
▁중지하	-11.5728
룩	-11.5742
▁우주비행	-11.5745
컷	-11.5757
각기	-11.5761
욱	-11.5783
리포터	-11.5789
▁개헌	-11.5789
솟	-11.5791
렴	-11.5791
항공우주	-11.5793
콰	-11.5793
앵	-11.5793
▁007	-11.5793
▁재검표	-11.5793
▁즈보나레바	-11.5793
▁차이나데일리	-11.5793
넥	-11.5793
늄	-11.5793
닛	-11.5793
둬	-11.5793
ology	-11.5793
▁journal	-11.5793
▁russia	-11.5793
▁uae	-11.5793
▁unep	-11.5793
▁unhcr	-11.5793
▁강제진압	-11.5793
▁검찰총장	-11.5793
▁경기부양책	-11.5793
▁곤잘레스	-11.5793
▁골든노리호	-11.5793
▁과테말라	-11.5793
▁국부펀드	-11.5793
▁국제올림픽위원회	-11.5793
▁남동생	-11.5793
▁냉각탑	-11.5793
▁넷스케이프	-11.5793
▁놀랐다	-11.5793
▁도로매설	-11.5793
▁디얄라	-11.5793
▁땅콩	-11.5793
▁리더십	-11.5793
▁맞교환	-11.5793
▁머물렀다	-11.5793
▁미네소타	-11.5793
▁미주리주	-11.5793
▁베를루스코니	-11.5793
▁보디가드	-11.5793
▁불필요	-11.5793
▁붙어있	-11.5793
▁블래터	-11.5793
▁사파테로	-11.5793
▁상파울루	-11.5793
▁선제골	-11.5793
▁순례객들	-11.5793
▁스나입스	-11.5793
▁실잰더	-11.5793
▁싸이월드	-11.5793
▁아보카도	-11.5793
▁아틀란타	-11.5793
▁악천후	-11.5793
▁알깔드	-11.5793
▁알리탈리아	-11.5793
▁애나폴리스	-11.5793
▁애틀란타	-11.5793
▁오렌지민주운동	-11.5793
▁옥수수	-11.5793
▁요하네스버그	-11.5793
▁워터큐브	-11.5793
▁월스트리트	-11.5793
▁유네스코	-11.5793
▁조기총선	-11.5793
▁카자흐스탄	-11.5793
▁캄푸쉬	-11.5793
▁콘크리트	-11.5793
▁프란체스카	-11.5793
▁프로듀서	-11.5793
▁항생물질	-11.5793
▁해안경비대	-11.5793
▁현수막	-11.5793
▁화학물질	-11.5793
▁휴먼라이츠워치	-11.5793
겹	-11.5793
꽉	-11.5793
륨	-11.5793
뭘	-11.5793
셜	-11.5793
캇	-11.5793
튠	-11.5793
틈	-11.5793
퍽	-11.5793
퐁	-11.5793
▁corp	-11.5793
▁르부크	-11.5793
▁마닐라	-11.5793
▁무효화	-11.5793
▁반독점	-11.5793
▁방사능	-11.5793
▁불가사리	-11.5793
▁스튜어트	-11.5793
▁요즈음	-11.5793
▁유투브	-11.5793
▁저작권	-11.5793
▁텔레비전	-11.5793
▁트레제게	-11.5793
▁합법화	-11.5793
▁검시관	-11.5793
▁나폴리	-11.5793
▁노르가이	-11.5793
▁당나귀	-11.5793
▁비정상적	-11.5793
▁green	-11.5793
▁나스닥	-11.5793
▁다이어트	-11.5793
▁바쿠바	-11.5793
▁식민지	-11.5793
▁장신구	-11.5793
▁전염병	-11.5793
▁정찰위성	-11.5793
▁트레이너	-11.5793
▁심카드	-11.5793
▁아침식사	-11.5793
▁오초아	-11.5793
▁트레일러	-11.5793
▁현기증	-11.5793
▁볼쇼이	-11.5793
▁엑손	-11.5793
▁행크스	-11.5793
▁마피아	-11.5793
▁마코니	-11.5793
▁까를리	-11.5793
▁원동력	-11.5793
▁peta	-11.5793
▁링컨	-11.5793
▁테이블	-11.5793
렌시아	-11.5793
▁깁스	-11.5793
▁남동쪽	-11.5793
▁주경기장	-11.5793
▁헌혈	-11.5793
슬라브	-11.5793
▁산유국	-11.5793
▁카탕가	-11.5793
▁개구리	-11.5793
▁순조롭	-11.5793
▁습득	-11.5793
▁이석씨	-11.5793
▁south	-11.5793
▁갱단	-11.5793
▁상반기	-11.5793
▁시라크	-11.5793
▁야자수	-11.5793
▁잉카	-11.5793
▁사형선고	-11.5793
▁범람	-11.5794
▁미인대회	-11.5794
▁종합병원	-11.5794
▁어쩔	-11.5794
▁활력	-11.5794
▁인도주의적	-11.5794
▁발레리	-11.5794
▁franc	-11.5794
▁피랍됐	-11.5794
▁선데이	-11.5794
▁보복공격	-11.5794
▁백일해	-11.5794
▁연못	-11.5794
▁봉송주자	-11.5794
▁프로이드	-11.5794
▁켈러	-11.5794
▁육류	-11.5794
▁폭락하	-11.5794
▁버렐	-11.5794
▁망설	-11.5794
▁다뤄	-11.5794
▁침식	-11.5794
클라라	-11.5795
▁놀랍	-11.5795
▁놓여있다	-11.5795
▁올라간다	-11.5795
▁뜨거	-11.5795
▁퇴장	-11.5795
▁야생보호	-11.5795
▁face	-11.5795
▁라파베	-11.5795
▁sex	-11.5795
▁그린존	-11.5795
▁체첸	-11.5795
▁제국주의	-11.5795
▁말보로	-11.5795
▁필립공	-11.5796
▁불러일으키	-11.5796
▁777	-11.5796
▁농업단체	-11.5796
▁흘리	-11.5796
▁슈퍼볼	-11.5796
▁해룡	-11.5796
▁망명생활	-11.5796
▁데이먼	-11.5796
▁기념행사	-11.5796
두아르	-11.5797
▁삼엄	-11.5797
▁피해규모	-11.5797
979	-11.5797
▁망치	-11.5797
▁권좌	-11.5797
▁알바니아계	-11.5797
▁앨런	-11.5797
▁사이러스	-11.5797
▁근접	-11.5797
▁가르쳐	-11.5798
▁꾸며	-11.5798
▁목욕	-11.5798
▁영화제작	-11.5798
▁금융시장	-11.5798
▁구축함	-11.5798
▁자치권	-11.5798
▁호황	-11.5798
▁불빛	-11.5798
▁검출	-11.5799
▁액수	-11.5799
▁이슬람교도들	-11.5799
▁생방송	-11.5799
▁활기	-11.58
▁곤경에	-11.58
▁스마트	-11.58
▁밴더	-11.5801
▁타바스코주	-11.5801
▁제롬	-11.5801
▁커튼	-11.5801
층짜리	-11.5801
▁아바타	-11.5801
▁워렌	-11.5802
▁우편물	-11.5802
▁일본은행	-11.5802
▁입찰	-11.5802
▁음료수	-11.5802
▁내비쳤	-11.5802
▁샤리아	-11.5802
▁불황	-11.5803
▁몰렸다	-11.5803
▁왕족	-11.5803
▁일곱	-11.5803
▁anc	-11.5803
▁태생	-11.5804
▁발효	-11.5805
▁카타르	-11.5806
▁출두	-11.5806
▁열정적	-11.5807
▁발송	-11.5807
▁토탈	-11.5807
▁데이브	-11.5808
▁만평	-11.5808
▁대테러	-11.5808
▁관측소	-11.5808
▁사촌	-11.5808
▁철강	-11.5809
▁세탁	-11.5809
▁국가대표	-11.5809
▁파티마	-11.5809
▁오전장에서	-11.5809
▁체류	-11.581
▁지도층	-11.581
▁위스콘신주	-11.581
▁반테러	-11.581
▁가혹	-11.581
▁신념	-11.5811
▁행방	-11.5811
▁프로디	-11.5811
▁독감	-11.5811
▁던져	-11.5812
▁잠입	-11.5812
tse	-11.5813
▁탈선	-11.5813
▁라이브	-11.5813
▁마우스	-11.5813
▁용감	-11.5813
▁변동	-11.5815
▁소변	-11.5815
▁옹호하	-11.5816
▁장외	-11.5817
▁her	-11.5817
▁발견되었다	-11.5817
▁평온	-11.5817
▁영공	-11.5818
▁현행	-11.5818
▁not	-11.582
▁교역	-11.582
▁포격	-11.5821
▁엔화	-11.5821
▁발머	-11.5822
▁들어설	-11.5823
▁집결	-11.5825
ash	-11.5827
평균지수	-11.5836
▁개혁안	-11.5841
▁종말론자들	-11.5844
데릭	-11.585
▁섬유	-11.5851
▁제공되	-11.5856
▁않으려	-11.5861
▁암호화	-11.5866
▁thi	-11.5872
dise	-11.5881
물리학	-11.5896
진입할	-11.5924
▁도처에	-11.5969
▁가장자리	-11.598
아이돌	-11.6001
bad	-11.6038
▁조심스럽	-11.6046
▁어려웠	-11.6049
감각	-11.6054
▁효과적	-11.6112
▁전개되	-11.6155
▁취소하	-11.6156
사이드	-11.6175
주마	-11.622
69	-11.6248
ead	-11.6267
▁거기에	-11.6315
놓는다	-11.6358
▁jo	-11.6397
tri	-11.6464
54	-11.6482
▁선출되	-11.6488
빨	-11.6489
셰	-11.6529
벗	-11.6532
밴	-11.6539
▁부여하	-11.6541
아프리카	-11.6542
뒤	-11.6546
▁발표되	-11.6596
▁마비되	-11.6746
▁셀레	-11.6748
▁내려갔	-11.6755
ome	-11.6848
984	-11.6866
▁공급되	-11.6934
▁떠났	-11.6953
▁들어갔	-11.6975
▁제기됐	-11.6999
프라이	-11.7009
▁극단주의	-11.7026
▁동물보호	-11.7028
옹	-11.7038
짖	-11.704
뷔	-11.704
▁다국적	-11.704
콧	-11.7042
벳	-11.7042
왓	-11.7043
툼	-11.7043
▁administrat	-11.7043
▁black	-11.7043
▁스크래블	-11.7043
꿨	-11.7043
럿	-11.7043
샅	-11.7043
윙	-11.7043
젼	-11.7043
캘	-11.7043
퉁	-11.7043
▁cjd	-11.7043
▁federa	-11.7043
▁girls	-11.7043
▁group	-11.7043
▁london	-11.7043
▁music	-11.7043
▁sadc	-11.7043
▁science	-11.7043
▁가브리엘	-11.7043
▁가즈프롬	-11.7043
▁고생물학자	-11.7043
▁곤살레스	-11.7043
▁관영언론	-11.7043
▁교통체증	-11.7043
▁국제원자력기구	-11.7043
▁급성장하	-11.7043
▁다큐멘터리	-11.7043
▁당뇨병	-11.7043
▁더글러스	-11.7043
▁동성결혼	-11.7043
▁디트로이트	-11.7043
▁떨어뜨리	-11.7043
▁롤러코스터	-11.7043
▁리투아니아	-11.7043
▁머리카락	-11.7043
▁백만장자	-11.7043
▁보안검색	-11.7043
▁비무장지대	-11.7043
▁빌라로사	-11.7043
▁산악지대	-11.7043
▁삽흐나니	-11.7043
▁상파울로	-11.7043
▁새크라멘토	-11.7043
▁생물연료	-11.7043
▁숭례문	-11.7043
▁식이요법	-11.7043
▁아라우조	-11.7043
▁아흐마디네자드	-11.7043
▁암스테르담	-11.7043
▁앞질렀	-11.7043
▁애니메이션	-11.7043
▁얀코비치	-11.7043
▁에비니르	-11.7043
▁에스토니아	-11.7043
▁오케스트라	-11.7043
▁원자력발전소	-11.7043
▁원정경기에서	-11.7043
▁유방암	-11.7043
▁유칼립투스	-11.7043
▁인수합병	-11.7043
▁전년동기	-11.7043
▁조직폭력배	-11.7043
▁진상조사	-11.7043
▁최루가스	-11.7043
▁추수감사절	-11.7043
▁컨소시엄	-11.7043
▁테헤란	-11.7043
▁투쟁하	-11.7043
▁페덜라인	-11.7043
▁할아버지	-11.7043
▁함부르크	-11.7043
▁합참의장	-11.7043
▁항셍지수	-11.7043
▁헬리콥터	-11.7043
▁화물열차	-11.7043
갠	-11.7043
궐	-11.7043
농축우라늄	-11.7043
덱	-11.7043
뎁	-11.7043
렙	-11.7043
룽	-11.7043
볍	-11.7043
엎	-11.7043
인터내셔널	-11.7043
잎	-11.7043
츄	-11.7043
텍	-11.7043
툰	-11.7043
▁free	-11.7043
▁from	-11.7043
▁gps	-11.7043
▁공격목표	-11.7043
▁떠오르	-11.7043
▁로드맵	-11.7043
▁마돈나	-11.7043
▁마리네오	-11.7043
▁맨하탄	-11.7043
▁모나리자	-11.7043
▁보톡스	-11.7043
▁복음주의	-11.7043
▁세부사항	-11.7043
▁식량부족	-11.7043
▁역전승	-11.7043
▁이스터섬	-11.7043
▁칼데론	-11.7043
▁클레이코트	-11.7043
▁타임스퀘어	-11.7043
▁파나마시티	-11.7043
▁환경오염	-11.7043
탬	-11.7043
▁dhs	-11.7043
▁스폰서	-11.7043
▁알레한드	-11.7043
▁재산피해	-11.7043
▁키드록	-11.7043
▁비틀즈	-11.7043
▁영사관	-11.7043
▁개회식	-11.7043
▁친서방	-11.7043
▁농경지	-11.7043
▁멕시코시티	-11.7043
▁니콜리치	-11.7043
▁현충일	-11.7043
▁숭배	-11.7043
▁피카소	-11.7043
▁휘슬러	-11.7043
▁asean	-11.7043
▁모레노	-11.7043
▁엘비스	-11.7043
▁칼리아리	-11.7043
▁즐겁	-11.7043
▁take	-11.7043
▁슐츠	-11.7043
▁이벤트	-11.7043
에이전시	-11.7043
▁만수르	-11.7043
▁포브스	-11.7043
▁부드러	-11.7043
▁혼잡	-11.7043
▁빌크스	-11.7043
▁냉장고	-11.7043
▁베이촨	-11.7043
▁리베라	-11.7043
▁혁신	-11.7043
▁위태롭	-11.7043
▁투표용지	-11.7043
▁정부청사	-11.7043
▁보조식품	-11.7043
▁줄어든	-11.7043
▁무자비	-11.7043
▁중동평화회담	-11.7043
▁올림피	-11.7043
▁장래에	-11.7044
▁깔린	-11.7044
▁국방위원장	-11.7044
▁예방주사	-11.7044
▁해파리	-11.7044
▁웃음	-11.7044
▁운전기사	-11.7044
▁투자은행	-11.7044
▁헌터	-11.7044
▁북아일랜드	-11.7044
▁자서전	-11.7044
▁말리크	-11.7044
▁윈저	-11.7044
able	-11.7044
eigh	-11.7044
▁착각	-11.7044
▁자백했다	-11.7044
▁보았습니	-11.7044
다닌다	-11.7044
▁브리핑	-11.7044
▁금융사고	-11.7044
▁히트곡	-11.7044
▁남아메리카	-11.7044
▁적임자	-11.7044
▁노숙자	-11.7044
▁로얄	-11.7044
▁경제성장률	-11.7044
▁정전사태	-11.7044
▁키에프	-11.7044
▁비겁	-11.7044
▁선발대회	-11.7044
▁답신	-11.7044
▁징크	-11.7044
▁좌우	-11.7044
▁아빠	-11.7044
▁계절적	-11.7044
▁델타항공	-11.7045
▁리베리	-11.7045
▁스카이다이	-11.7045
▁완패	-11.7045
▁아름다움	-11.7045
도르프	-11.7045
▁소방당국	-11.7045
▁프로필	-11.7045
▁수석대표	-11.7045
▁다이빙	-11.7045
▁탈옥	-11.7045
gue	-11.7045
▁알파한	-11.7045
▁부정행위	-11.7046
▁죄악	-11.7046
▁클릭	-11.7046
▁이해관계	-11.7046
▁부유층	-11.7046
▁1983	-11.7046
▁눈보라	-11.7046
space	-11.7046
▁탈퇴	-11.7046
▁용암	-11.7046
▁베풀	-11.7046
▁충성	-11.7046
▁국회의장	-11.7046
▁철폐	-11.7046
▁티켓	-11.7047
▁창녀	-11.7047
▁tsa	-11.7047
▁날카로	-11.7047
▁총기사건	-11.7047
▁대명사	-11.7047
▁낫다	-11.7047
▁도발적	-11.7047
▁진압경찰	-11.7047
▁로비스트	-11.7047
▁불쾌감	-11.7047
▁납품	-11.7048
▁살처분	-11.7048
▁쓰러졌다	-11.7048
▁죠지	-11.7048
▁벌어질	-11.7048
▁막으려	-11.7048
972	-11.7048
▁귀순	-11.7049
▁취득	-11.7049
▁헌장	-11.7049
▁입후보	-11.7049
▁크리스탈	-11.7049
▁애국심	-11.7049
▁총격사건	-11.7049
▁보호구역	-11.7049
▁conf	-11.7049
▁습성	-11.7049
▁파틸	-11.705
▁보안요원	-11.705
▁스팍스	-11.705
▁러브	-11.705
▁esta	-11.705
▁식량가격	-11.705
▁도핑	-11.7051
▁기부금	-11.7051
▁치러졌다	-11.7051
▁우호적	-11.7051
▁완강	-11.7051
▁관례	-11.7052
▁선호하	-11.7052
▁이어나가	-11.7052
▁위자료	-11.7053
▁복사	-11.7053
▁훔쳤	-11.7053
▁결장한	-11.7054
▁선보였	-11.7056
▁주치의	-11.7057
▁버린다	-11.7059
▁관절	-11.7059
ries	-11.7061
cio	-11.7065
▁폭도들	-11.7066
▁빈번하	-11.7067
글라스	-11.7078
▁나간다	-11.7078
29	-11.7083
▁이례적	-11.7086
작가협회	-11.7087
▁부의장	-11.7087
line	-11.7089
▁텔레	-11.7093
테이션	-11.7106
▁피의자들	-11.7148
▁ver	-11.7209
▁자랑스럽	-11.7237
▁사라져	-11.7299
▁보냈으	-11.73
▁작동하	-11.7339
▁인종차별적	-11.7346
▁방영되	-11.7371
▁소행이라	-11.7428
▁놓았	-11.7444
▁세워졌	-11.7542
▁밝혀졌	-11.762
▁움직였	-11.7644
come	-11.7681
▁종업원	-11.7721
▁근본적	-11.7801
▁해산시키	-11.7847
중앙은행	-11.7962
낙	-11.7962
헬	-11.7963
수사관	-11.7963
앨	-11.7966
박물관	-11.7966
965	-11.8026
▁헌신적	-11.8037
tric	-11.8046
▁lea	-11.808
▁공동성명	-11.8116
▁취소되	-11.8198
dom	-11.8208
▁회복되	-11.8251
▁따냈	-11.826
ull	-11.8293
▁심리적	-11.8352
▁먹으	-11.8392
▁나타냈	-11.8403
ture	-11.8434
략	-11.8438
▁arc	-11.8443
롯	-11.8467
낫	-11.8467
멍	-11.8468
봇	-11.8469
섹	-11.847
뉘	-11.8471
놔	-11.8472
파이낸셜	-11.8472
communications	-11.8472
▁academ	-11.8472
▁animal	-11.8472
▁foundation	-11.8472
▁gartner	-11.8472
▁health	-11.8472
▁kurdis	-11.8472
▁office	-11.8472
▁osce	-11.8472
▁service	-11.8472
▁zoe	-11.8472
▁곤란하다	-11.8472
▁국무총리	-11.8472
▁굶주림	-11.8472
▁깅그리치	-11.8472
▁꾸몄다	-11.8472
▁나뭇가지	-11.8472
▁남우주연상	-11.8472
▁너구리	-11.8472
▁네델란드	-11.8472
▁노동조합	-11.8472
▁뉘른베르크	-11.8472
▁니스텔로이	-11.8472
▁댈러글리오	-11.8472
▁되찾았	-11.8472
▁로스앤젤레스	-11.8472
▁르윈스키	-11.8472
▁마몬홀딩스	-11.8472
▁만리장성	-11.8472
▁말레이지아	-11.8472
▁멜버른	-11.8472
▁무그니예	-11.8472
▁무기징역	-11.8472
▁무력충돌	-11.8472
▁밀랍인형	-11.8472
▁베스메르트노바	-11.8472
▁부에노스아이레스	-11.8472
▁뽑아냈	-11.8472
▁상트페테르부르크	-11.8472
▁샐러드	-11.8472
▁성매매	-11.8472
▁쇼핑객들	-11.8472
▁슈톡하우젠	-11.8472
▁스몰츠	-11.8472
▁스프링스틴	-11.8472
▁시에라리온	-11.8472
▁심각해지	-11.8472
▁아르데코	-11.8472
▁알츠하이머	-11.8472
▁엑셀로드	-11.8472
▁엘리베이터	-11.8472
▁여장남자	-11.8472
▁연두교서	-11.8472
▁옥스포드	-11.8472
▁온슬로우	-11.8472
▁와지리스탄	-11.8472
▁왜곡하	-11.8472
▁이데올로기	-11.8472
▁인권탄압	-11.8472
▁자메이카	-11.8472
▁장바이러스	-11.8472
▁전국대표대회	-11.8472
▁정착촌	-11.8472
▁추돌사고	-11.8472
▁카르발라	-11.8472
▁카트만두	-11.8472
▁캐즈미어책	-11.8472
▁컨설팅	-11.8472
▁콜레스테롤	-11.8472
▁쿠알라룸푸르	-11.8472
▁클리브랜드	-11.8472
▁토탄지대	-11.8472
▁펀자브	-11.8472
▁펜실베니아	-11.8472
▁펠로우즈	-11.8472
▁플랫폼	-11.8472
▁해밀턴	-11.8472
▁허탈감	-11.8472
▁헬로키티	-11.8472
▁혹등고래	-11.8472
▁홈구장	-11.8472
▁흥미롭	-11.8472
▁히딩크	-11.8472
낀	-11.8472
돋	-11.8472
뱃	-11.8472
볐	-11.8472
솜	-11.8472
숍	-11.8472
싹	-11.8472
윰	-11.8472
줌	-11.8472
핍	-11.8472
▁ppk	-11.8472
▁will	-11.8472
▁금강산	-11.8472
▁급상승	-11.8472
▁기밀문서	-11.8472
▁독재정권	-11.8472
▁마약밀매	-11.8472
▁부정부패	-11.8472
▁비아그라	-11.8472
▁산유량	-11.8472
▁세르게이	-11.8472
▁슈퍼마켓	-11.8472
▁실리콘	-11.8472
▁아이스크림	-11.8472
▁앨라배마	-11.8472
▁자랑스러워	-11.8472
▁자이언트	-11.8472
▁집속탄	-11.8472
▁킹크랩	-11.8472
▁페샤와르	-11.8472
▁플래카드	-11.8472
▁플레이스테이션	-11.8472
▁핵연료	-11.8472
▁헐리우드	-11.8472
▁홀리필드	-11.8472
▁화장품	-11.8472
샨	-11.8472
텀	-11.8472
▁knu	-11.8472
▁rbs	-11.8472
▁긴급대책	-11.8472
▁깃털	-11.8472
▁밀워키	-11.8472
▁불태우	-11.8472
▁비폭력	-11.8472
▁음주운전	-11.8472
▁잠재력	-11.8472
▁캐스팅	-11.8472
▁코알라	-11.8472
▁폴리트코프스	-11.8472
▁플레이오프	-11.8472
▁휴스턴	-11.8472
프런티어	-11.8472
픽쳐스	-11.8472
▁1967	-11.8472
▁adh	-11.8472
▁기븐스	-11.8472
▁되돌려	-11.8472
▁밀매업자	-11.8472
▁오래전부터	-11.8472
▁이슬라믹	-11.8472
▁자외선	-11.8472
▁bagh	-11.8472
▁메추리	-11.8472
▁언젠가	-11.8472
▁재경선	-11.8472
▁남아시아	-11.8472
▁등소평	-11.8472
▁백화점	-11.8472
▁세척제	-11.8472
▁아스카리	-11.8472
▁게시판에	-11.8472
▁국유화	-11.8472
▁북동쪽	-11.8472
▁앵커리지	-11.8472
▁튜닝	-11.8472
▁꿀벌	-11.8472
▁유동성	-11.8472
▁유류세	-11.8472
▁선진국	-11.8472
▁마카오	-11.8472
▁물대포	-11.8472
▁비키니	-11.8472
▁규칙	-11.8472
▁발명품	-11.8472
▁순이익	-11.8472
▁dax	-11.8472
▁조연상	-11.8472
▁라보프	-11.8472
▁만족스럽	-11.8472
▁베르나르	-11.8472
▁총기소지	-11.8472
▁쓰나미	-11.8472
▁캐롤라인	-11.8472
▁텐징	-11.8472
▁대리석	-11.8472
▁픽톤	-11.8472
▁스케줄	-11.8472
▁사로잡	-11.8472
▁전동차	-11.8472
▁크로커	-11.8472
▁제롤라	-11.8472
▁태어나	-11.8472
▁익숙	-11.8472
▁나뉘어	-11.8472
▁뮤직	-11.8472
▁기다렸다	-11.8472
▁딜런	-11.8472
▁어울리	-11.8472
▁지중해	-11.8472
▁휘말	-11.8472
▁blue	-11.8472
▁해수면	-11.8472
▁부르니와	-11.8472
▁내세우	-11.8472
▁네이더	-11.8472
▁튜브	-11.8472
▁수수료	-11.8472
▁지혈대	-11.8472
트로폴리	-11.8472
▁파울로	-11.8472
▁다이버들	-11.8472
▁eads	-11.8472
▁금융위기	-11.8472
▁순다라	-11.8472
▁북아프리카	-11.8472
▁마운트	-11.8472
▁파블로	-11.8472
▁어렸을	-11.8472
▁좌측	-11.8472
▁그레이트	-11.8472
▁딜러	-11.8472
▁숨어있	-11.8472
▁맞았으	-11.8472
▁주니어	-11.8472
▁cac	-11.8472
▁리스본	-11.8472
▁희미	-11.8472
▁버핏	-11.8473
▁추산되	-11.8473
▁퇴직	-11.8473
▁위안화	-11.8473
▁가오리	-11.8473
▁여행가방	-11.8473
▁재가동	-11.8473
▁레이나도	-11.8473
▁욕실	-11.8473
▁유대관계	-11.8473
밖	-11.9491
맹	-11.9617
템	-11.963
갖	-11.9634
빅	-11.9634
맞	-11.964
룡	-12.0131
붕	-12.0133
숭	-12.0138
퀘	-12.0138
셍	-12.0138
콥	-12.0138
쿼	-12.0138
멕	-12.0138
써	-12.0654
같	-12.1282
꽃	-12.1633
곧	-12.164
높	-12.1641
또	-12.1643
뤄	-12.2085
벼	-12.2132
즘	-12.2137
깔	-12.2137
핏	-12.2137
긍	-12.2138
룻	-12.2138
뤼	-12.2138
겸	-12.4129
콩	-12.4131
못	-12.4131
잇	-12.4132
맛	-12.4132
깨	-12.4135
맡	-12.4137
큰	-12.4143
즌	-12.4622
촨	-12.4638
껴	-12.4638
훼	-12.4638
찮	-12.4638
덧	-12.4638
뼈	-12.7462
칩	-12.7464
쏘	-12.7467
밑	-12.7471
랙	-12.7963
꿔	-12.7964
얄	-12.7968
앗	-12.7971
츨	-12.7971
낄	-12.7972
댈	-12.7972
랴	-12.7972
쉘	-12.7972
냄	-12.7972
겁	-13.2464
빠	-13.2464
떠	-13.2466
붐	-13.247
쓴	-13.2471
꼭	-13.2473
숲	-13.2473
쓸	-13.2474
멀	-13.2475
읽	-13.2475
숨	-13.2475
묻	-13.2477
웹	-13.2478
놨	-13.2892
팍	-13.2954
쩔	-13.2968
깁	-13.2971
끗	-13.2971
솅	-13.2972
쳇	-13.2972
햇	-13.2972
퀸	-14.25
헐	-14.2501
냉	-14.2503
앞	-14.2503
흉	-14.2503
뇌	-14.2504
넓	-14.2504
봄	-14.2504
낮	-14.2506
깊	-14.2507
맺	-14.2509
몸	-14.251
즉	-14.251
펭	-14.2741
찢	-14.2742
잦	-14.2743
쏠	-14.2744
슭	-14.2745
뻗	-14.2746
몄	-14.2747
렷	-14.2748
깜	-14.2749
귄	-14.275
췌	-14.2751
잿	-14.2752
샐	-14.2753
긱	-14.2754
굉	-14.2755
킷	-14.2756
잰	-14.2757
얇	-14.2758
앰	-14.2759
쐈	-14.276
쏜	-14.2761
뭔	-14.2762
맷	-14.2763
둡	-14.2764
깎	-14.2765
곁	-14.2766
갚	-14.2767
윔	-14.2768
씌	-14.2769
싣	-14.277
닮	-14.2771
꽂	-14.2772
휠	-14.2773
홉	-14.2774
핫	-14.2775
폼	-14.2776
펫	-14.2777
탓	-14.2778
윅	-14.2779
씻	-14.278
뻐	-14.2781
볕	-14.2782
맑	-14.2783
댓	-14.2784
픔	-14.2785
팸	-14.2786
옵	-14.2787
썹	-14.2788
샴	-14.2789
벵	-14.279
닿	-14.2791
늬	-14.2792
깐	-14.2793
굿	-14.2794
흩	-14.2795
컸	-14.2796
엉	-14.2797
셨	-14.2798
뭉	-14.2799
몫	-14.28
뚫	-14.2801
깅	-14.2802
괜	-14.2803
핸	-14.2804
튀	-14.2805
붓	-14.2806
뮌	-14.2807
꼽	-14.2808
굶	-14.2809
옐	-14.281
섞	-14.2811
빵	-14.2812
뚜	-14.2813
낡	-14.2814
팰	-14.2815
촛	-14.2816
짙	-14.2817
젖	-14.2818
삽	-14.2819
멤	-14.282
굳	-14.2821
펄	-14.2822
팜	-14.2823
켐	-14.2824
썩	-14.2825
빔	-14.2826
뱅	-14.2827
횡	-14.2828
탠	-14.2829
챙	-14.283
옳	-14.2831
밟	-14.2832
팝	-14.2833
띄	-14.2834
녔	-14.2835
꼈	-14.2836
갇	-14.2837
탱	-14.2838
탔	-14.2839
캥	-14.284
셸	-14.2841
묶	-14.2842
딴	-14.2843
듭	-14.2844
팽	-14.2845
뇨	-14.2846
뿔	-14.2847
밸	-14.2848
숫	-14.2849
눴	-14.285
낌	-14.2851
킥	-14.2852
쌀	-14.2853
넹	-14.2854
잊	-14.2855
랬	-14.2856
펌	-14.2857
싫	-14.2858
숀	-14.2859
쫓	-14.286
썼	-14.2861
뭄	-14.2862
댐	-14.2863
좁	-14.2864
옛	-14.2865
뀌	-14.2866
흰	-14.2867
붉	-14.2868
짧	-14.2869
쏟	-14.287
쌓	-14.2871
벅	-14.2872
딪	-14.2873
깝	-14.2874
닫	-14.2875
슴	-14.2876
뿌	-14.2877
섯	-14.2878
뱀	-14.2879
똑	-14.288
덩	-14.2881
빗	-14.2882
묵	-14.2883
돕	-14.2884
젝	-14.2885
왼	-14.2886
릎	-14.2887
듣	-14.2888
궤	-14.2889
걱	-14.289
얘	-14.2891
멋	-14.2892
뒷	-14.2893
낳	-14.2894
꺾	-14.2895
걷	-14.2896
휩	-14.2897
꿈	-14.2898
훌	-14.2899
뽑	-14.29
빼	-14.2901
녁	-14.2902
좀	-14.2903
빚	-14.2904
옆	-14.2905
앓	-14.2906
잭	-14.2907
늦	-14.2908
덮	-14.2909
삶	-14.291
왜	-14.2911
갤	-14.2912
닷	-14.2913
앉	-14.2914
룹	-14.2915
톰	-14.2915
끊	-14.2916
옮	-14.2917
슷	-14.2918
땅	-14.2919
곽	-14.292
홈	-14.2921
챔	-14.2922
찍	-14.2923
녹	-14.2924
젊	-14.2925
넣	-14.2926
뛰	-14.2927
흥	-14.2928
끄	-14.2929
융	-14.293
헨	-14.2931
큼	-14.2932
촬	-14.2933
떻	-14.2934
샌	-14.2935
렀	-14.2936
겪	-14.2937
믿	-14.2938
뜻	-14.2939
흑	-14.294
펼	-14.2941
렇	-14.2942
윌	-14.2943
잃	-14.2944
랐	-14.2945
싶	-14.2946
섰	-14.2947
첫	-14.2948
끌	-14.2949
떤	-14.295
켰	-14.2951
끝	-14.2952
넘	-14.2953
늘	-14.2954
얻	-14.2955
찾	-14.2956
좋	-14.2957
떨	-14.2958
몇	-14.2959
혐	-14.296
쟁	-14.2961
붙	-14.2962
v	-14.2963
객	-14.2964
협	-14.2965
많	-14.2966
눠	-14.2966
확	-14.2967
최	-14.2968
않	-14.2969
밝	-14.297
쿄	-14.297
0	-14.2971
맵	-14.2972
댕	-14.2972
.	-14.2972
뭇	-14.2972
